#version: 0.2
Ġ t
i n
Ġ a
ä ¸
h e
r e
ç ļ
çļ Ħ
o n
Ġt he
ï ¼
e r
a t
e n
ä º
ï¼ Į
ã Ģ
Ġ c
â Ģ
Ġ s
i t
Ġ o
a n
e s
ãĢ Ĥ
i s
ä »
Ġ w
a l
Ġ p
o r
Ġ b
Ġ in
å ı
æ ľ
å ħ
Ġ f
e d
n d
in g
å Ľ
Ġt o
i c
a r
Ġ m
i on
è ¿
Ġo f
r o
å ľ
å ¤
å Ī
å ®
Ġ d
Ġa nd
o u
Ġ âĢ
åĽ ½
en t
æ ĺ
Ġt h
Ġ e
ç »
l e
s t
ä ½
å Ĭ
Ġ h
Ġ re
o m
Ġ n
i l
å °
ä ¹
åľ ¨
æĺ ¯
æ Ķ
ä¸ Ģ
v e
a s
l y
å ¹
ä ¼
å Ĳ
æ Ī
æ ĸ
Ġ l
å Ĵ
åĴ Į
è ®
Ġb e
c t
Ġ g
u t
Ġ is
è Ģ
o l
ä¸ į
æ Ŀ
å į
å ¯
at ion
ç Ľ
Ġth at
ç Ķ
é ĩ
è¿ Ļ
i m
âĢ Ļ
å º
æľ ī
æ Ĺ
ĥ ½
äº º
è ¯
æ ī
c e
ä¸ Ń
s e
ĠâĢ Ķ
äº Ĩ
æ Ń
v er
Ġd e
o t
u r
å ¸
r a
è ¡
å Ĩ
è ´
å ¾
å ĩ
ä¸ º
m ent
Ġf or
å ·
é Ģ
l d
i g
i d
e t
o w
æ ¬
Ġ it
Ġ on
å ¼
æ Ģ
å¤ §
i es
å Į
æĶ ¿
è µ
Ġs t
è ĥ½
ç» ı
ä» ¬
c h
n t
ä» ¥
a d
Ġp ro
Ġ u
æ ł
ç İ
æ µ
il l
Ġ C
å¹ ´
ä¼ ļ
at e
i r
Ġc on
u l
å¯ ¹
æ °
é Ŀ
è ĩ
é Ļ
æ Ĭ
é ¢
¦ ģ
æ ´
ç ¾
åı ¯
æ ķ
è ¦ģ
æĿ ¥
è §
o re
æ ŀ
ĠâĢ ĵ
p e
Ġa s
T he
èĢ Į
er s
ç¾ İ
å® ¶
æ ²
it h
ä¸ ª
es t
æ¬ §
æ ³
è¡ Į
Ġ E
it y
Ġw h
é Ĺ
Ġ r
2 0
ä½ Ĩ
Ġa l
å ½
Ġc ou
ãĢ ģ
ç §
Ġ A
he r
Ġs u
æ ĭ
åħ ¶
l o
Ġe x
g e
ä» ĸ
å Ń
ä ¿
äº İ
Ġw ith
Ġa re
or t
æ Į
a y
å ¿
is t
a b
å ¦
c on
ä¸ Ĭ
es s
Ġa n
Ġn e
i al
âĢ Ŀ
æĪ Ĳ
åĪ °
ç Ĳ
ä¹ Ł
å Ģ
t h
i ve
re s
åľ °
a in
u s
åı ĳ
Ġh a
t er
Ġ S
æ Ľ
å¦ Ĥ
åĩ º
æµ İ
Ġn ot
i f
a m
ç»ı æµİ
åĬ Ľ
å° Ĩ
ç º
Ġc om
i v
å ĳ
ç Ń
æ İ
Ġ U
å® ŀ
Ġw e
k e
æ ¯
å¤ ļ
Ġb y
æī Ģ
Ġh as
æĹ ¶
å İ
å ¢
con om
å ī
èµ Ħ
e m
çİ °
ä¸ »
ä¸Ń åĽ½
æ´ ²
æ° ĳ
ç¾İ åĽ½
Ġha ve
a c
åħ ¨
ou ld
h in
ç ī
p p
æ³ ķ
Ġs e
Ġ I
å Ł
Ġ le
æĸ ¹
åĪ ©
Ġw ill
çĶ Ł
an d
Ġp ol
ï¼ Ī
å ±
ï¼ ī
Ġs h
å ¥
é ķ
æĽ ´
Ġe conom
q u
äº Ľ
æľ Ģ
åĽ½ å®¶
u st
èĩ ª
è¿ ĩ
æĪ ĳ
æ Ħ
åĽ ł
o c
ç ķ
u ro
åĬ ¨
Ġw or
u m
Ġ en
éķ ¿
Ġ v
æĢ §
ig h
å° ±
ro m
Ġcou nt
æŃ ¤
èĢ ħ
éĩ į
ä¹ ĭ
o ver
ç «
ĠâĢ ľ
åĮ ĸ
o p
ä ¾
æľ ¬
o st
æĸ °
è ¾
an t
a p
å¾ Ĺ
ä¸ ļ
Ġ B
ic al
å¹ ¶
åĪ ¶
æľ º
Ġ im
Ġf rom
Ġcount r
æ ĥ
ĠC hin
Ġa t
o s
å® ļ
ç ®
i a
åĬ ł
ion s
çĶ ¨
Ġo r
o d
Ġ P
ar t
Ġm ore
é ¡
å ĵ
Ġit s
Ġc h
i z
æ ı
Ġ he
åĲ Į
å¢ ŀ
Ġ y
ä¸ İ
Ġthe ir
u re
ç ¨
om e
a st
è¿ Ľ
åī į
âĢ ľ
on g
é ĺ
è ¶
é ģ
æĸ ¯
ä½ ľ
ä¸ ĸ
uro pe
åº ¦
äº §
Ġ G
å½ ĵ
ç Ħ
i b
ä¸Ģ ä¸ª
an s
Ġ M
u n
åĪ Ĩ
Ġin c
åº Ķ
æĮ ģ
æ¬§ æ´²
ä¸ ĭ
é ľ
æŃ £
ä½ ĵ
Ġin t
e l
äº ĭ
åħ ¬
é ĥ½
çĦ ¶
éĩ ĳ
f f
é ļ
åĲ İ
é Ĥ
éĿ ¢
åħ ³
æŀ ľ
t her
Ġim p
æĪĳ ä»¬
Ġu n
çĲ Ĩ
é «
ro w
B ut
Ġre s
re d
éĹ ®
é« ĺ
ĠE urope
ic h
an c
e ar
å® ĥ
r u
ĠChin a
a k
è ģ
çļĦ ç
e ct
é ĥ
çŃ ĸ
Ġw ould
æ² »
å¤ ĸ
æ¯ Ķ
æ ±
å ģ
åı¯ èĥ½
m er
æĹ ł
éĥ ¨
æł ·
åº ľ
en d
åı Ĭ
Ġth is
æĶ¿ åºľ
çĽ ¸
g h
Ġa d
al l
p t
åħ ¥
igh t
åľ º
çķ Į
è °
Ġa b
ç ½
ç Ŀ
å· ²
è ĭ
å¯ ¼
Ġc an
é¢ ĺ
çĽ Ł
Ġw as
over n
Ġ 20
å¹ ³
è ¢
æı Ĳ
ar y
ä» İ
an ce
Ġ 1
æĦ ı
Ġa g
æľ Ł
åĲ Ī
éľ Ģ
ĠU S
I n
Ġcon t
Ġthe y
æĪ ĺ
çĽ ®
Ġth an
ab le
åı ĺ
ç ¡
Ġ R
åĨ ³
ä»ĸ ä»¬
å¸ Ĥ
r ic
d u
åŁ º
éĿ ŀ
Ġcountr ies
è¿ ĺ
è ½
éĹ® é¢ĺ
ç® ¡
ation al
è¿Ļ ä¸Ģ
ar d
çĲ ĥ
Ġwh ich
ou s
Ġg overn
çĿ Ģ
Ġ F
Ġf in
c c
ou t
æķ °
ç ľ
å Ŀ
ç ³
éĢ ļ
çī ¹
ç§ į
i p
Ġal l
ro u
å¼ Ģ
0 0
at es
åĮ º
u d
T h
æ ģ
Ġcom p
åŃ ¦
æ į
éĤ £
at ed
è¯ ¥
ar k
ä¿ Ŀ
ä¸ĸ çķĮ
ig n
äº ļ
æĿ ĥ
æ Ļ
çİ ĩ
ation s
çĶ ±
èģ Ķ
e re
an k
ç» Ł
Ġw he
Ġg row
é¢ Ĩ
åı¯ ä»¥
åĬ ¡
å· ¥
Ġwor ld
è¯ ´
æĬ ķ
Ġex p
Ġy ear
ä¹ ī
Ġre c
åħ ĥ
b al
ul t
è¢ «
i e
res s
åı į
åħ¨ çĲĥ
Ġm an
å° Ķ
æĺ İ
æ² ¡
å¢ŀ éķ¿
Ġf a
Ġ (
Ġgovern ment
éĹ ´
æĶ¿ çŃĸ
åı Ĺ
v en
Ġ j
æĶ ¯
ä» £
æ ¶
é ĵ
i ke
éĩ ı
Ġeconom ic
l ic
è¿Ļ äºĽ
å »
éĢ ī
ä» »
or m
on e
åĨ ħ
Ġ T
æĢ »
Ġ W
ç ¼
Ġd o
è§ £
Ġpol ic
re at
Ġb ut
å¿ ħ
Ġd is
id e
ç³ »
Ġt r
lo bal
en ce
Ġp art
åĳ ĺ
è ĥ
ç ¤
ç» ĵ
å §
è ŀ
æĪ ĸ
æĶ¿ æ²»
Ġpol it
ä½ ¿
èŀ į
å± ķ
a g
æĶ ¹
Ġbe c
Ġ D
è® ®
Ġp l
å·² ç»ı
Ġ N
è Ĥ
Ġin v
Ġne w
ç Ĥ
åħ ĭ
u b
r is
ä» ·
è® ¤
Ġbe en
æ ¸
è® ¸
o g
Ġo ut
éĻ ħ
Ġre g
è® ©
æ²¡ æľī
Ġo ther
æĭ ī
æĶ ¶
Ġs o
a ge
in e
re e
åħ ±
æ¬§ çĽŁ
or s
ä¿ ¡
åİ »
æĹ ¥
ç Ł
è® ¡
éľĢ è¦ģ
ç« ĭ
æ º
Ġp e
ç ©
Ġm e
e p
Ġde c
å¾ ·
ark et
i le
¥ ¿
åı ĸ
èµ ·
Ġo ver
è ·
å¼ º
ct ion
im e
ç ĸ
Ġg lobal
ç ´
å¸Ĥ åľº
lo p
å· ´
è¡ ¨
åı ª
ve lop
åį ±
è ¥¿
a re
å¿ ĥ
l l
éĵ ¶
Ġgrow th
åĲ ĳ
ac k
Ġle ad
åĢ º
Ġ ï¼Į
è¾ ¾
éĵ¶ è¡Į
Ġt ra
ä½ İ
o se
èĭ ±
Â ·
Ġon e
æ Ł
f orm
s o
ä¹ Ī
è® º
æĺ ĵ
ï¼ ļ
åħ¶ ä»ĸ
æĥ ħ
é £
i an
å¾ Ī
æĸ ½
mer ic
æ± Ĥ
ow er
Ġin ter
çĤ ¹
en s
åĽł ä¸º
å¸ ¸
al ly
é Ľ
å¦Ĥ æŀľ
æĬķ èµĦ
æľ ª
Ġr is
ä» Ĭ
er n
re n
éĢ ł
è¿ ĳ
Ġin d
ç¡ ®
it ion
er m
é ©
äº ī
å¥ ½
Ġne ed
Ġ ãĢĤ
Ġu nd
Ġfin anc
å¤ ±
Ġ K
å° ĳ
it ies
ä¸» ä¹ī
u e
Ġal so
ou r
Ġe ff
Ġde m
il ity
Ġm arket
çº ¦
Ġsh ould
a u
å» º
c y
æº Ĳ
èĩ ´
çŃ ī
Ġl ike
ä½ ķ
éĩĳ èŀį
re as
Ġ J
ç¨ ĭ
èĩ ³
ĠâĢ Ŀ
Ġon ly
åı £
a ke
Ġcon s
ä»¥ åıĬ
Ġcou ld
Ġde velop
Ġinv est
å¸ ģ
ĠU n
é¡ »
æł ĩ
åıĳ å±ķ
éļ ¾
é¢ Ħ
è ī
æŀ Ħ
è§ Ħ
çĽ Ĭ
Ġcom m
è İ
Ġpolit ical
å¿ħ é¡»
ç ł
å¼ ı
éĩ Į
Ġab out
id ent
i re
ç» Ń
ĠA meric
op le
ç ±
Ġm ost
è Ĳ
Ġp re
Ġ H
å® ī
æ¬ ¡
åĬ ©
åį ģ
ç» Ħ
Ġa cc
Ġb ank
åĪ Ļ
Ġn o
f ic
ä¸ ¤
éģ ĵ
Ġsu ch
an ge
Ġ ï¼ī
Ġp er
Ġst r
ä½ į
or d
Ġwh o
at ive
æł ¼
å½ ±
Ġl ong
Ġc l
Ġn ow
Ġbe t
Ġthe re
éĻ ©
é Ķ
it ed
è´ §
Ġpolic y
Ġc ap
l ow
åį± æľº
æ¶ Ī
Ġfinanc ial
o od
æ° Ķ
ä¾ Ľ
ĠEurope an
Ġsu pp
¾ ä¼ļ
åĵ į
æ ¡
ment s
Ġs p
éĿ ©
æķ Ļ
u ch
r it
Ġe ven
ub lic
is m
Ġpe ople
åĲ Ħ
Ġu p
åĽ½ éĻħ
æķ Ī
Ġ qu
æĶ ¾
Ġyear s
b er
Ġ1 9
ĠE U
b le
a ch
e w
D P
ol d
g y
æİ ¥
å° ½
Ġinc reas
æ ¨
åĢ Ļ
Ġ L
Ġwor k
åĨ µ
i ous
èĭ± åĽ½
Ġc ur
Ġp r
å¤ Ł
ä¸ Ķ
Ġre m
Ġman y
Ġs ome
éĩį è¦ģ
åĩ ł
åºĶ è¯¥
y st
c es
ut ion
er v
æĥ ³
ill ion
Ġin f
åģ ļ
Ġe m
Ġwe re
it al
in t
æľ Ī
d e
b t
ç ¬
Ġthe m
æ¨ ¡
æį ®
åĮ ħ
å½± åĵį
é¢Ĩ å¯¼
20 1
åĢ ¼
æŀ ģ
é© ¬
è® ¾
u nd
Ġeconom y
a v
è¶ Ĭ
Ġcountr y
Th is
ä¸į æĺ¯
è į
æĻ ®
åħ °
Ġ if
a ct
is h
Ġa pp
Ġund er
au se
Ġ ra
åħ ļ
ä» ħ
å®ĥ ä»¬
ç½ Ĺ
le ct
å¤§ çļĦ
ç Ĺ
Ġm ust
an g
Ġh is
Ġre l
è´§ å¸ģ
ou gh
è Ļ
æ´ »
a ce
è´ ¢
Ġa r
Ġ20 1
è§ Ĥ
ï¼ Ľ
æŃ ¥
æĶ¯ æĮģ
am e
am p
åį ³
è½ ¬
çľ ĭ
Ġwhe n
åĪ Ĵ
éĢļ è¿ĩ
on s
é¡ ¹
å¸ ĥ
è £
yst em
éĻ į
åŃ Ĳ
å¤ ©
p er
åĽł æŃ¤
åĪ «
Ġthe se
æ° ´
Ġ k
Ġl ar
Ġc ris
Ġpro du
è º
er al
çĽ ´
A nd
ç± »
åĩ ı
åľ° åĮº
s ia
ĠS t
ä¼ ģ
åĬ ¿
ä¼ Ĭ
åĪ Ľ
pe ct
ver y
å¸ ¦
Ġp ower
éĺ ¿
äº ¤
ä» į
ow n
æĬ Ģ
Ġ ro
ere st
å¼ ķ
ar ly
æĺ ¾
rou gh
é£ İ
ç¾İ åħĥ
æł ¹
u c
Ġm ay
è¿Ļ æł·
k s
åĨ į
w e
ç¤ ¾ä¼ļ
é ¦
at ing
äºĭ å®ŀ
æľ Ĺ
m s
ou nt
v ent
èº «
Ġs c
ç» Ļ
20 0
I t
al th
es e
Ġs ystem
Ġf ir
1 9
Ġu s
åį ı
æµ ģ
æİ ¨
åŃ ĺ
æĮ ĩ
è° ĥ
as s
æīĢ æľī
Ġinter n
Ġt w
c ess
ä¸ ľ
ï¼ Ł
åĨ Ľ
æī ¿
Ġ O
Ġint o
Ġp o
Ġc ent
ä½Ĩ æĺ¯
èİ ·
Ġt e
å ķ
åĵ ģ
Ġ %
Ġa m
å§ ĭ
æĸ¹ éĿ¢
åı ¸
å Ĥ
é Ĵ
res ident
or y
Ġm uch
Ġwh at
Ġt ime
st it
Ġs oc
æĿ ¡
Ġh ow
Ġre p
æ »
å¤ Ħ
Ġlead ers
åİ Ł
ä¼ģ ä¸ļ
on d
Ġint erest
f ter
ä» Ģ
å¢ ĥ
ä¼ ¼
Ġa ct
c ed
Ġat t
Ġcris is
è®¤ ä¸º
å°½ ç®¡
Ġh ad
å®ŀ çİ°
ç Ļ
l ud
os s
è´ ¹
æ ·
å° ı
Ġp ublic
er t
æĭ ħ
è Ħ
ä¹ İ
g et
Ġc o
il d
æ°ĳ ä¸»
äº ¿
æĪĲ ä¸º
è¿ ľ
. âĢĿ
æŃ£ åľ¨
åķ Ĩ
åĲĮ æĹ¶
ç¨ İ
çķ ¥
if ic
è®¡ åĪĴ
Ġo w
æľ ¯
o v
çļĦ æĺ¯
éĢ Ł
è´ ¸
Ġan y
çī ©
ä¸ ¥
å¤ į
ol og
çĽ® æłĩ
Ġrec ent
åħ ·
ç§ ĳ
æĹł æ³ķ
Ġh igh
Ġm on
Ġre al
Ġtr ans
ä¸ ī
ib le
f ul
è¯ ģ
ç ¦
å¸ Į
çļĦ äºº
it s
è§£ åĨ³
ç Ĭ
im ate
u al
æĭ ¬
ist s
æ¬§ åħĥ
æŃ ¢
æıĲ ä¾Ľ
ad e
å° ¼
h ip
éĩ ĩ
Ġj ust
è®¸ å¤ļ
å ŀ
éļ ı
æľ Ľ
ru ct
ä¸ ¾
r al
å ¨
æī ĭ
Ġd if
ĠA f
i ent
åĮħ æĭ¬
Ġpro ble
Ġimp ort
Ġ20 0
o b
çİ° åľ¨
ä¿ Ħ
Ġf ar
Ġf ore
Ġintern ational
o k
æĢ» ç»Ł
he d
ĠUn ited
åį ĩ
ä¼ Ĺ
he n
ver s
Ġcon f
éĥ¨ åĪĨ
å¯¼ èĩ´
Ġag ain
is s
è¯ Ĩ
å £
A s
æ ļ
Ġw ar
iz ation
åĤ ¨
ur n
èĥ½ å¤Ł
Ġre f
è¿Ľ è¡Į
è¶ ³
æľ į
Ġwe ll
æ¡ Ī
ç» ĩ
Ġa c
å¢ŀ åĬł
åį ´
æł ¸
ç» ´
Ġbec ause
Ġcont in
ic s
as e
iv es
è´¸ æĺĵ
æĥħ åĨµ
¨ Ģ
è ¨Ģ
å ĥ
ç ģ
j ect
is e
a x
åħ¬ åı¸
å¼Ģ å§ĭ
Ġp ric
å· ±
é¦ ĸ
ç ¥
ur ing
¿ ½
ï ¿½
Ġde bt
i ed
ç»Ħ ç»ĩ
ä¸ ĩ
åĽ ŀ
æĶ¹ éĿ©
åĢº åĬ¡
æķ ´
re ad
r y
å¦Ĥ æŃ¤
Ġpro v
å ĸ
å°± æĺ¯
èĩª å·±
åĲ į
Ġtw o
ä» ¤
Ġw ay
æĬ ¥
å¯ Į
è§ Ĩ
ç ĥ
å¤ ®
Ġsupp ort
çľ Ł
ä» ¶
Ġg en
ç¬ ¬
Ġth ose
è¿Ļ ä¸ª
åĲ ¦
Ġrem ain
å½ ¢
ä¾ ĭ
ot h
iv en
pt ion
æ³ ¨
pe c
è¿ Ĳ
æĶ¶ åħ¥
åĩ Ĩ
le ar
åĳ ½
å ¡
äº Į
å¨ ģ
it e
we en
w ard
âĢ Ķ
å± Ģ
i et
o ve
æ ¿
åį °
Ġl ess
éĻ Ĳ
çļĦ ç»ıæµİ
ve l
ol l
Ġfa ct
ç ²
Ġde f
æ ®
èĩª çĶ±
op ul
ou nd
ĠChin ese
an y
æ¿ Ģ
å® Į
Ġen d
é »
se l
it t
re nt
Ġbet ween
in ist
in d
r ation
çļĦ ä¸Ģ
åıĺ åĮĸ
ç§ »
Ġad d
é£İ éĻ©
æľª æĿ¥
u es
Ġ ent
ic e
è´¢ æĶ¿
e ed
æĸ Ń
éĢ Ģ
çº ª
Ġde p
åĩ »
è ±
ch n
en e
æĬĢ æľ¯
Ġeff ect
åİ Ĩ
éĻ ¤
æµ ·
çŁ ¥
u res
a il
åŃ Ĺ
iz e
Ġcap ital
Ġm od
Ġd es
Ġo pp
äºĭå®ŀ ä¸Ĭ
æ¬ ¾
éĽ Ĩ
Ġwh ile
äºº ä»¬
çİ ¯
èī ²
æľº æŀĦ
æĬ ¤
Ġr ight
ic t
ä¾ Ŀ
ing s
çĹ ħ
Ġpro g
a j
è¿Ļ ç§į
å¸¦ æĿ¥
ur al
Ġinc lud
éĹ ¨
ä¸ ´
å®ī åħ¨
Ġhe l
c ur
ç© ¶
ç® Ĺ
å· ¨
ä¼ ł
è¶ ħ
ç ĭ
åħ Ī
Ġow n
ä¸» è¦ģ
a w
ab ility
Ġp opul
Ġo ur
è´ £
èµĦ æľ¬
æ¯ ı
ç¨ ³
åĽ °
éķ¿ æľŁ
Ġlar ge
ç ª
Ġm em
Ġe uro
ç» Ī
ç¡ Ģ
åŁº ç¡Ģ
è¯ Ŀ
in ce
åĬ Ł
çĽ ĳ
ĠAmeric a
çĶ µ
èİ· å¾Ĺ
all en
rou nd
Ġad v
Â ł
æĮģ ç»Ń
åŀ ĭ
Ġfir st
Ġs ur
Ġhel p
Ġres p
ĠAf ric
Ġc ost
è´ Ł
Ġn ational
ä¸Ģ äºĽ
å® ĺ
Ġof f
éĿŀ æ´²
çĶŁ äº§
Ġinvest ment
Ġre qu
l ed
F or
5 0
Ġch ange
åıĳ çĶŁ
Ġbank s
æĸ ĩ
æ´ ¾
r ib
Ġas s
å·¥ ä½ľ
Ġl ast
é ª
ter m
r i
ent ial
ĠI nd
Ġst ate
er gy
Ġex amp
è· ¯
åľ Ł
æī į
è¾ ¹
ĠR us
Ġte chn
aj or
c al
è ħ
Ġf und
åį Ĺ
åĪ Ĺ
é¢Ĩå¯¼ äºº
um p
Ġre du
Ġs im
t y
ç» Ŀ
çĶ ļ
æĦ Ł
lo y
Ġtra de
Ġcur rent
r at
Ġo b
æĢ ģ
ak ing
Ġre form
æŁ Ĳ
Ġres ult
èĥ½ æºĲ
Ġb o
ä»Ģ ä¹Ī
Ġth rough
å¾ Ģ
ä¹ĭ éĹ´
il it
ç ¢
ut ions
ç´ ł
æĬ Ĭ
ort s
Ġt ax
åĨ ²
å¤ ĩ
åĳ Ĭ
Ġsu b
l es
çĽ® åīį
3 0
iz ed
O n
Ġmarket s
Ġs ign
Ġ $
Ġ 2
Ġpart ic
èĤ ²
ç½Ĺ æĸ¯
Ġc re
Ġm ajor
Ġa fter
éĩĩ åıĸ
Ġagain st
Ġcon c
Ġse em
Ġinf l
W h
å ĭ
æģ ¯
æİ §
æİ ª
æĽ´ åĬł
å¾· åĽ½
è§ ģ
æĮ ĳ
ou n
Ķ ç©¶
Ġexamp le
è¡Į åĬ¨
ä»» ä½ķ
ç»ĵ æŀľ
åŃĺ åľ¨
f ere
Ġapp ro
ç Ī
åħ į
Ġh um
ä¸ĸ çºª
çł ´
Ġb oth
ç» §
å ²
00 0
æ°Ķ åĢĻ
è¦ģ æ±Ĥ
Ġhe alth
å¥ ¥
Ġg reat
åħ³ ç³»
Ġk n
åİ ĭ
éĤ£ äºĽ
åĥ ı
g est
Ġg o
é ²
Ġex t
èĢ ĥ
g ing
çº §
ç« ŀ
Ġdem oc
æŀ Ĺ
è¯ º
I f
Ġbec ome
ical ly
Ġg ood
Ġreg ion
å¹´ çļĦ
ra m
çª ģ
å¤ ª
ra ct
Ġ ke
Ġwhe re
Ġr ates
Ġch allen
è´ ·
åį° åº¦
æľĢ è¿ĳ
Ġto o
Ġc or
Ġa ut
æĽ´ å¤ļ
æ ħ
æ· ±
d ay
è Ĭ
éĤ£ ä¹Ī
è¿ĩ åİ»
e x
å® ¹
in ess
Ġm ake
ä¿Ħ ç½Ĺæĸ¯
å¿ «
è± ¡
t s
æī ©
ç¼ º
t ing
åĪ° äºĨ
G DP
çī¹ åĪ«
æĪĲ åĳĺ
Ġimport ant
Ġl o
ç¤ º
cur ity
Ġfore ign
om m
çļĦ åĽ½å®¶
Ġgovernment s
g an
Ġ est
Ġdevelop ment
ä¸į ä¼ļ
Ġsoc ial
å¤® è¡Į
ç¨³ å®ļ
Ġin stit
ort un
Ġen ergy
é ħ
æĮĳ æĪĺ
åı ²
ic es
åį ķ
Ġdem and
åı Ĥ
æĦ ¿
çº ³
åŁ Ł
éĢł æĪĲ
r on
æĪĲ åĬŁ
åĮ »
ä½ľ ä¸º
è§Ħ æ¨¡
æĹ¥ æľ¬
Ġeconom ies
Ġstr ate
ä¸ŃåĽ½ çļĦ
ĠI s
ap an
p loy
at her
Ġfa il
Ġb u
read y
at er
ĠG erm
çĶļ èĩ³
ä»· æł¼
Ġe mer
åĪ ¤
k ing
end ing
åĲĪ ä½ľ
n ot
åĪ ĩ
çİ¯ å¢ĥ
è´ ¨
ĠG DP
Ġb ene
éĿ¢ ä¸´
åĬ ³
Ġpolic ies
æ ¼
æ Ĵ
ä¹Ł æĺ¯
åĪ© çĽĬ
I nd
ä¸¥ éĩį
ç´ §
Ġf ut
åĽ½ åĨħ
è¡ ¡
å Ķ
æĢ§ çļĦ
Ġre st
en se
Ġs ol
æİ Ĵ
å¼ ±
al s
å¥ ³
Ġd om
Ġpro m
å§ Ķ
è¿Ļæł· çļĦ
Ġpro t
Ġs erv
at h
åħ ´
åĨ ľ
æĹ¶ éĹ´
Ġv al
åį ł
Ġdo es
is ion
äºļ æ´²
Ġtechn olog
Ġst ill
çĸ Ĺ
åĳ ³
Ġris k
f t
Ġb ack
Th at
æĪĺ çķ¥
Ġe very
ĠSt ates
us iness
f ore
åı Ī
Ġof fic
e g
Ġto day
èģĶ åĲĪ
åĨ³ å®ļ
è¯ ķ
l ess
ä»¥ æĿ¥
Ġal ready
åĪ© çİĩ
æ¯Ķ å¦Ĥ
æ¶Ī è´¹
åįģ å¹´
, âĢĿ
æī ĵ
è° Ī
Ġfut ure
æŃ¤ å¤ĸ
å¯¹ äºİ
Ġcou r
æĸ° çļĦ
Ġre t
et ary
M ore
ç»§ ç»Ń
ä¸į åĲĮ
äº¿ ç¾İåħĥ
Ġis s
s s
u ally
äºº æ°ĳ
ĠC h
Ġr ate
ĠP resident
æľį åĬ¡
è¯ Ħ
æ ĳ
is cal
n ing
ç§ °
æ¬§åħĥ åĮº
Ġle vel
åĮ Ĺ
Ġb as
å¦Ĥ ä½ķ
æİª æĸ½
å¹¶ ä¸į
ç¦ »
er ation
å¦Ĥ ä»Ĭ
åĸ Ħ
Ġs ame
ou th
æĦı åĳ³
è´ ¥
Ġc red
Ġs a
Ġb illion
in ed
å»º ç«ĭ
i ans
åı ¦
Ġcons um
æķĻ èĤ²
éĺ ²
åħ¬ åħ±
ä¸Ģ çĽ´
Ġstr ong
æĹ ı
æĭ ©
w ay
æĪĲ æľ¬
æ ½
è Į
äºº çļĦ
ie w
äº§ çĶŁ
t en
ĠJ apan
æ°´ å¹³
z one
èĻ ĳ
Ġhum an
Ġm ilit
Ġe qu
ä¸Ń çļĦ
Ġind ust
Ġu se
ial ly
ing ly
Ġin s
Ġm ain
Ġproble m
éĢī æĭ©
Ġle g
r an
Ġ ed
çī¹ æľĹ
Ġp ur
å® ³
ct or
åıª æľī
ä¸Ģ ç§į
Ġl ow
ĠB rit
æľº ä¼ļ
èĢĮ ä¸Ķ
æµ ĭ
æıĲ é«ĺ
æĦıåĳ³ çĿĢ
åŃ¦ å®¶
åħ ħ
ĠT r
åĬĽ çļĦ
Ġbene f
çī¹æľĹ æĻ®
åĽ ¾
9 0
ä½ľ çĶ¨
al ity
Ġb usiness
Ġs et
ç§ ģ
ant s
æĭ ¥
ra st
åĽ ¢
Ġdif fere
Ġs ince
ou se
Ġe l
åĩº çİ°
åŁ ĥ
Ġlike ly
d er
çł Ķç©¶
Ġbe ing
Ġs m
Ġprodu ct
ir on
Ġcent ral
é¢ Ŀ
åĿ ¦
è¡¨ æĺİ
Ġcl imate
Ġan n
ï¿½ ï¿½
æ Ĥ
æ¸ ħ
a red
Ġf iscal
ä¸ĭ éĻį
èĥ ģ
çĸ ĳ
éģ ¿
å ´
Ġsh ort
ĠW est
è Ī
in c
æģ Ĳ
å® £
æĿ¥ è¯´
Ġreg ul
ä»į çĦ¶
g es
å¨ģ èĥģ
ab ly
) ,
il y
ä¸ ĵ
Ġm ight
æĢ Ŀ
éĥ¨ éĹ¨
ä¼ ¦
ot her
ä¾ ¿
èĥ Ģ
éļı çĿĢ
) .
ĠRus sia
å¤ ´
Ġe lect
å Ļ
è´ «
åĲĮ æł·
æ® µ
Ġp os
åº Ń
Ġdis c
çĭ ¬
Ġt ake
ä¿Ŀ æĬ¤
å®ŀ æĸ½
çĬ ¶
Ind eed
h ing
ä» ½
ä»¤ äºº
p l
e ver
èĭ ı
Ġpr iv
ĠB ank
ment al
æĪĺ äºī
ĠS e
ç½ ĳ
å®ŀ éĻħ
cc ess
åĽ½å®¶ çļĦ
Ġt erm
C hin
åĿ ı
å¹ ²
ter n
ab or
Ġ es
ĠAfric a
ç«ŀ äºī
im es
å¸Į æľĽ
åİĨ åı²
Ġwith out
Ġo p
åİŁ åĽł
Ġpric es
v ing
Ġse e
åŁ İ
ç¼ ©
el l
æļ ´
ä» ĺ
Ġb r
è ĳ
è¿ «
Ġcomm un
å± Ĥ
Ġpartic ul
å¹¶ ä¸Ķ
ç³» ç»Ł
Ġm ade
g er
Ġpo int
b ers
i or
n ess
æľĢ ç»Ī
å¹ ¿
id er
è¡Į ä¸º
c k
en cy
èµĦ äº§
Ġinclud ing
ä¸Ģ æŃ¥
ç¾İåĽ½ çļĦ
å¾ ĭ
ĠAmeric an
åĽ½ çļĦ
éľĢ æ±Ĥ
åĿ ĩ
èĤ ¡
çĽĳ ç®¡
èģĶ çĽŁ
Ġre as
éª Į
t al
v ed
ä½¿ çĶ¨
Ġdec l
æŃ »
å¼ ł
çĶŁ æ´»
åĪ¶ åº¦
Ġcomp et
Ġth reat
ĠA sia
éĶ ®
Ġd own
æĶ¹ åıĺ
çļĦ éĹ®é¢ĺ
h old
Ġv ot
Ġc all
èĥ½ åĬĽ
åħ³ éĶ®
æĭ¥ æľī
Ġed uc
in es
Ġbe l
ie ve
Ġmilit ary
i vers
ä¸į åı¯
æ² ¹
Ġbet ter
x t
g ed
ä»· åĢ¼
l and
ä¸į èĥ½
ç»ıæµİ ä½ĵ
è¿ °
æ³ ¢
Ġne g
Ġs er
Ġm ed
æ» ¡
ert ain
æĸ¹ æ¡Ī
v iron
Ġcan not
ä¼ ¯
æĿ¥ èĩª
åĪ© äºļ
æ £
ab l
æŃ ¦
ç§» æ°ĳ
Ġeuro zone
éĻ ·
Ġsu ccess
Ġex pect
éĶ Ļ
èĲ ¥
u el
Ġp oss
Ġst and
T o
è¿Ļ æĺ¯
ä¼ °
Ġimp ro
åħ± åĲĮ
è½ »
åįı è®®
åĻ ¨
Ġ V
ç®¡ çĲĨ
Ġ The
åŁº éĩĳ
è¾ ĥ
äº Ĵ
éĻį ä½İ
åĬ³ åĬ¨
æĸ¯ åĿ¦
çī¹åĪ« æĺ¯
é Ł
ä¼¼ ä¹İ
h or
con d
é¡¹ çĽ®
åĩº åı£
Ġj ob
ä¸į ä»ħ
èµĦ æºĲ
æİ§ åĪ¶
æĹ¶ åĢĻ
Ġag ree
ä»ĸä»¬ çļĦ
Ġst ates
i ence
Ġqu est
Ġf ac
æĿ Ł
Ġkn ow
åį ¡
ç¥ ¨
an ies
ä¸º äºĨ
å§Ķ åĳĺ
Ġp ers
Ġh ig
æī¿ è¯º
Ġa ff
ãĢ Ĭ
ãĢ ĭ
ut e
æľī æķĪ
ç ¿
Ġt er
Ġ Y
he re
Ġto ward
ruct ure
Ġm illion
æĻ ¯
Ġd id
æī §
çŁ ³
ce pt
èµĦ éĩĳ
åĳ ¨
Ġcont ro
èĦ ±
l i
Ġof ten
éĢī ä¸¾
è¥¿ æĸ¹
ĠTr ump
Ġd ist
id d
Chin a
8 0
ĠD e
Ġpro p
åıį å¯¹
åĽ Ľ
ar s
st ain
Ġan other
Ġ ide
Ġp ay
Ġst art
è¿ĺ æĺ¯
æĺ¯ åĲ¦
äºº åı£
or ld
ĠInd ia
ĠUn ion
v ol
ol low
Ġim m
Ġcour se
ä½ ł
Ġen viron
ä¼Ĭ æľĹ
éĿŀ å¸¸
åĩı å°ĳ
Ġc lo
Ġacc ount
W ith
ar ch
å¯ Ĩ
Ġpro cess
Ġsu stain
Ġse curity
Ġth ree
ra cy
æ³ķ åĽ½
åį «
èµ °
å¤ļ æķ°
éĺ »
åĨ³ çŃĸ
le ment
our ces
åĪĽ éĢł
Ġappro ach
æİ¥ åıĹ
å Ħ
Ġd ire
Âł Âł
åĽł ç´ł
åĵ Ī
Ġa nt
Ġcomp anies
Ġh ard
ur y
ent s
æŁ ¥
éĴ Ī
ate ly
Ġar g
uc lear
e red
Ġa p
Ġor der
Ġthe n
Ġh ist
æĸ¹ å¼ı
åĲĦ åĽ½
iv ity
ploy ment
Ġcur ren
ort h
Ġp res
åħ¶ ä¸Ń
Ġm ove
æı ´
åĪ º
ĠE ast
ĠC omm
æ± ĩ
ä½ĵ ç³»
å§Ķåĳĺ ä¼ļ
éĻ ¢
æķ° æį®
çļĦ æĥħåĨµ
åı °
Ġp ast
æĸ Ļ
å· ®
Ġp ot
ro ss
åıĹ åĪ°
Ġt urn
å¤§ éĥ¨åĪĨ
çŁ Ń
Ġtra d
ç ħ
ä»İ èĢĮ
Ġl aw
Ġall ow
Ġme as
ç¨ĭ åº¦
sel f
i o
Ġl oc
Ġmon etary
p or
Ġv iew
æĹ ©
ä¹Ł è®¸
iv ing
Ġa v
re m
The re
ä¿ ĥ
åģ ¥
Ġr ul
æĽ ¾
oc us
æį Ł
c ing
in k
ro ad
ad es
åį³ ä½¿
åĦ ¿
ä¸į æĸŃ
åĩł ä¹İ
åĨ² çªģ
Ġinstit utions
Ġp ut
Ġf ew
å¸ ®
1 0
Ġ very
Ġam ong
ä¸Ģ æł·
ĠI nt
Ġbe fore
p h
åĢ Ł
Ġadd ress
èĢĥ èĻĳ
Ġoffic ial
st and
æľī åı¯èĥ½
Ġin e
Ġle ast
Ġch ild
rou p
æĻ º
å¸ Ń
Ġa round
ĠGerm any
ç¡® ä¿Ŀ
Ġprot ect
ä¼ ĺ
æĬ Ĺ
ç§ ¯
ä¸Ĭ çļĦ
iv id
å®Į åħ¨
Ġe as
Ġen s
os ed
è¶ħ è¿ĩ
The y
ä¿Ŀ æĮģ
Ġpl ay
ç« ¯
u ge
è¯ ¯
Ġinc ome
ç© º
en ing
Ġf ollow
åľ° æĸ¹
åĵ ¥
åĴĮ å¹³
è§ Ĵ
Ġne xt
é¢Ĩ åŁŁ
å½ĵ çĦ¶
Ġl im
çĶ± äºİ
æī ¹
Ġincreas e
W e
åĴĮ åħ¶ä»ĸ
Ġt ar
More over
Ġf ocus
åĽ ´
å¡ ŀ
e ad
çļĦ æľĢ
Ġopp ortun
è°Ī åĪ¤
æ¨¡ å¼ı
è®¾ æĸ½
u ed
Ġpriv ate
éĢ Ĥ
åĬĽ éĩı
çº ¿
ru g
åģ ľ
S o
v es
Ġp resident
Ġch ang
æıĲ åĩº
åĲ ¸
è¡ ¥
est ic
m ost
Ġc ar
it ions
Ġp ress
æĪ ¿
èĩª èº«
è¿Ľ ä¸ĢæŃ¥
å¾Ĺ åĪ°
å¤ĸ äº¤
Ġro le
ĠI n
Ġexp er
ä¹ĭ ä¸Ģ
Ġinfl ation
Ġl abor
å®¶ åºŃ
Ġpl an
è£ ģ
çĻ ¾
Ġad m
Ġaut hor
Ġpot ential
èĮ ĥ
åŁİ å¸Ĥ
æ ¢
çļĦ æĶ¿æ²»
åĪ ¸
èĢĮ ä¸įæĺ¯
s ian
ĠF ed
one y
ĠW orld
Ġwe ak
åī §
åī Ĭ
Ġn um
ur ther
æĪĸ èĢħ
äºĨ ä¸Ģ
éĤ£ æł·
éĺ Ł
è¿ĺ æľī
Ġneed s
Ġdevelop ing
èĻ ½
idd le
y ing
Ġa ch
Ġin n
ä¹ Į
u p
ve re
ĠS outh
å°± ä¸ļ
éĩį æĸ°
èģĶåĲĪ åĽ½
ĠI ran
Ġris e
åıĳ è¾¾
Ġfor m
åĪ¶ å®ļ
om en
Ġn uclear
é¡ ¿
ag es
è® °
å¹´ ä»£
ĠF r
Ġproble ms
Ġmem bers
Ġf ul
å£ °
am a
Ġcred it
èģ Į
éĿ ł
itt le
Ġeffect ive
Ġde fic
rat ic
Ġwhe ther
ç¼ ĵ
Ġ 3
6 0
le ction
Ġpro f
anc es
èĻ½ çĦ¶
A t
Ġl if
ç¾ ¤
å¿ µ
ib ility
è´· æ¬¾
Ġs ay
ç ı
ap s
æĿ¥ è¶Ĭ
Ġdom estic
éģ¿ åħį
å¸® åĬ©
èµ ¤
åıĤ ä¸İ
åº ķ
éģ Ń
èģĶ åĤ¨
Ġest abl
pec ially
äº Ķ
ç±» ä¼¼
Ġmod el
ch ange
us h
iss ion
Ġpro ject
è¶Ĭ æĿ¥è¶Ĭ
Ġin st
åħ³ æ³¨
åĨĽ äºĭ
åĭ Ĵ
æ¼ Ķ
Ġhig her
Ġm at
å¥ ¹
Ġsign ific
Ġs pec
7 0
Ġr ather
çĽ¸ åıį
æĶ¹ åĸĦ
Ġth ough
ç»ĵ æŀĦ
g in
n er
åıĺ å¾Ĺ
Ġsh are
a ir
çļĦ æĸ°
èĢ ģ
Ġd oll
Ġas se
æ´» åĬ¨
i x
or k
æİ¨ åĬ¨
Ġc lear
Ġl ittle
re t
å¹ ħ
¹ ģ
ä¹ ħ
æĬ µ
er ing
åĬ ª
åį Ĭ
åı Į
Ġm oney
ä½ ı
è§Ĥ çĤ¹
Ġremain s
ç¾İ èģĶåĤ¨
is hed
Ġse ctor
åŁº æľ¬
éĢļ èĥĢ
Ġneed ed
æ°ĶåĢĻ åıĺåĮĸ
4 0
Ġb al
åĪ© çĶ¨
Ġc ase
Ġg u
åĬ ±
f or
in ing
Ġr un
åĮĸ çļĦ
ä¸Ģ æ¬¡
ak es
æģ ¶
a us
åº ·
ç² ¾
as es
Ġv i
åºĶ å¯¹
ĠK ore
æĪĲåĳĺ åĽ½
l ing
ç¦ ı
Ġgen er
æŁĲ äºĽ
Ġp ar
Ġeduc ation
a im
ition al
èį ¯
Ġes pecially
Ġc rit
Ġn on
å¾ ħ
éĥ½ æĺ¯
form ation
c om
Ġmon th
Ġcost s
ĠInt ern
ç Į
å£ «
Ġserv ices
t ed
it ive
Ġcontin ue
Ġdiffere nt
p id
fic ult
åĪĽ æĸ°
å¯ »
M F
e c
im in
Ġdif ficult
inist er
Ġreas on
é£ Ł
Ġemer ging
Ġsignific ant
Ġconc ern
ic k
åıĸ å¾Ĺ
en ed
å° ¤
Ġpro s
Ġke y
çī Ļ
æ¸ ©
og n
Ġh al
ra el
å¤§ éĩı
Ġre n
ä»Ĭ å¤©
Ġsoc iet
Ġp h
Ġd r
ä¼ ´
å·´ é©¬
Ġprog ress
Ġsh ow
çĽ¸ å½ĵ
èĩªå·± çļĦ
å½ĵ åīį
æı´ åĬ©
èµ¤ åŃĹ
èĥ ľ
éħ į
åĮ» çĸĹ
Ġc ut
ä¹ ł
Ġacc ess
å¥¥ å·´é©¬
ac y
anc ed
èį £
Ġinn ov
Ġc it
æ½ ľ
oc k
Ġsp ending
è´« åĽ°
è¿ĩ ç¨ĭ
åıª æĺ¯
as h
id es
Ġsm all
Ġme ans
ä¹ °
è¶ ĭ
åĪº æ¿Ģ
c ies
æī ¾
id ence
Ġme et
é ¼
Ġwh y
åĢ į
Ġb ig
Ġcom e
Ġcontro l
Ġf ree
ir d
æĶ¯ åĩº
Ġdec ades
é² ģ
Ġf urther
çĽ¸ åħ³
åĿ ļ
Ġpe ace
å¥½ çļĦ
äº ¬
Ġg roup
éĻĲ åĪ¶
èĢħ çļĦ
Ġfin d
Ġeff orts
rast ructure
Ġf all
å¹³ çŃī
Ġf e
è Ń
ä»ĸ çļĦ
è´£ ä»»
Ġcurren cy
æĪ ·
æŁ ĵ
åŁºç¡Ģ è®¾æĸ½
éĺ ¶
éĩ Ĭ
ist an
èŃ ¦
Ġsu ff
iz ing
Ġsim p
Ġre se
åº ı
Ġha pp
ar m
Ġd uring
è¡ °
Ġpric e
èī² åĪĹ
ä»¥ èī²åĪĹ
Ġresp ons
Ġrel ations
Ġbu ild
è¡¨ çİ°
èĤ ¯
Ġg ain
Ġincreas ingly
Ġindust r
ot i
ç® Ģ
æķ° åŃĹ
Ġloc al
b ama
Ġe v
èĲ ¨
åģļ åĩº
w h
at ors
Ġcon d
W hen
a ve
ä¸İ æŃ¤
Ġreform s
O N
Ġg et
Ġcon st
èµ· æĿ¥
Ġpo or
Ġap pe
Ġde ep
se qu
æĸ¹ æ³ķ
Ġint eg
è§Ħ åĪĻ
åħ· æľī
Ġrequ i
ç ¹ģ
Ġconf lic
æł¹ æľ¬
Ġcit iz
çķ Ļ
åľ° ä½į
Ġen g
r ate
èĲ ½
ä¹ĭéĹ´ çļĦ
Ġt reat
ro p
Ġlong er
Ġtar get
å® ¢
è® ¨
Ġag o
çľŁ æŃ£
y s
at a
èĢ ³
Ġgrow ing
l am
Ġs low
åĬ ŀ
æĢ ¥
Ġquest ion
çļĦ æĶ¿çŃĸ
çİ° å®ŀ
è½ ¦
ä¿¡ æģ¯
Ġin it
çĻ ½
Ġsh if
ren g
re ed
Ġal most
Ġrequ ire
Ġ ï¼Ī
Ġser ious
Ġpre vent
Ġc are
éĤ ¦
Y et
p ite
èµ ĸ
åħ³ äºİ
Ġhow ever
åį İ
æĭī åħĭ
Ġrecent ly
v ious
è ĵ
æ³ķ å¾ĭ
Ġc ol
Ġo il
é¦ĸ åħĪ
å ³
çļĦ å¤§
ic ient
Ġst ud
åį± éĻ©
åģ¥ åº·
Ġm ass
å¥ ĩ
y n
Ġwith in
åľ¨ äºİ
p ris
åĪ¶ éĢł
ä¼ł ç»Ł
Ġy et
çı Ń
Ġres ources
é¢Ħ ç®Ĺ
è¿ ŀ
Ġst reng
ä¼ļ è®®
Ġit self
Ġstrate g
Ġg iven
ĠR ep
æĿ Ģ
Ġh old
æ°ĳ ä¼Ĺ
Ġchallen ges
ä¸Ĭ åįĩ
ç»ıæµİ å¢ŀéķ¿
Ġinf rastructure
åĢº åĪ¸
Ġdemoc racy
ä¸Ĭ è¿°
åĬª åĬĽ
åħ¨ ä¸ĸçķĮ
Ġb est
ep end
Ġseem s
Ġret urn
è° ĵ
è Ĵ
æĸ° åħ´
Ġl ower
åı¯èĥ½ ä¼ļ
Ġn at
r or
Ġh ouse
Ġrec ogn
Ġcons ider
å ł
ĠU K
E urope
ra b
al e
ent ion
çŁ¥ éģĵ
ĠIs rael
Ġbenef its
èĳ Ĺ
è¿ ½
åĪ Ŀ
æĹ¥ çĽĬ
ord ing
Ġcl aim
éĩįè¦ģ çļĦ
n ers
Ġd ay
ĠP art
èĩ³ å°ĳ
Ġe vent
ver age
çĶ¨ äºİ
æĿ¡ ä»¶
æĬ¥ åĳĬ
Ġgreat er
t e
Ġ ur
Ġt ru
as ed
ud get
çł´ åĿı
æĮĩ åĩº
Ġneg oti
en ces
ä¸ª äºº
Ġen ough
åİĭ åĬĽ
Ġvi ol
Ġse cond
he s
Ġf ound
éĴ ±
Ġpopul ation
é¼ ĵ
è´ Ń
Ġmem ber
Ġw ant
æĬķèµĦ èĢħ
äºº ç±»
æ² Ļ
ç« ¥
Ġcont rib
Ġra pid
çĪ Ĩ
æģĲ æĢ
Ġf am
èŀį èµĦ
Ġparticul arly
å¤ «
å¯ Ł
Ġch o
Ġcomp le
åĪ »
Ġl ib
Ġl ack
æį ¢
ç»ĵ æĿŁ
vol ution
èħ Ĭ
On e
ak ers
ç¡® å®ļ
çļĦ è¯Ŀ
æ¯ «
Ġimp act
å¸Į èħĬ
n ce
çļĦ å½±åĵį
Ġb or
Ġcitiz ens
å¹ ¸
æĿ ¾
åıĳ çİ°
a i
ac c
200 8
Ġinterest s
Ġother s
om et
åħ¬ æ°ĳ
æĪĳä»¬ çļĦ
t he
Ġw omen
o ol
Ġor gan
Ġterm s
i er
æĺ¯ ä¸Ģä¸ª
å· ŀ
B y
æľº åĪ¶
Ġwork ers
éĺ¿ æĭī
ĠO bama
åı ³
Ġsu g
Ġcomm on
m an
Ġc aus
åħ ī
åı¯ æĮģç»Ń
äº¤ æĺĵ
ç»´ æĮģ
Wh ile
n ed
id ed
å¹³ è¡¡
Ġunder stand
Ġp red
iv il
æ¬§æ´² å¤®è¡Į
äºĭ ä»¶
ç¢ ³
' s
Ġinvest ors
Ġstrate gy
åĽ º
éĿ© åĳ½
æĺ¾ çĦ¶
è ı
å·¨ å¤§çļĦ
Ġ er
it her
å· ¦
åģ ĩ
ç© Ĩ
æľ Ŀ
å°Ĩ ä¼ļ
Ġp ost
çĽ¸ å¯¹
èĥ Į
Ġp at
æķ ĳ
æľĢ åĲİ
Ġris ks
Ġval ue
Ġc amp
æĦı å¤§
å¾Ī å¤ļ
Ġh ome
ç½ ®
æĿĥ åĬĽ
æĿ Ĥ
æ°ĳ æĹı
åķĨ ä¸ļ
Ġright s
å®ĺ åĳĺ
ä¸İæŃ¤ åĲĮæĹ¶
o pe
èĢĮ æĺ¯
èĢĮ è¨Ģ
ç« Ł
Ġb udget
Ġs av
æĦıå¤§ åĪ©
Ġe lection
c l
åı Ļ
ess ion
Ġ her
Ġh and
åľŁ èĢ³
Ġb road
The se
çļĦç ¤
ç¢ į
Ġadm inist
Ġnum ber
Ġhal f
å½ Ĵ
Ġus ed
æģĲæĢ ĸ
w here
at ic
Ġrep ort
Ġdire ct
åľŁèĢ³ åħ¶
on al
sel ves
Ġc oll
æī© å¤§
å°¤ åħ¶
ç»ıæµİ åŃ¦å®¶
Ġsug gest
A fter
l f
t ain
äº ¡
em pt
ĠW ar
ä»Ĭ å¹´
Ġd ata
Ġredu ce
Ġb ond
Ġdep end
é² ľ
u g
æ³ Ľ
å± ħ
æĪĲ äºĨ
at eral
ç´ ¢
Ġcre ate
éĢ Ĳ
æ¬§æ´² çļĦ
ç§ģ äºº
ĠKore a
Ġo cc
æķ´ ä¸ª
åħ± åĴĮ
ä¹ ±
å® Ī
å°± ä¼ļ
ress ion
çĽ´ æİ¥
Ġc le
Ġc ertain
Ġm ult
y r
é¢Ħ æµĭ
å ª
è® Ń
æĹ¶ ä»£
ĠR e
at ives
Ġo per
Ġprov ide
Ġchild ren
i qu
m akers
æ ĵ
ie ld
éļ¾ æ°ĳ
Ġm y
Ġy ou
Ġm in
ä¹ ı
Ġex change
åĶ ¯
ç² ¹
Ġsim il
Ġens ure
Ġris ing
æīį èĥ½
é ¥
Ġrel ative
æŃ¦ åĻ¨
ip l
vent ion
éĻ· åħ¥
Ġimp lement
Ġme an
Ġop en
è¡° éĢĢ
ĩ ĥ
Ġs he
ç© ·
g ent
l ike
å¿ħ è¦ģ
è¯Ĩ åĪ°
è¿Ĳ åĬ¨
èĬ Ĥ
Ġrul es
ĠFr ance
åıĳå±ķ ä¸ŃåĽ½
èħ Ĳ
è¿Ļä¸Ģ çĤ¹
åķĨ åĵģ
åĬ³åĬ¨ åĬĽ
Ġ200 8
Ġposs ible
Ġimpro ve
æĺ¯ åľ¨
Ġg r
ä¸į åĨį
r ime
ou ra
è°ĥ æķ´
ä¾Ŀ èµĸ
Ġth us
ä¿ ®
æ¯ Ĵ
Ġco op
Ġmeas ures
é º
ĠA rab
Ġne ver
çĬ ¯
i od
åĲİ æŀľ
è· ¨
Ġs pe
éļ ľ
Ġleaders hip
ç¨İ æĶ¶
éĶĻ è¯¯
Ġl and
Ġfor ce
è¿Ľ æŃ¥
Ġref lect
è® ²
over ty
æłĩ åĩĨ
Ġlevel s
Ġst ep
Ġfa ce
éĩĳèŀį åį±æľº
çĬ¶ åĨµ
Ġjob s
åıĳå±ķä¸ŃåĽ½ å®¶
ĠG ree
Ġpl ace
è¯ķ åĽ¾
éĺ¿æĭī ä¼¯
E ven
è¡Į ä¸ļ
Ġle ft
ä»£ è¡¨
æ¸ Ĳ
è· Į
èī ¯
b e
c ome
ä¼Ĭ æĸ¯
èĵ Ħ
Ġe ach
Ġde al
å°¼ äºļ
Ġc ivil
ard s
å·¥ ä¸ļ
Ġagree ment
ç¹ģ èį£
åª Ĵ
å¼Ģ åıĳ
å¹´ è½»
Ġy oun
ç¥ ŀ
çļĦæĥħåĨµ ä¸ĭ
b on
l ation
ag ed
æ ¦
å® Ĺ
è¿Ľ åħ¥
çģ ¾
çĥ Ń
Ġf uel
Ġcon sequ
éĹ »
æİĴ æĶ¾
iv ed
ä¹ĭ åīį
Ġfin ance
Ġlif e
ç§ĳ åŃ¦
j ust
ç ĩĥ
æīĢ è°ĵ
Ġregion al
R I
å¤ĸ åĽ½
åħĭ åħ°
Ġind ivid
æįŁ å¤±
Ġpur s
ĠBrit ish
ä¼Ĭæĸ¯ åħ°
Ġf l
ä¸» æĿĥ
å·´ è¥¿
ä¹Į åħĭåħ°
a h
ä¼ Ļ
å¤§ è§Ħæ¨¡
Ġse c
ä¹ĭ åĲİ
è¾¾ åĪ°
Ġc ult
å¹´ æĿ¥
conom ic
é» İ
h aps
å¤± ä¸ļ
ä¸¤ ä¸ª
Ġde v
Ġen c
å»º è®¾
Ġsystem s
e e
Ġf ear
Ġst ruct
çľ ¼
çĸ ¾
ç ĳ
ent ral
åĢ Ĵ
ç½ ª
C B
t hen
ç ĵ
Ġbe gin
çĭ¬ ç«ĭ
Ġb l
ron t
è¶ĭ åĬ¿
y ond
ĠA r
Ġdis p
ç± ³
Ġdoll ar
em oc
Ġcomm it
æĭħ å¿ĥ
éĴĪ å¯¹
A l
å¼ Ĥ
s ide
åı ĭ
ch ool
if ied
Ġchallen ge
o id
in ation
Ġst ability
æŀ ¶
Ġpolit ics
æł¸ å¿ĥ
çĥ Ī
Ġtechnolog y
ĠBrit ain
Ġe ar
ĠS p
æĺİ ç¡®
åĨħ éĥ¨
æł¹ æį®
åıĻ åĪ©äºļ
o int
ä½ Ļ
ä¸į åı¯èĥ½
Ġfor mer
Ġfund a
Ġbal ance
Ġindivid ual
Ġst at
åıĬ åħ¶
æ¯ı å¹´
Ġbo ost
Ġconsum ption
Ġa ction
å¿ §
19 9
Ġinfl u
ä¾Ŀ çĦ¶
çĪ ±
åªĴ ä½ĵ
ä¹ ¦
ä¹ Ĳ
ce ed
èµ ¢
ab il
åįģ åĪĨ
åĦ¿ ç«¥
a z
Ġto get
Ġe ver
äº§ åĵģ
ĠT ur
ĠWest ern
Ġtoget her
æ´ ĭ
æµģ åĬ¨
è¿ ħ
Ġd est
ĠI tal
Ġ èĢĮ
Ġt al
ak en
éĢī æ°ĳ
Ġ 5
Ġd ou
il ateral
Ġde b
Ġch ar
çļĦç ł
çĽ¸ ä¿¡
è¯ģ æĺİ
Ġhouse hold
Ġh im
Ġter ror
Ġd ang
å¾ ģ
ç»ıæµİ çļĦ
Ġp overty
Ġf our
Ġb lo
Ġn et
ä¸Ń ä¸ľ
Ġthem selves
iss ions
Ġproduct ivity
Ġatt ack
Ġant i
ä¼Ļ ä¼´
U n
Ġc he
Ġex ist
Ġdec ision
æ±ĩ çİĩ
æķ ¦
æĪĸ è®¸
æĸĩ åĮĸ
ra z
ir st
çº ½
è£ Ĥ
ĠRep ublic
ä¸Ģ åľº
ac ity
åĤ¨ èĵĦ
c ent
ä½Ĩ åľ¨
æĭ Ĵ
éļ¾ ä»¥
re x
is ed
çĪĨ åıĳ
çİ° ä»£
Ġhe ad
Ġiss ues
ist ic
å¹´ åīį
Ġwe alth
çĲĨ è§£
åĶ¯ ä¸Ģ
k ra
Ġ 4
å¼ ¹
Ġu nt
å» ¶
Ġfir ms
ol it
æ¯ ķ
Ġac ross
å¡ Ķ
d om
m ing
Ġcom b
Ġm et
ra w
éĹ®é¢ĺ çļĦ
Ġman age
Ġac cept
æ¬ ¢
æŃ£ ç¡®
åİ» å¹´
Ġt imes
in s
Ġr u
ĠN ew
u ation
er ve
Ġexp l
Ġne cess
Ġsa f
O f
b an
Ġp ract
Ġg ra
æĹ ¢
å¾ ®
åĵ ª
Ġexp ort
æ¸ ¸
Ġincreas ed
èĬ ±
Ġann ual
å§ Ĩ
åı ¤
æľī æīĢ
å¤§ å¹ħ
åħ¬ ä¼Ĺ
Ġinit i
è¿ħ éĢŁ
çļĦ åħ¨çĲĥ
ig ration
th ough
Ġprog ram
æŀģ ç«¯
Wh at
æŃ£ å¦Ĥ
Ġnew s
å¤į æĿĤ
a ign
Ġon ce
çŁ³ æ²¹
çļĦ æĹ¶åĢĻ
äº Ī
Ġf ight
ç» ľ
è§£ éĩĬ
Ġlo ok
i k
Ġ åľ¨
Ġs ing
æĦı ä¹ī
æģ °
i ation
çļĦ ä¸į
Ġf ood
Ġe arly
å¤§ åŃ¦
qu ality
Ġbas ed
Ġstreng then
Ġm aking
é» ĺ
çĶŁäº§ çİĩ
éĺ» æŃ¢
Ġsimil ar
åı ·
è¯ ī
å¼ ĥ
éĻ Ĩ
Ġpolit ic
å¤± è´¥
Ġdevelop ed
Ġper iod
Ġt re
Ġrep res
Ġs l
Ġem b
Ġbr ing
Ġrese arch
å¤§ å¤ļæķ°
Ġab le
Ġhist ory
Ġcamp aign
Ġ è¿Ļ
Ġs omet
è´§å¸ģ æĶ¿çŃĸ
åĩĨ å¤ĩ
Ġofficial s
Ġconflic t
Ġbor row
1 5
c il
d en
åıį åºĶ
è®® ä¼ļ
æīĭ æ®µ
Ġext rem
Ġbel ieve
t o
om p
ä¸» å¸Ń
ç½ ²
è£ ħ
Ġam ount
ç§¯ æŀģ
2 5
Ġto p
ä¼ ¤
ru pt
ä¼Ĭ æĭīåħĭ
è§Ĩ ä¸º
å´ ©
å® ½
Ġsu re
ru ption
way s
ĠN orth
ĠPart y
å¹¶ éĿŀ
åĲ¸ å¼ķ
Ġach ieve
åį ĥ
éŁ ©
l er
Ġs ense
è½ ¯
å¼ķ åıĳ
å® ¡
æĽ´ ä¸º
ĠIs lam
Ġyoun g
c ial
re ak
ive ly
åĬł åħ¥
Ġind epend
Ġref uge
u f
ig r
æľŁ éĹ´
Ġbec om
Ġtru e
ra q
éģ ı
e an
åĪ ļ
è¡Į çļĦ
ĠU kra
Ġke ep
åĨľ ä¸ļ
çħ §
Ġo ld
Ġin formation
ro du
Ġl a
æ° ¸
è¢ ĸ
æĽ´å¤ļ çļĦ
Ġcor por
çļĦç¤ ¾ä¼ļ
Ġmod ern
Ġestabl ish
ä¸į è¶³
ä¸Ń å¤®
Ġdec ade
Ġent ire
åį« çĶŁ
Ġadminist ration
raz il
i um
Ġs k
æĢ Ģ
ä¾ µ
Ġ19 9
æī¿ è®¤
Ġprom ot
åŁĥ åıĬ
ç»ı åİĨ
ĠS yr
éģ ĩ
Ġc r
is ions
Ġdis e
Ġclo se
Ġsociet y
rex it
1 1
å¹¶ æ²¡æľī
y p
æĶ¿åºľ çļĦ
Ġmain tain
Ġs it
Ġl ed
éĿ¢ å¯¹
Ġa verage
Ġw ater
Ġf ive
Ġl oss
è¯ Ń
ie f
å¾Ģ å¾Ģ
Ġcommun ity
ç ¦ģ
Ġlar gest
Ġcent ury
å®£ å¸ĥ
èĮĥ åĽ´
Ġb ord
è§ ī
åºĶ å½ĵ
Ġeffect s
Ġadv anced
é ¾
Ġd am
ä¸ª æľĪ
æ¯Ķ äºļ
our ce
Ġenc oura
æĸ Ĺ
äºĨ ä¸Ģä¸ª
Ġare as
Ġpolicy makers
å¹¿ æ³Ľ
æĭĴ ç»Ŀ
on se
Ġun ion
å®¹ æĺĵ
Ġa im
ä¸Ń å¿ĥ
Ġad op
æĿĥ åĪ©
ution al
æĿ¡ çº¦
ä¿ĥ è¿Ľ
éĩį å¤§
èģĶ éĤ¦
ä¸į ç®¡
å¹³ åĿĩ
ren ch
ç¬¬ äºĮ
GDP çļĦ
Ġiss ue
ç¿ ¼
Ġenviron mental
åŁº äºİ
Ġrec over
are nt
è¾¾ æĪĲ
éģı åĪ¶
ill ions
Ġse ver
åĲİ çļĦ
è¶³ å¤Ł
Ġchang es
Ġsimp ly
ä¸į åĪ°
ĠI raq
çĲĨ çĶ±
Ġwork ing
Ġel se
Ġcond itions
ol ic
çŃ ¾
æ²» çĲĨ
Ġreg ime
Ġso vere
Ġsing le
Ġre ce
Ġfor ces
æĹł è®º
åĬ© äºİ
n e
æľī çļĦ
åīĬ åĩı
Ġdefic it
ä¸Ģ èĩ´
Ġg re
ra g
ĠE CB
ĠM iddle
Ġpress ure
è®¨ è®º
ast er
Ġru le
m in
è´ ¬
æĿ¥ çļĦ
æĥ Ĭ
çĦ¶ èĢĮ
å¤į èĭı
ĠIntern ational
çĳ ŀ
ar ing
ke y
Ġ X
äº ²
Ġh ope
åį ļ
èī ¾
Ġpos ition
l ia
æĭ ¿
æ£ ®
ar ian
pp ed
è¿ĩ åº¦
Ġlib eral
èħĲ è´¥
if y
Ġun em
çĽ ĸ
ĠC on
ä½Ĩ è¿Ļ
åıª èĥ½
æļ´ åĬĽ
u ing
æľĢ å¤§çļĦ
é¢Ĩ è¢ĸ
Ġopportun ity
Ġpart ies
Ġto tal
ĠU N
åģ ¿
Ġre ach
èĭ ¦
Ġsupp ly
Ġresp onse
Ġindust ry
Ġdang er
ï¼ ħ
ĠM inister
gy pt
Ġav oid
m m
o h
w ise
åħ ģ
Ġdes pite
Ġopp os
äººæ°ĳ å¸ģ
uf act
l us
iv al
çļĦç ¬
æī ĺ
å°Ĩ åľ¨
æĢ» çĲĨ
Ġrequi res
åĲ ¬
Ġun c
Ġem ployment
å¸ĥ ä»Ģ
1 2
S ome
è¿ Ŀ
Ġprodu ction
ĠComm ission
è´¬ åĢ¼
Ġcap acity
è´¢ å¯Į
æī§ è¡Į
Ġsever al
is ing
Ġab s
æķ° éĩı
Ġexp and
ç¼ ĺ
æĶ¶ çĽĬ
é¢Ħ æľŁ
æĺ¾ ç¤º
å½¢ æĪĲ
å¿« éĢŁ
åħģ è®¸
åĲ Ĺ
å·¥ åħ·
ç¤ ¾
Ġco al
Ġc reat
ct ions
æĹ¶ æľŁ
ä»£ ä»·
Ġreg ard
Ġd one
ä¹Ł ä¸į
æŃ» äº¡
Ġenviron ment
Ġful l
åľ¨ ç¾İåĽ½
çļĦç ľ
æĶ¯ ä»ĺ
å³ °
å¿ ½
Ġem issions
çĵ ¦
A meric
ç» Ĩ
Ġre v
å·¨ å¤§
Ġ ï¼ļ
åħ »
è°ĥ æŁ¥
æ¢ ħ
æĮ ī
è¢ Ń
ric ult
ĠK ing
Ġdemoc ratic
inc ip
æĶ¿ æĿĥ
å± ŀ
æ± Ĺ
Ġeff ort
Ġcre ated
åĲ ī
ĠA sian
ĠR es
åħħ åĪĨ
Ľ èµ·
ä¸Ģ é¡¹
Ġman ufact
ç¼º ä¹ı
Ġconsequ ences
åĲ ¯
çĽ Ľ
èĩª çĦ¶
Ġmass ive
Ġ ess
or al
åħ ¸
ĠE n
å´ Ľèµ·
Ġcoop eration
Ġm ar
åľ¨ è¿Ļ
å¹² é¢Ħ
ivers ity
Ġshif t
A n
Ġb ad
ru ction
é» ĳ
æĦ¿ æĦı
è¿ İ
Ġal ways
ag ing
å¸Ĥåľº çļĦ
Ġbank ing
å½¢ å¼ı
d own
Ġs chool
ĠC l
Ġexp orts
Ġt est
Ġex cess
å¤± åİ»
çŁŃ æľŁ
b ased
l t
ent ly
Ġle ar
æľī åĪ©
å¦ ĩ
å¼Ģ æĶ¾
Ġ ident
velop ment
Ġv ict
ĠP ar
end ed
ç½ĳ ç»ľ
Ġinnov ation
çļĦç¬ ¬
d s
it ing
Ġf low
us s
èİ «
Ġmed ia
Ġstruct ural
äº «
å® ª
Ġbe h
Ġinv ol
æĸ¹éĿ¢ çļĦ
ĠAfric an
Ġass um
æ¯« æĹł
Ġpred ict
èı ²
w ide
Ġn orm
åĬŀ æ³ķ
ipl om
Ġpolitic ians
ç»ı å¸¸
æĮ ¥
åĳ ¼
åĬł å¼º
ĠF und
æ¶ ¨
Ġk ind
æľī åħ³
Ġpr incip
åįı å®ļ
Ġcall ed
çļĦ ç¾İåĽ½
im ul
æķ £
Ġlead ing
Ġsustain able
r ing
r ated
å® ¤
igh b
éľ ²
201 5
Ġt aken
at ory
å® ı
Ġde ath
Ġal one
éĢļ å¸¸
Ġper form
ä»ħ ä»ħ
å®ĥä»¬ çļĦ
Ġindustr ial
% .
ĠC entral
è¥¿ çıŃ
Ġclo s
lia ment
è¥¿çıŃ çīĻ
H e
al est
åľ¨ è¿ĩåİ»
ut ed
ra d
æĽ ¿
è¿Ľ ç¨ĭ
Ġun like
åģ ı
å¼º è°ĥ
è½¬ åŀĭ
Ġfail ed
åĶ ®
Ġth ink
åľ¨ ä¸Ģ
æ°ĳ ç²¹
éĤ »
éĽĨ åĽ¢
çļĦ ä¿¡
Ġstrateg ic
æĮ ¯
åĨ³çŃĸ èĢħ
Ġhist or
Ġc y
æĺ ł
ä¸į å¹³çŃī
Ġse lf
Ġres ol
èģĶ ç³»
iven ess
D G
b y
æģ ©
ĠL e
éĺ¿ å¯Į
Ġsa id
éĺ¿å¯Į æ±Ĺ
Ġv is
Ġtr illion
ä¼¦ æķ¦
ill s
æŀ Ĳ
å¥½ å¤Ħ
æī¿ æĭħ
éĢŁ åº¦
çģ Ń
Ġfund s
Ġauthor ities
åħ±åĴĮ åħļ
æľī åĬ©äºİ
ç»ı éªĮ
æ¦ Ĥ
Ġ 6
re c
ç»ıæµİ åŃ¦
ure d
ä¸»ä¹ī èĢħ
èį ¡
åľ°åĮº çļĦ
l im
Ġpol l
å¤ĸ éĥ¨
ä¿Ŀ è¯ģ
Ġdecl ine
ĠUkra ine
l ine
Ġd on
ĠC ong
å®ŀéĻħ ä¸Ĭ
é¼ĵ åĬ±
re g
Ġwh ose
ç« Ļ
æŃ£ æĺ¯
æ± ¡
ens ive
éĽ ¶
æī¹ è¯Ħ
Ġunem ployment
åĩº äºĨ
od ay
å·¥ èµĦ
åİŁ åĪĻ
æĦŁ åĪ°
Ġvot ers
Ġexpect ed
è´Ń ä¹°
r ong
Ġst imul
Ġpro b
Ġres pect
é«ĺ çļĦ
Ġag g
æķĪ çİĩ
å¼ķ èµ·
è´Ł åĢº
ä¸Ģ ä½į
äºº åĳĺ
åıį æĺł
åıĳè¾¾ åĽ½å®¶
éŁ© åĽ½
æ Ĳ
Ġc ause
Ġbe yond
åĪĨ åŃĲ
æ¬§çĽŁ çļĦ
éĶ Ģ
çĹ ĩ
å¸¦æĿ¥ çļĦ
Ġlarge ly
å¯» æ±Ĥ
ĠTur key
c hed
Ġd iplom
ĠE gypt
Ġ1 0
æ¯ķ ç«Ł
m ed
m arket
Ġb ar
ut in
Ġne arly
æĬķ ç¥¨
ĠAmeric ans
Ġsc ient
æŁĲ ç§į
Ġm akes
Ġd rug
Ġpro per
Ġeconom ists
ĠB razil
è¿Ľ åı£
çĲĨ è®º
Ġtrans p
Ġway s
éĽĨ ä¸Ń
æħ ¢
Ġpros per
ent ed
ra ms
è¯Ħ ä¼°
ĠItal y
A N
æ ¥
åĲ «
ĠS h
ĠD emoc
itt ed
ortun ately
çģ «
éĻ¤ äºĨ
æĽ ¼
éĥ¨ éķ¿
æ¡ Ĩ
Ġob ject
Ġgood s
Ġparticul ar
æĵ į
çļĦ æ¬§æ´²
ir c
çº ·
end s
all ed
åĲĪ çĲĨ
ç´ ¯
è½¬ ç§»
ĠGree ce
èµ¢ å¾Ĺ
æīĢ ä»¥
å½ĵ æĹ¶
æ²» çĸĹ
Ġfa v
æī© å¼ł
è§Ĵ èī²
è¯ ¸
Ġha ving
ect ed
Ġ201 5
å¥³ æĢ§
å·´ åĭĴ
f er
çļĦ ä¸»è¦ģ
ä¹ĭ å¤ĸ
åħ¬ å¼Ģ
ä»» åĬ¡
å¤Ħ äºİ
Ġval ues
å·´åĭĴ æĸ¯åĿ¦
I MF
S uch
le v
ä¸ĭ çļĦ
æĶ »
ct ors
å®ŀ åĬĽ
å¹¶ ä¸įæĺ¯
å» ·
Ġpart y
Ġtechnolog ies
Ġproject s
çļĦ æĶ¯æĮģ
ra de
id ing
æ¯Ķ ä¾ĭ
Ġpart ners
Ġasse ts
æľĿ é²ľ
Ġunt il
T oday
äºº æĿĥ
æ² ĥ
Ġcount er
gh an
ĠF rench
ä¼ĺ åĬ¿
Ġess ential
G iven
¢ å¤į
è´ Ŀ
å½ĵ å±Ģ
çĽ® çļĦ
æģ ¢å¤į
å² Ľ
æ½ľ åľ¨
i en
Ġbe gan
è¿Ļ æĦıåĳ³çĿĢ
ist ance
ĠB rexit
Ġinc ent
å¼º åĮĸ
åį³ ä¾¿
Ġatt empt
çĮ ®
çĩĥ æĸĻ
çļĦ å¢ŀéķ¿
å½ ķ
è®¤ è¯ĨåĪ°
åĤ¨ å¤ĩ
Ġsuccess ful
æ¡Ĩ æŀ¶
s w
Ġl ives
æĹ ¦
è¯ ļ
Ġne ighb
Ġpower ful
å®Į æĪĲ
ä¸ĵ å®¶
Ġine quality
ç®Ģ åįķ
Ġc ities
Ġst ock
ç»Ł æ²»
Ġopportun ities
Ġmonth s
Ġinteg ration
ĠKing dom
A cc
Ġm ov
Ġund erm
Ġf ram
Ġcon stit
Ġal tern
å»º è®®
Ġinvest ments
å¤Ħ çĲĨ
çº½ çº¦
Ġt en
Ġo pt
or ies
Ġab ility
åħ¶ä»ĸ åĽ½å®¶
Ġexper ience
Ġt em
ĠB ush
Ġincreas ing
hin d
èİ ±
Ġresp ond
Ġnat ural
b i
in king
è´ ¦
çŃ Ķ
æ¯ ģ
Ġcl ass
åĨį æ¬¡
Ġact iv
Ġpartic ip
åĽ½ ä¼ļ
è® ¿
å¤§ çº¦
ĠA l
end a
ight s
è· Ŀ
Ġpre c
Ġpopul ar
åĽ° éļ¾
tern al
% ,
Ġ 7
Ġd ig
åĲĪ æ³ķ
éģĵ å¾·
Ġqu ick
ĠC oun
æĪĲ ç«ĭ
Ġgovern ance
Ġdo ing
ä¾Ľ åºĶ
Ġ19 90
éĢĢ åĩº
Ġfunda mental
m ber
çļĦ çĽ®æłĩ
Ġm is
Ġv ol
ĠP ro
Ġag ricult
ĠN ations
Ġprog rams
Ġre ven
ç¾İåĽ½ åĴĮ
æľ¬ èº«
æ· ·
Ġbond s
i ate
Ġ ill
ver se
å·¥ äºº
Ġinflu ence
N E
ç Ĩ
çļĦ éĤ£æł·
Ġg as
Ġde term
åħ¨çĲĥ ç»ıæµİ
201 0
T O
Ġ ãĢģ
he ad
om ent
é¡ ¾
Ġso on
éĺ¿ æł¹
Ġtre nd
ĠCoun cil
1 00
åħ¨ éĿ¢
çĸ «
ä¸»ä¹ī çļĦ
ĠAf ghan
olic y
in a
Ġl ost
ä¸į è¿ĩ
Ġsub s
è¿ ª
å¸ Ī
æķ ħ
ç¡® å®ŀ
Ġper haps
ç¬¬ ä¸ī
ï¿½ï¿½ ï¿½
wh ile
éĺ¿æł¹ å»·
l ies
Ġ Z
çļĦ é£İéĻ©
æĶ¿ åħļ
å¿ Ĺ
ä¹Ł ä¼ļ
åı¦ ä¸Ģä¸ª
éģ į
ç³ Ł
Ġlead er
h ood
ar ily
Ġcom es
æĭħ å¿§
Ġsub st
ĠA I
è½¬ åıĺ
ÂłÂł ÂłÂł
p ut
Ġ -
Ġ 30
Ġa id
Ġp ath
Ġb ur
Ġr ich
çŃĸ çķ¥
ç«ĭ åľº
Ġow ing
ĠDe velopment
å¦ĩ å¥³
Ġa way
re am
æĳ Ĩ
Ġide a
Ġtrad itional
Ġrelations hip
çĸ¾ çĹħ
Ġde l
è¾ ĵ
åĪĨ æŀĲ
Ġad just
éĽ ·
é© ±
Ġpr ior
Ġ201 0
Ġob s
reed om
Ġdeb ate
M any
se t
Ġv ar
Ġadv ant
Acc ording
Ġg e
Ġal ong
Ġwe ap
ĠP alest
ä¾ĭ å¦Ĥ
éĺ² æŃ¢
èĤ¯ å®ļ
æīĢè°ĵ çļĦ
Ġnecess ary
Ġw in
åĨ ·
åĬ¨ èį¡
è¡¨ ç¤º
av ing
Ġdes ign
Ġgo al
Ġdom in
ch an
Ġun p
å®ĥ çļĦ
Ġgroup s
a pe
y m
Ġ Th
ore d
åħ¬ å¹³
ous ly
å·´ åŁº
ä¸¤ åĽ½
Ġhigh ly
çĻ¾ ä¸ĩ
b o
æľī äºº
Ġelect ions
is es
æº ĥ
ç¾¤ ä½ĵ
for ce
Ġviol ence
Ġbe hind
è´ ´
th ing
å¤ļ çļĦ
Ġpr im
èĦ Ĩ
ä¾ĭ åŃĲ
Ġprop os
æĽ¾ ç»ı
å·´åŁº æĸ¯åĿ¦
éĢ ı
ak istan
æĢģ åº¦
ĠGerm an
ç¨ĭåº¦ ä¸Ĭ
çģ¾ éļ¾
ly ing
ä¹Ł åľ¨
ç´§ ç¼©
Ġev idence
çļĦç Ł
Ġent er
t on
åº ĵ
åĨ Ļ
æĢ İ
æİ Į
em ber
å¢ŀéķ¿ çļĦ
s h
æĹ §
æł ¡
Ġan al
Ġrecover y
å°± åĥı
led ge
Ġm oment
å¤ º
ul ner
Ġex ternal
åŃ ©
æĸ¯ æŀĹ
Ġest im
çļĦ ä¸Ģä¸ª
Ġb reak
Ġl ater
è¿Ļ åľº
çľĭ åĪ°
æ¶Īè´¹ èĢħ
Ġt aking
çļĦ æĸ¹å¼ı
ä¸º ä»Ģä¹Ī
åħ¶ å®ŀ
æĻ® äº¬
æ°ĳä¸» åħļ
åı¦ ä¸Ģ
Ġv ir
æ¸ ¯
ĠRus sian
å¡ŀ å°Ķ
Ġw rong
ĠI MF
å¾Ī å¤§
Ġcor ruption
Ġstat us
C A
Ġs an
ac ed
ç»Ł ä¸Ģ
æ ¹
Ġs w
ç¾İåĽ½ äºº
Ġam b
Ġatt ention
è¯ģ æį®
å®Ĺ æķĻ
ĠCong ress
Ġa ir
Ġp ass
å¹´ ä¸Ń
åĳ ¢
çĶŁ åĳ½
ĠB ar
ĠM on
Ġcont rast
ç¡ ¬
åıª è¦ģ
Ġsur pris
Ġfail ure
Ġbenef it
Ġprob ably
N ow
Ġr at
ä¸ĭ è·Į
Ġind ic
Ġu lt
ĠP rime
Ġdisc uss
è ª
or ing
åĴĮ ç»ıæµİ
åĬł åī§
çĿ £
Ġfinanc ing
ç¬ ¦
æ±¡ æŁĵ
Ġc at
Ġm ob
ul ation
us lim
æĶ¿çŃĸ çļĦ
Ġdem on
Ġpre vious
Ġact ually
è Ĩ
Ġth ird
om b
çĽ¸ æ¯Ķ
è§£åĨ³ æĸ¹æ¡Ī
Ġmajor ity
æīĵ åĩ»
å´© æºĥ
Ġsubst ant
åĨ² åĩ»
S t
st ead
Ġus ing
Ġocc ur
èĦĨ å¼±
ç§ ©
Ġrec ession
æ¶ ī
ĠSyr ia
v est
Ġw ide
åĪ ĳ
åĽ½ æ°ĳ
Ġg ive
çĶŁ çī©
Ġcomple x
min bi
ç§© åºı
re p
Ġm iddle
Ġl ive
ä¹Ł å°Ĩ
æķĪ æŀľ
æĥ³ è¦ģ
Ġter rit
igr ants
Ġfram ew
A ll
Ġv ulner
è¿Ľ å±ķ
Ġav ail
è¿½ æ±Ĥ
å¢ŀéķ¿ çİĩ
æ» ĭ
æī¾ åĪ°
Ġc ases
è´ ¡
Ġwe e
Ġwor se
iz ations
Ġinclud e
Ġsol ution
Ġarg u
è¢Ń åĩ»
ä½ ³
åĴĮ æĶ¿æ²»
äºº éĥ½
åıĳ èĩª
Ġcom ing
Ġag enda
ĠN ational
erv es
Ġra d
Ġach ie
Ġasse t
1 8
Ġe th
æĺ¯ åĽłä¸º
Ġnot hing
åı¯èĥ½ æĢ§
Ġrec ord
Ġlar ger
æ» ŀ
çģ µ
å®ª æ³ķ
Ġ ãĢĭ
å° Ĭ
çī ĩ
éģ Ĺ
ä¿Ŀ å®Ī
200 9
Ġreal ity
åĸ ľ
Ġtax es
Ġfe el
Ġ Q
æľĢ å¤§
åīĬ å¼±
Ġunc ertain
Ġre volution
g o
Ġ 50
in anc
Ġl at
Ġl iving
å¢ ¨
æļ ĸ
rat s
æ»¡ è¶³
Ġextrem e
åħ Ń
Ġth ings
æŃ §
æ³ ¡
ĠM ay
Ġimm ed
åĿļ æĮģ
Ġh uge
ä½ĵ åĪ¶
è¿ĳ å¹³
Ġpros pect
ä¹ł è¿ĳå¹³
Ġsit uation
ç¾İåĽ½ æĢ»ç»Ł
å¸¸ å¸¸
Ġatt ract
è´¨ éĩı
Ġleg it
Ġren minbi
Ġmeet ing
Ġmanufact uring
chan ism
he t
ç» ª
ĠA g
Ġdec isions
Ġfar m
Ġcompet ition
èĴ Ĥ
å° ļ
çĽ Ī
ust er
æĺİ æĺ¾
å·¦ åı³
Ġcorpor ate
è Ĺ
at t
Ġp erm
Ġe ither
ä¼ ĳ
Ġsh ar
èĦ ĳ
y ear
it arian
æ± ½
Ġleg al
æĢĿ æĥ³
éĢĲ æ¸Ĳ
Ġdemon st
ä¸ ¹
æİ Ī
ĠG lobal
å·´ é»İ
Ġlim ited
æĢĢ çĸĳ
Ġbeh av
Ġc irc
ä¸Ģ åĪĩ
çİ° è±¡
Ġse en
ĠP akistan
Ġj o
åħ· ä½ĵ
Ġvot e
è´¡ çĮ®
Ġp ow
åľ £
Ġn ar
å°Ĩ æĺ¯
è¯¥ åĽ½
åħ¨çĲĥ åĮĸ
é¢Ħ è®¡
Ġrel ig
Ġdef ense
Ġcar bon
¦ Ĩ
è ¦Ĩ
çļĦ åĽ½éĻħ
Ġd en
ĠM uslim
ä¿Ŀ éĻ©
è¿ľ è¿ľ
å¹´è½» äºº
Ġrepres ent
Ġ z
è¿ Ī
le g
Ġre in
Ġl ate
äºĭ æĥħ
æĢ» ä½ĵ
Ġredu cing
Ġre ad
201 4
è§Ĥ å¯Ł
Ġk ill
æ¿Ģ åĬ±
rug g
Ġcommit ment
S E
è ĸ
Ġd i
å¹´ ä»¥æĿ¥
Ġan sw
Ġwill ing
Ġexp ans
ä¸ľ è¥¿
Ġeas y
Ġcol lect
L ike
Ġ ä½Ĩ
it able
et s
å½ »
å¥ Ĺ
æĥħ ç»ª
åģļ æ³ķ
imate ly
æĤ ²
Ġsubs id
c alled
ar ter
æ´ Ľ
è¾ ©
In stead
ä½¿ å¾Ĺ
åį³ å°Ĩ
Ġann oun
Ġrelative ly
æĽ´ å¤§çļĦ
ĠP utin
åīį æĻ¯
å½ĵ ä»Ĭ
Ġbec ame
inc ome
Ġstand ards
Ġc ru
ar ant
è¿ ¹
å± ±
201 3
åŁºéĩĳ ç»Ħç»ĩ
Ġ ve
çļĦ åħ³éĶ®
Ġst rugg
åĪĨ éħį
æ¶Ī æģ¯
Ġem ploy
Ġgen eral
Ġsol utions
æ¥ ļ
Ġf ed
Ġg round
ut es
éĢ ĥ
ä¹Ł æľī
ag n
éĵ¶è¡Į çļĦ
èĩ³ åħ³
æĬĢ èĥ½
rough t
Ġcontin ent
Ġpur ch
å®½ æĿ¾
Ġ ign
un g
Ġ201 3
çŁ¥ è¯Ĩ
éĢłæĪĲ çļĦ
Ġren ew
lo c
ç³ ķ
å·¥ ç¨ĭ
ç³» åĪĹ
Ġprodu ce
Ġrefuge es
çļĦ åİŁåĽł
èĢĮ åľ¨
åıĳ æĮ¥
æĸ¹ éĴĪ
å¹¶ æľª
ens us
æĻ® éģį
ä¸ĩ äº¿ç¾İåħĥ
éĿ¢ä¸´ çĿĢ
Ġgre en
O R
i red
åĢ ¾
Ġwor ds
æĶ¾ å¼ĥ
éļľ ç¢į
å®ı è§Ĥ
NE W
¨ èĥĢ
ä¸Ģ ä½ĵ
åŁ ¹
éĩĳèŀį å¸Ĥåľº
è®¾ è®¡
Ġref ere
å±Ģ éĿ¢
Ġconcern s
onal d
ĠX i
èĨ ¨èĥĢ
Ġshar p
çļĦ ä¸ĸçķĮ
åĩ ¯
Ġhe ld
éĥ½ ä¼ļ
æıĲ åįĩ
åĢ¼ å¾Ĺ
ĠO r
olog ical
çĬ ¹
æģ¶ åĮĸ
Ġelse where
å ©
or n
Ġf reedom
Ġre ally
æĹ ¨
å¾Ī éļ¾
éº ¦
Ġpow ers
æĶ¿ å®¢
ric t
Ġexp ert
ific ation
Ġbusiness es
pl us
ç©Ĩ æĸ¯æŀĹ
at in
èµ ŀ
æĸ° éĹ»
åĮº åŁŁ
Ġind eed
201 2
æ³¨ æĦı
æĴ ¤
çļĦçł Ķç©¶
F irst
re l
çļĦ èĥ½åĬĽ
Ġto ok
Ġm iss
ce ption
Ġne ar
æŃ£ å¼ı
éĵ ģ
å°ĳ æķ°
å¤© çĦ¶
çĥ Ł
æĴ Ń
äºĴ èģĶ
Ġestabl ished
çļĦ æĶ¿åºľ
æĺ Ĥ
æĢ ķ
åĪ¶ è£ģ
Ġj ud
Ġ201 4
çĻ Į
å®ĺ æĸ¹
Ġur ban
Ġdig ital
Ġweap ons
i ance
é ½
ä¸į ä½Ĩ
å¾ Ħ
æ² «
ĠA n
åĲĮ æĦı
Ġ1 5
è½ ®
ex t
Ġgu arant
Ġsomet hing
Ġfav or
Ġquick ly
æ³¡ æ²«
Ġd yn
æľī äºĽ
åľ° çĲĥ
Ġhe av
Ġar r
Ġprotect ion
Ġdefic its
æ»ĭ çĹħ
äºĭ åĬ¡
ĠEurope ans
åħ± è¯Ĩ
å¼º å¤§çļĦ
Ġsc ience
æĤ £
olit ical
Ġexpl ain
e or
ä¸Ģ å®ļ
æĿ ĳ
éĢ Ķ
æĢ ª
éľĢè¦ģ çļĦ
ĠH e
ç»Ħ æĪĲ
åĲĦ ç§į
è´§å¸ģ åŁºéĩĳç»Ħç»ĩ
Ġproduct s
ĠAfghan istan
a pp
u se
ic i
åħ± äº§
æī§ æĶ¿
an e
Ġde li
od y
Ġab ove
ens ion
åľŁ åľ°
Ġcurrent ly
Ġfollow ing
èī¾ æ»ĭçĹħ
a id
Ġh ous
ac hed
Ġse vere
Ġpre p
æĥ³ è±¡
æıĲä¾Ľ äºĨ
Ġconf idence
æ¸ħ æ¥ļ
Ġnegoti ations
å³° ä¼ļ
Ġexpans ion
ä¸ §
Ġint rodu
è° ģ
Ġgen eration
Ġpresident ial
Ġperform ance
t ers
çļĦ éĩįè¦ģ
at ure
Ġto ol
æ° §
ä¹Ł æ²¡æľī
åĽŀ æĬ¥
åįķ ä¸Ģ
Ġpos itive
Ġmove ment
ĠIntern et
Ġhousehold s
Ġdise ase
Ġunlike ly
on es
ç§ ĺ
æĸ¹ åĲĳ
os ing
æĬķ åħ¥
Ġsur plus
ĠPalest in
çļĦ é«ĺ
Ġse ctors
åĪĨ è£Ĥ
Ġworld wide
ov iet
Ġoff er
Ġkn own
Ġset t
éĺ¶ çº§
S im
r ary
Ġm ist
åĽ½ æľī
åĴĮ ç¤¾ä¼ļ
ä¿¡ çĶ¨
éģĵ è·¯
è£ ķ
åĨĽ éĺŁ
Ġcontin ues
H ow
ä¸ª åĽ½å®¶
åľ° äº§
éĹ®é¢ĺ ä¸Ĭ
æķĻ è®Ń
è´Ł æĭħ
Ġfund ing
ä¸¥éĩį çļĦ
èĭı èģĶ
ean while
m aking
Ġc e
Ġm ind
äºĨ è§£
è¡ Ģ
å¼ Ĺ
åī ©
ust r
ĠR o
è§Ħ å®ļ
è§Ĵ åº¦
Ġla un
é½ Ĳ
s p
Ġa head
åį ¢
éĹ Ń
Ġresult s
æ³¢ åĬ¨
ç¿ »
éĺ¶ æ®µ
ç³Ł ç³ķ
Ġbehav ior
M eanwhile
Ġm illions
æĺ Ł
il i
èĢ Ĺ
å¤§ éĻĨ
Ġcon v
é¢Ĩ åľŁ
Ġme chanism
Ġar t
æ½ ®
Ġcrit ical
Ġindustr ies
Ġcertain ly
çļĦ ç»ĵæŀľ
ä¸į å¹¸
im ent
å¤§ éĢī
å¯¹ æŃ¤
Ġv ision
ress ive
æĳ ©
åģľ æ»ŀ
è¡¥ è´´
S e
y a
at or
æķ Į
Ġas k
Ġres erves
Ġglobal ization
Ġrep l
Ġadd itional
ç¦ı åĪ©
Ġoppos ition
èª ī
Ġbe low
èĢĮ éĿŀ
Ġun ivers
éĽ ĩ
Ġleg is
ĠSe curity
Ġmat ter
Ġbegin ning
ĠAr gent
C D
Ġd iv
Ġl ine
ur ance
ä¸» å¯¼
åı¯ä»¥ åľ¨
Ġfa ir
Ġcris es
Ġtechnolog ical
Ġbecom ing
å¢¨ è¥¿
c rib
Ġ ir
le x
ul ar
æ² ī
ç«ĭ æ³ķ
è´Ł è´£
Ġob vious
å² ģ
å² Ĺ
Ġrespons ibility
Ġexist ing
Ġprosper ity
Ġaltern ative
Ġframew ork
å¢¨è¥¿ åĵ¥
k n
Ġs ent
Ġs ource
éĩį ç»Ħ
ap se
un ction
æ¶ ¦
Ġover all
Ġinstit utional
æ£ Ģ
Ġorgan izations
Ġcreat ing
I N
er o
om in
ut h
ä¸º æŃ¢
çº µ
Ġun s
åĨ³ äºİ
åıĸ åĨ³äºİ
èī °
éĩįè¦ģ çļĦæĺ¯
Ġ 8
Ġs ix
Ġst op
åŃ £
æĽ´ å¥½
å¾Ĺ å¤ļ
äº§ ä¸ļ
ĠL atin
è½¬ åĲĳ
æĺ¾ èĳĹ
å±Ĥ éĿ¢
ĠFed eral
æ°¸ è¿ľ
Ġavail able
æ±½ è½¦
a ul
è¿ Ł
op h
ord in
åĩł åįģå¹´
æİ¨ è¿Ľ
ex ic
åģľ æŃ¢
é£Ł åĵģ
ĠSp ain
Ġsovere ign
a ult
p ro
Ġs ide
æľ «
Ġm ort
è¿Ļ ç±»
Ġsp read
åĳ¨ æľŁ
éĢĤ åºĶ
Ġcaus ed
Ġt rou
he st
åħ «
æī °
å¸ Ŀ
ä½Ĩ å¦Ĥæŀľ
äºī è®º
Ġ201 2
olog y
iqu id
p art
Ġc over
æī İ
æĬ ¼
å¾Ī å¿«
Ġsc ale
åįı è°ĥ
çĽ¸å½ĵ äºİ
åįİ çĽĽ
Ġrecogn ize
æĽ¿ ä»£
uster ity
åįİçĽĽ é¡¿
a ud
r ies
Ġ rough
Ġt yp
Ġd ram
äºº å£«
è¯ į
ur s
æĬ ĺ
anc er
Ġout put
è¿Ļæł· åģļ
Ġtrans ition
Ġreas ons
ph as
l in
Ġt end
he m
er b
ĠS c
è®¡ ç®Ĺ
åĽ½éĻħ ç¤¾ä¼ļ
Ġra ise
åĲ¦ åĪĻ
Ġfact ors
èĪ ¬
Al though
Ġdyn am
e es
ot s
æ¯ į
Ġle ave
Ġ1 8
è· Ł
Ġcomm od
Ġbo om
Ġlo ans
Ġgain s
æĶ» åĩ»
he l
Ġm inister
Ġh ost
èµ Ľ
åĪ© æ¶¦
ĠP e
è¿ĺ è¦ģ
og ra
Ġcontin ued
® é£Ł
çļĦ æĮĳæĪĺ
Ġc and
Ġf ig
Ġth ing
æľĢ é«ĺ
éľ ĩ
éļ Ĳ
åħĭ éĩĮ
Ġconsum er
èĦ± æ¬§
æĻº èĥ½
å¿½ è§Ĩ
é ī
in ally
åħ ĳ
ac ro
ç½ ļ
ä»İ æľª
ä½İ äºİ
åĪĻ æĺ¯
Ġdist rib
è¿ĩç¨ĭ ä¸Ń
Ġdou bt
è´¦ æĪ·
éī ´
çļĦ æľºä¼ļ
è¿ ·
om es
åĲ ģ
è§ ¦
èĢĮ è¿Ļ
Ġle t
Ġcont ract
ç§į æĹı
æķĪ åºĶ
ç§ĳ æĬĢ
Ġcle arly
æ°ĳç²¹ ä¸»ä¹ī
o f
o ff
ä¸į å¾Ĺ
ç¬¦ åĲĪ
c are
e ch
Ġm ere
å¯¹ åħ¶
ä¹Ł å°±æĺ¯
åıĳ å¸ĥ
un e
Ġacc ording
çĹ Ľ
Ġhelp ed
èĤ¡ å¸Ĥ
èŃ¦ åĳĬ
çļĦçľ Ł
æ¹ ¾
å²Ĺ ä½į
æīĢ éĿ¢ä¸´
åĪĨ ä¹ĭä¸Ģ
ress ed
ç¬ Ķ
act er
Ġcre ation
çħ ¤
èĴ Ļ
Ġgra du
Ġadvant age
äºĴèģĶ ç½ĳ
å¾ ª
æĭ ĸ
çİ° æľī
æĽ´ å¤§
Ġout come
201 6
è§ģ çļĦ
åĪ¶éĢł ä¸ļ
åĳ¼ åĲģ
Ġincent ives
Ġfed eral
Ġm ess
Ġsu mm
æľ¬ åĽ½
anc ing
æħ İ
å¤±ä¸ļ çİĩ
Ġmanage ment
inanc ial
æĢ Ĵ
ä¹Ł åı¯ä»¥
åĩº çļĦ
éĩį çĤ¹
æĦı è¯Ĩ
Ġj our
201 1
ç¬¬ ä¸Ģ
æ® ĭ
Ġsur v
Ġcoll apse
æ°§ åĮĸ
M ost
f ortunately
i ated
Ġc ame
il ities
æĬ ĳ
ä¸ŃåĽ½ åĴĮ
Ġimp oss
çļĦç ´
ä¿¡ ä»»
åĽ¢ ç»ĵ
Ġine v
çľŁæŃ£ çļĦ
Ġansw er
åı ¥
çĶ ·
ap er
Ġequ ity
åħħ æ»¡
é¾ Ħ
ogra ph
Ġc al
ĠG reat
å½ĵ åľ°
ä¿¡ å¿ĥ
Ġro b
ä¾Ŀ éĿł
Ġaff ord
li er
Ġmodel s
Ġrapid ly
æ¬¢ è¿İ
r ight
çī Ī
éķ ĩ
ust ain
å°± èĥ½
æĪĳä»¬ å¿ħé¡»
Ġem phas
Ġstrong er
æľīæķĪ çļĦ
æĪ¿ åľ°äº§
Ġstimul us
èĹ ı
Ġcand id
åı ¬
Ġde t
æ³ °
Ġimp er
Ġout side
æĶ¾ ç¼ĵ
æİ¥ è¿ĳ
åĢĻ éĢī
ĠSt ate
ä¿Ħ åĽ½
Ġneg ative
éº »
å¤©çĦ¶ æ°Ķ
æĿ¥ æºĲ
å¥ ĸ
el s
çľĭ æĿ¥
æĥħåĨµ ä¸ĭ
Ġbas ic
Ġsan ctions
u nt
Ġw orth
åľ¨ æ¬§æ´²
åº ŀ
Ġfor ward
æį ķ
èį ī
Ġcent er
çĻ »
Ġevery one
Ġcompet it
ç±»ä¼¼ çļĦ
Ġsav ings
S ince
a ction
ar ies
åľ¨ æľªæĿ¥
åĩ Ģ
éĺ µ
éĵ ¾
çł Ķ
æ¶Ī éĻ¤
Ġqu ality
æĸĹ äºī
Ġflow s
æ¦Ĥ å¿µ
an n
ä¹ Ŀ
èĢĮ ä¸į
ĠS w
ĠS oviet
æı ı
ĠF or
Ġcomp any
åŃ¦ çĶŁ
èĩ´ åĬĽ
é¦ Ļ
ĠJapan ese
Ġfac ing
Ġspec ial
Ġcut s
oh n
ĠMon etary
e qu
Ġst e
å¤ļ æł·
å¤ļ å°ĳ
èģ ļ
åıĺ éĿ©
åĽ½éĻħ è´§å¸ģåŁºéĩĳç»Ħç»ĩ
Ġ201 1
Ġprot est
èĢĥèĻĳ åĪ°
åıĮ æĸ¹
æĳĨ èĦ±
2 1
a f
d o
ä¸ ģ
Ġl iquid
ä¸º ä½ķ
æİ ī
em ic
åĮĸ çŁ³
Ġintern al
ĠComm un
Ġallow ed
Ġeffective ly
Ġbuild ing
ĠRes erve
Ġenter pris
å½» åºķ
ä¸įå¹¸ çļĦæĺ¯
g ence
l ig
Ã ©
it er
Ġre pe
os p
Ġtr ust
Ġso ft
ll ing
ä¾Ľ ç»Ļ
Ġ201 6
è¾¹ å¢ĥ
Ġpoint s
Ġcho ice
Ġa ge
Ġb ub
Ġh arm
Ġsu c
ort ion
éĺ ³
ĠM exic
é«ĺ è¾¾
åıĺ æļĸ
æīĢæľī è¿ĻäºĽ
åĭ ĥ
Ġel imin
èĤ¡ ç¥¨
Ġfocus ed
acc ount
Ġimposs ible
èĩ´åĬĽ äºİ
il t
ä¸į ç¡®å®ļ
Ġfor ced
åİ Ĥ
æľº åĻ¨
æĮĩ æłĩ
Ġwar ming
Ġcommun ities
Ġtreat ment
Ġ 40
Ġa usterity
Ġd ivid
è¯ ·
æµ ª
çº ł
Ġimp lic
çļĦç ¡
Ġconsum ers
Ġknow ledge
éĢı æĺİ
Ġw on
Ġm acro
Ġde g
ä¹ĭ ä¸Ń
Ġeconomic s
æļ Ĺ
çł´ äº§
åĮĹ çº¦
éŁ ³
Ġaff ect
Ġstud y
c le
n ces
w are
er c
Ġw at
Ġm id
ent y
Ġcon n
èĢĮ æĺĵ
èĭ Ĺ
oss il
äºĮ åįģ
éĻ¤ éĿŀ
è¿« ä½¿
Ġrough ly
Ġsuc ceed
æ ¾
ä¸Ĭ æ¶¨
éĥ½ åľ¨
ä¸ĸçķĮ éĵ¶è¡Į
å°Ķ åħ°
Ġ19 80
Ġass oc
Ġbas is
Ġpers onal
èĥľ åĪ©
Ġrequi red
Ġsk ills
æĹ¨ åľ¨
Ġw rit
Ġm en
Ġre ached
çļĦç ©
åĿ Ľ
æŀĦ å»º
ient s
iet y
åĨľ æ°ĳ
åŃ© åŃĲ
é Ń
æľī çĿĢ
if f
è¢« è¿«
æł¸ æŃ¦åĻ¨
é¦ĸ çĽ¸
çĬ¶ æĢģ
Ġsav ing
Ġsuggest s
å «
çļĦ åıĳå±ķ
ç¾İåĽ½ åľ¨
Ġsh ared
æı ¡
æĢ» æĺ¯
Ġro ad
åĥ ļ
Ġserv ice
Ġindepend ence
è´ µ
ä»¥ ä¸Ĭ
çĽŁ åıĭ
Ġtrans form
Ġass ess
æĴ Ĵ
ç«ŀäºī åĬĽ
ä¼° è®¡
æĸ°åħ´ å¸Ĥåľº
Ġdam age
Ġrefere nd
Ġhous ing
ä¸Ģ æĹ¦
ce ler
ä½Ĩ åį´
æĢ§ åĴĮ
Ġch ance
çĦ ¦
æľª èĥ½
ç²¾ ç¥ŀ
Ġactiv ities
1 4
è ¸
çļĦ ä¸ŃåĽ½
en cies
æľī éĻĲ
æī Ń
ot t
å¯¹ æīĭ
èĩª æĪĳ
é¡ ¶
æļ Ĥ
å² ¸
Ġinst ead
Ġbord ers
Ġdanger ous
çĨ Ł
ĠBar ack
é Ĩ
Ġre ject
èµ «
Ġare a
us ed
ĠB e
Ġthere by
éĩĩ çĶ¨
è®¸å¤ļ äºº
ä¸ĢçĽ´ åľ¨
Ġregul atory
åĮĸçŁ³ çĩĥæĸĻ
e conomic
çļĦ åŁºç¡Ģ
Ġg ap
æ² ³
Ġcom mer
Ġext ra
Ġprop osed
å·® è·Ŀ
Ġpar liament
å°¤åħ¶ æĺ¯
ä¼¤ å®³
Ġ 9
it es
Ġm ot
æİ ¢
ĠM ar
Ġcont ain
ä¸ĸçķĮ ä¸Ĭ
200 7
çľŁ å®ŀ
ç»ĵæŀĦ æĢ§
Ġpurs ue
w ork
Ġ ï¼ħ
Ġb rought
è¿Ļ é¡¹
ra in
ĠE conomic
Ġex ec
èĢħ åĴĮ
è° ·
éĢļ è´§
ens ions
Ġregul ation
Ġquest ions
Ġide as
èĩªèº« çļĦ
Ġdoll ars
ret ary
ç²¾ èĭ±
Ġsociet ies
Ġf ast
æĽ´ å¥½çļĦ
Ġv ital
Ġexp lo
çº¦ æĿŁ
ä¸¾ è¡Į
ä¸įåĲĮ çļĦ
Ġexper ien
Ġevent ually
çĪ± å°Ķåħ°
d raw
p r
Ġ 0
Ġc ross
Ġf ix
ä¸Ģ ä»£
ç« ł
çľ ģ
Ġinter vention
èĲ §
ough t
å±Ģ åĬ¿
åĩºçİ° äºĨ
abil ities
Ġloss es
b u
r ist
Ġde ter
ĠI I
ust om
åŃ¦ ä¹ł
ĠD ep
é£ ŀ
æł¼ åħ°
ish ing
å¯Į è£ķ
Ġbel ie
Ġeng age
æŃ£ç¡® çļĦ
ici ency
I s
r ust
Ġ ä»¥åıĬ
it ud
ç» ¿
Ġclaim s
Ġvir t
m b
o ks
Ġc ancer
Ġs ources
åº Ł
åľ° ç¼ĺ
å¹¶ åľ¨
è° ĭ
åĢº æĿĥ
Ġcor re
Ġcrit ic
Ġday s
Ġattack s
Ġnorm al
èĲ§ æĿ¡
n al
Ġ åĮħæĭ¬
Ġf lo
Ġf ossil
éĢ Ĭ
åĩº æĿ¥
å¤ļ è¾¹
ä¸ŃåĽ½ åľ¨
pt ember
ĠN A
è®© æĪĳä»¬
Ġpo ore
ä¸ī ä¸ª
éĢĢ æ¬§
åĮĹ äº¬
ä¸įä»ħ ä»ħ
Ġb i
è¦ģ ä¹Ī
ĠG eor
hen s
æľĢè¿ĳ çļĦ
Ġful ly
å¯» æī¾
Un fortunately
Ġdeli ver
w ar
åľ¨ ä¸ŃåĽ½
çĶ ³
è¯ Ĭ
Ġem p
19 7
è¨Ģ è®º
Ġsee k
land s
Ġsimp le
Europe an
åı³ ç¿¼
æľīåĪ© äºİ
N o
Ġs ym
Ġm oral
as hing
ol id
åıĳ è¡¨
éģ µ
èĭ ¥
éĤ£ å°±æĺ¯
éĩı çļĦ
åħĭ å°Ķ
Ġoffic e
5 00
Ġt as
Ġc ore
ar ity
æľī ä¸Ģ
æĽ ²
æ³ķ éĻ¢
æĻ® éĢļ
Ġmat ters
Ġevent s
Ġfam ily
ĠArgent ina
çļĦ æĬķèµĦ
å® ¾
Ġl ink
her s
æĭ ľ
æ¬§æ´² äºº
å» ī
Ġeff icient
ä»·åĢ¼ è§Ĥ
ustain able
r ied
es pite
çĶ ¸
å½ĵ éĢī
è¯¥ åľ°åĮº
ĠD onald
Ġcomm itted
Ġincreas es
Ġredu ced
ĠSe ptember
Ġarg ue
Ġlim it
åıĮ è¾¹
Sim il
c o
ħ çĶ¸
Ġm inist
æī ®
å¤§ å¤§
éĿ Ĵ
ĠA s
and s
æŃ£ å¸¸
åĨħ çļĦ
çĽ´ åĪ°
éĽĨ ä½ĵ
çĽĳ çĿ£
Ġelect ric
1 7
C ons
m y
ł æĿ
Ġp ain
Ġf rag
éĩ İ
ver t
éĢ Ĩ
åį±æľº çļĦ
èĻ ļ
èº« ä»½
åģĩ è®¾
çŃ¾ ç½²
Americ a
F inally
i j
at s
åĴĮ ç¾İåĽ½
å°Ĩ åħ¶
åī ¯
ib ly
äºĭ ä¼ļ
å¸¦æĿ¥ äºĨ
æ¢ ¦
ĠPar is
Se cond
re hens
en eral
Ġm ark
çº ¢
um b
ff icient
æıĲ æĮ¯
åŁº åĽł
å¼Ģ æĶ¯
è§Ħ åĪĴ
ord er
åĬ¿ åĬĽ
Ġ200 9
Ġimm igration
Ġindepend ent
Ġwide ly
è Ķ
å¯¹ ä¸ŃåĽ½
Ġag reed
éĤ£ éĩĮ
au c
æĺ¾ èĢĮæĺĵ
Ġ200 7
å¢ŀåĬł äºĨ
Ġaut om
ell ig
Ġcle an
A R
B e
Ġs ound
Ġth inking
Ġh op
äºº åĴĮ
her n
æĪĳ çļĦ
æı Ń
Ġy ield
åīį æīĢ
Ġcomp ared
åıĹ çĽĬ
ä¿¡ è´·
Ġcons ensus
19 8
ç¼º å°ĳ
è´¨ çĸĳ
Ġtarget s
Ġvict ory
m p
åį ĸ
çļĦç Ĭ
du ct
åı¯ä»¥ éĢļè¿ĩ
Ġreg ions
ang u
Ġpers on
Ġaccount s
Ġprec ise
O ther
b ol
o ot
en g
å¯¹ è¯Ŀ
çŃ ĳ
è¶ £
ä¿Ŀ éļľ
æ¬§çĽŁ å§Ķåĳĺä¼ļ
au gh
Ġqu ant
Ġtrad ing
åıĳè¾¾ ç»ıæµİä½ĵ
Ġeng ine
æµģåĬ¨ æĢ§
Ġencoura ge
è® ¢
åĨ Ĵ
å¢ŀ å¼º
æĪĳä»¬ éľĢè¦ģ
Ġpl ac
ll ed
ĠK en
Ġsc en
æĮĩ è´£
ä¸¥ æł¼
å¡ ĳ
Ġgo als
æī¹ åĩĨ
Ġsignificant ly
åıĸå¾Ĺ äºĨ
Ġindividual s
çļĦç¡ ®
v al
ä½ Ľ
Ġsu per
Ġwith draw
å®ļ ä¹ī
çļĦç ĭ
å¤ĸ æ±ĩ
end er
åıĸ ä»£
ç¨ĭ åºı
Ġ19 7
å½±åĵį åĬĽ
ç§° ä¸º
èĥĮ æĻ¯
çļĦ åıį
Ġl ist
å¹´ åĲİ
çĶŁ åŃĺ
çļĦç ½
Ġall ies
åŃ¦ æł¡
éģŃ åĪ°
Ġconst ruction
ĠIslam ic
Ġcru cial
Ġreferend um
re st
er ate
Ġre d
ĠB o
Ġtr ig
åı¸ æ³ķ
åħ· å¤ĩ
Ġsur ve
ç«ŀ éĢī
Ġbig gest
Ġcomple te
Ġiniti ative
æī® æ¼Ķ
a ff
l ight
Ġ 60
çļĦ åĲĮæĹ¶
20 00
Ġen h
çĽ¸ äºĴ
éĩı åĮĸ
Ġ19 8
Ġprov ided
Ġdes crib
éĺ» ç¢į
Ġmembers hip
éģŃ åıĹ
Ġshow s
Ġsuff icient
ä¸Ńå¤® éĵ¶è¡Į
Ġaim ed
Ġprim ary
åľ°ç¼ĺ æĶ¿æ²»
C C
u ct
é ¸
çļĦ éĩĳèŀį
Ġp us
Ġm igration
Ġd raw
æĺ¯ ä¸Ģ
å¾ Ĵ
ä¸ŃåĽ½ æĶ¿åºľ
ä¸ŃåĽ½ é¢Ĩå¯¼äºº
åĲİ èĢħ
è¯´ æ³ķ
ç¼ ħçĶ¸
Ġpart s
ĠL ib
Ġact ions
Ġprov iding
äºĮ æ°§åĮĸ
æŃ¦ è£ħ
æ½ľ åĬĽ
Ġmin im
vention al
Ġmean ing
ç¦ģ æŃ¢
Ġproper ty
Ġvulner able
Ġlegit im
p ar
Ġb ilateral
Ġm ut
çĽ ĺ
pp ing
éķ¿ çļĦ
Ġv acc
ant ic
ĠG o
äºī è®®
Ġexpect ations
Ġdire ction
Ġthough t
éĤ» åĽ½
æ·· ä¹±
é¦Ļ æ¸¯
D S
Ġn or
åŃ ¤
åħ¨ éĥ¨
Ġv ast
å¹³ åı°
Ġcons erv
å·® å¼Ĥ
å¤ĸäº¤ æĶ¿çŃĸ
Ġfall ing
çĽĪ ä½Ļ
è Ľ
Ġt ight
at ically
åľ¨ åħ¶
Ġst able
ä¸ŃåĽ½ ç»ıæµİ
Ġtr ying
åħĭ æŀĹ
çļĦä¸Ģ éĥ¨åĪĨ
çĸĳ éĹ®
æĢĿ ç»´
air s
åł ª
é©± åĬ¨
h ouse
r us
çļĦ è´¢æĶ¿
on y
Ġf ri
Ġf ield
å¾Ĺ åĪ°äºĨ
éĥ½ ä¸į
row th
é«ĺ äºİ
åĲĮæł· çļĦ
èĩ³åħ³ éĩįè¦ģ
C h
ç ŀ
Ġs al
it a
æĺ¯ å¯¹
ĠC ol
å¦ ¥
è¿ĩ äºİ
Ġhe art
æ¯Ķ è¾ĥ
å¼º å¤§
æ¨¡ åŀĭ
æĮĩ æķ°
å¯¼èĩ´ äºĨ
Ġac celer
æĬ¥ éģĵ
Ġdirect ly
Ġcult ural
Ġneighb ors
bo ok
Ġcommod ity
äºĮæ°§åĮĸ ç¢³
B E
Ġn ame
se ctor
è¡ Ĺ
ate ver
con t
Ġinc lus
çļĦç ģ
Ġad ap
Ġ20 00
åıĳçĶŁ äºĨ
Ġthrough out
ater ial
Ġph ys
Ġstep s
Ġpromot e
Ġlat est
åĢĻéĢī äºº
Ġ çļĦ
ä¼ Ł
éĽ ħ
å¸ĥ é²ģ
ä¸ľ çĽŁ
Ġimport ance
çľŁ çļĦ
è¡¡ éĩı
Ġdiffere nce
Ġfac es
Ġappe ar
æ°ĳæĹı ä¸»ä¹ī
Ġemb ra
Ġbord er
Ġult imately
Ġfarm ers
F rom
c ar
c ast
Ġf ront
æĺ¯ ä¸į
ur m
èĩª åĬ¨
æĦ ¤
åħ¬ æĬķ
ful ly
äºĮ æĪĺ
æģĲæĢĸ ä¸»ä¹ī
è·¨ åĽ½
ä¸Ģä½ĵ åĮĸ
éī´ äºİ
Ġm al
èĢ Ĳ
el t
çĽ¸ åĲĮ
ä¸ĸçķĮ çļĦ
è¿ĻäºĽ åĽ½å®¶
åĨħ å®¹
å®ĺ åĥļ
Ġ2 5
Ġpur p
Ġsee king
Ġfac ilit
æĻº åĪ©
Ġconst ra
Ġsec ure
Ġbur den
Ġcommer cial
ĠNA TO
D espite
o y
Ġg ame
åº §
å¤§ åĽ½
Ġor ig
ĠM ed
åħ³ ç¨İ
Ġcont rary
Ġwho le
Ġsupp osed
æ¿Ģ è¿Ľ
Ġseem ed
èĮ ¨
Ġop in
è®° å½ķ
Ġer a
Ġmult ilateral
Ġmin or
çŃĶ æ¡Ī
çļĦç´ §
ä¸İ åħ¶
Ġthere fore
und red
éļı åĲİ
ĠInd ian
ç©º éĹ´
åı¯æĮģç»Ń åıĳå±ķ
Ġchar acter
A I
U S
m en
ç ¯
ul ated
æĬ ±
é¢ ĳ
åı¯ éĿł
Ġen able
åĬł éĢŁ
Ġun f
çĲĨ å¿µ
Ġdis pl
Ġpart ly
æ¸ ¡
é©¬ æĸ¯
åĨį çĶŁ
Ġsa ve
Ġfollow ed
Ġpat tern
ç¤¾ åĮº
éĢļè´§ èĨ¨èĥĢ
4 5
Ġst ory
ĠC ons
å¹´ éĹ´
æ² ¿
reat y
åĲ¯ åĬ¨
æĵį çºµ
çĸ« èĭĹ
Ġge op
Ġrad ical
Ġuncertain ty
p olicy
ä¸į åºĶè¯¥
åħ¶ æ¬¡
å®ŀ éªĮ
and on
å¾Ĺ ä»¥
Ġim bal
æĺİ çĻ½
åıĸ æ¶Ī
éĽ Ħ
Ġcons ist
éĢłæĪĲ äºĨ
Ġarg ued
Ġcult ure
ĠEn g
æĢİ æł·
èĸ ª
Ġscen ar
er ia
Ġc ustom
Ġth ous
Ġn ation
ut ing
è¯ »
å¾Ī åı¯èĥ½
Ġdef ault
Ġcompet itive
æ²Ļ çī¹
Ġmar gin
è®¿ éĹ®
łæĿ Ĩ
o x
Ġb ro
om an
ay s
ĠS en
å°± å¿ħé¡»
æĮģ æľī
å°Ķ å¤ļ
Ġtr uth
èĩ³ äºİ
ç§ĳ åŃ¦å®¶
æ³¢ åħ°
Ġstrateg ies
iqu e
y l
ä¸ °
al ed
Ġre con
Ġsu p
æĽ´ é«ĺ
ĠP ol
è®® éĻ¢
ä¸¤ å¤§
èĪ ŀ
ä¼¦ æ¯Ķäºļ
ĠSe c
åĵ¥ ä¼¦æ¯Ķäºļ
Ġrespons ible
Ġbecom es
Ġrelig ious
Like wise
Ġ "
çļĦ è§ĤçĤ¹
Ġp ush
Ġm and
Ġre ve
se c
ç¾İ æ´²
Ġle aving
æľĢ ä¸º
ä¹ĭ ä¸ĭ
åĪĨ æŃ§
éľ į
Ġab road
Ġsub ject
æĢĿ èĢĥ
èµĦäº§ è´ŁåĢº
Ġlaw s
ç±»ä¼¼ åľ°
Ġnat ure
OR K
IN G
Ġsumm it
åīįæīĢ æľª
n am
o ber
æ ¤
Ġw ind
Ġf aster
Ġm aterial
æĿ łæĿĨ
oc ks
ä¸ĭ åİ»
Ġab andon
Ġpl at
å¼º çĥĪ
ren e
Ġdr ive
Ġunderstand ing
Ġz ero
3 5
çļ ®
Ġc ity
æīĢ éľĢ
é¡ º
iz es
ç»Ł è®¡
å±ķ å¼Ģ
ond on
gan ization
æĳ ĩ
æµĭ è¯ķ
ĠY ORK
èµ° åĲĳ
Ġterror ism
Ġannoun ced
ç»¿ èī²
èµĦäº§è´ŁåĢº è¡¨
g ency
re qu
Ġthe ory
Ġo ption
è¦ģ æĥ³
æĥ ©
å¾Ī å°ĳ
Ġapp arent
Ġprodu ced
Ġimport s
è¶³ ä»¥
èµĦæľ¬ ä¸»ä¹ī
Ġext ent
éŁ ¦
Ġturn ed
Ġlim its
Ġprof ession
Ġstud ents
Ġargu ment
go ing
T r
ä¸ ĥ
çļĦ éķ¿æľŁ
Ġs ens
å® Ŀ
åľ¨ æŃ¤
å®ŀ ä½ĵ
æĹ¶ åĪ»
çĦ¶ åĲİ
ä¸ĸçķĮ ç»ıæµİ
ĠT reaty
Ġpl ans
Ġpolitical ly
Ġcap ita
èİ·å¾Ĺ äºĨ
åĳĬ è¯ī
Ġconc lud
ĠRepublic an
ç»ıåİĨ äºĨ
Ġvol at
Ġtool s
Ġjour nal
ĠMexic o
1 6
Ġw ages
ou ther
åĬ ²
æĹ ħ
å¾ ¡
èĥ½ åĲ¦
Th ough
åĩł ä¸ª
ä¼ł æŁĵ
Ġbu y
åĨľ æĿĳ
Ġser ve
Ġtal ks
å±ŀ äºİ
Ġbar ri
vest ment
Ġmort g
ä¸įå¾Ĺ ä¸į
Ġliquid ity
M B
g n
l s
çļĦ å·¥ä½ľ
Ġw ants
nd er
èµ ĭ
ill ing
æīĢ éľĢè¦ģçļĦ
åĬł ä¸Ĭ
ĠP l
åħĭ æľį
ub l
éĺ¿ å°Ķ
Ġbo ok
Ġauthor ity
ä»Ĭå¤© çļĦ
è¡¨çİ° åĩº
ä¹Ĳ è§Ĥ
é¾ Ļ
Ġpoll ution
rep rene
Ġwee k
an u
å® «
Ġh our
æĪ ª
ig nt
et y
Ġhe re
éĥ½ æľī
ç®¡ åĪ¶
éĢļ ç¼©
ĠUn iversity
int on
é©¬ åħĭ
æ» ĳ
Ġconf ront
ç»´ äºļ
å¤ª éĺ³
Ġins urance
çĭ¬ è£ģ
Ġreflect s
Ġimmed iate
Ġcirc um
I V
L ON
çļĦ åı¯èĥ½æĢ§
ra cies
et her
å¯¹ ç¾İåĽ½
Ġr ural
ä¹ĭ è·¯
è¾ ŀ
åīį çļĦ
Ġcont ext
å¾· éĩĮ
è®º åĿĽ
Ġeff iciency
ĠH ouse
Ġbank ers
ç² ®é£Ł
Ġgo ing
Ġbroad er
Ġsubstant ial
Ġenterpris es
éĨ Ĵ
rehens ive
b ack
çļĦ åīį
Ġs ize
Ġs ides
ä» ¿
åľ¨ åħ¨çĲĥ
as ion
ill ed
å½ ¼
Ġcou p
åįĩ çº§
åĥ µ
éĢĢ ä¼ĳ
Ġur gent
Ġadop t
æ¯«æĹł çĸĳéĹ®
ignt y
1 3
D ON
or ial
ed ly
é¢ ĩ
Ġex ceed
å± Ĭ
Ġ1 2
æĦı è¯ĨåĪ°
ĠJ ohn
ä»į åľ¨
åĽ° å¢ĥ
èĪ ª
ĠSe a
Ġpay ments
Ġcurren cies
Ġadop ted
Ġprospect s
LON DON
C on
Ġ çī¹åĪ«æĺ¯
on ents
Ġp an
Ġp ort
Ġf lex
ar c
æľī æĹ¶
ul ate
Ġex c
th ird
æĥ §
åĿ ¡
è¯´ æĺİ
èĭ±åĽ½ çļĦ
åĮħ å®¹
act ions
Ġact ivity
æīį æĺ¯
hold ers
Ġstand ard
Ġsaf e
Ġborrow ing
Ġexcess ive
åĢ¾ åĲĳ
ĠOr ganization
Ġplat form
Ġt akes
Ġh undred
Ġl ose
Ġl ending
ĠC an
ĠE uro
ĠA t
å¿ į
Ġim ag
os es
Ġcomp rom
çĤ ¸
æĹ¥ ç¨ĭ
çĸ ²
å®ī æİĴ
ĠL ondon
äº§çĶŁ çļĦ
Ġiniti atives
rel ated
Simil arly
outher n
N ot
Ġt ell
çļĦ ä½ľçĶ¨
er ke
Ġc ash
ic ro
è¯ ±
Ġr ange
ort hern
æīĢ å¸¦æĿ¥çļĦ
ç»ĵ è®º
Ġtrans formation
ä¸¾ æİª
Ġredu ction
æĴ ĳ
å®£ ç§°
Ġhapp en
Ġagricult ure
åŁ¹ è®Ń
åĩ¯ æģ©
ĠSec retary
â Ĥ
æŃ Į
åı¯ åĨįçĶŁ
æĪĲ æŀľ
am b
ĠI t
Ġint ellig
çĲĨ æĥ³
çļĦç ¼
è¯´ æľį
Ġdef lation
ä¼ł æĴŃ
On ly
æ¸ħ æ´
Ġcall s
por ary
Ġspec ific
Ġhistor ical
è¯¸ å¤ļ
O ver
P er
R e
l if
Ã ¡
Ġd ict
åĴĮ éĩĳèŀį
å®ŀ è¡Į
çī Į
Ġfin al
è®¤ è¯Ĩ
Ġadv oc
Ġelect ed
å°Ĭ éĩį
f ect
ent h
Ġl ot
è¿Ļ æ¬¡
èµ ¶
ch ing
å¯¹ æĬĹ
æĪĲ å°±
us ion
æķ´ ä½ĵ
ove mber
itt ee
åįĹ éĿŀ
Ġcar ry
æ¸© åĴĮ
Ġcaus es
Ġear lier
cent ury
Ġdiplom atic
lev ant
SE AN
Ġcompetit iveness
Ġprecise ly
Ġh y
å¹ ķ
Ġl og
åħ¨ æ°ĳ
Ġwor ry
èĢħ ä»¬
æĦı æĦ¿
Ġcomp ar
æį į
åĩł å¹´
201 7
It s
å½¢ åĬ¿
Ġass istance
Ġbu ilt
Ġregul ations
Ġeas ing
Ġchang ed
è¶³å¤Ł çļĦ
è¿Ŀ çº¦
âĤ ¬
A S
Ġp ubl
or b
çĽ ¾
æľī äºĨ
Ġst agn
ain s
Ġsh own
åĿ Ĺ
åĽłä¸º å®ĥ
åĲĦ åľ°
å°½ç®¡ å¦ĤæŃ¤
åĽ¢ ä½ĵ
Ġimpro ving
Ġreven ues
æĬĳ åĪ¶
m ar
Ġt y
is c
il ies
äºº å·¥
æĬ Ľ
lo ok
çī ²
æĽ´ ä¸į
oc ial
ĠP h
èį ·
æĭħ ä»»
Ġdep os
Ġpopul ist
Ġdemand s
Ġprom ise
Ġagree ments
Ġmeas ure
ä¿ĥ ä½¿
Ġaddress ing
Ġeas ily
ec ause
æĸ°åħ´ ç»ıæµİä½ĵ
æ¯« ä¸į
Ġscient ific
Ġsubsid ies
u ine
çļĦ æľªæĿ¥
åı ¶
Ġm igrants
le ments
st ate
åħ¨ åĽ½
çĶŁ æĢģ
äº§ åĩº
è¿ĺ æ²¡æľī
ĠN ovember
ĠK e
é¢Ħ éĺ²
stit ute
è¿Ļä¸ª éĹ®é¢ĺ
GDP å¢ŀéķ¿
Ġsol id
ä¸ĵ ä¸ļ
è¿Ļæĺ¯ ä¸Ģä¸ª
åĢŁ è´·
åıĺå¾Ĺ æĽ´åĬł
å·¦ ç¿¼
Ġblo ck
Ġsovere ignty
æĮī çħ§
åĨ· æĪĺ
kn ow
Ġlegitim acy
æ¤ į
æįį åį«
D e
çļĦ æĶ¹éĿ©
åħ µ
å° Ŀ
åħ¶ å®ĥ
Ġne ither
ä¸» å¼ł
and a
åĬ¨ åĬĽ
Ġen orm
ure auc
æĶ¿åºľ åĴĮ
Ġ1 1
Ġfin ally
çĶ± æŃ¤
ä½İ çļĦ
Ġ201 7
Ġcontrib ute
Ġachie ved
C E
re ced
æĿ °
åıĳ çĶµ
um m
è¾ ĳ
äº§ éĺ¶çº§
è¿ĺ ä¼ļ
åıĳçĶŁ çļĦ
cal e
æ·± åĪ»
è´« ç©·
çĶŁæ´» åľ¨
ä¸įåı¯ éģ¿åħį
Ġdr iven
Ġfuel s
Ġpract ices
åĪļ åĪļ
æ£® æŀĹ
rec iation
Ġagricult ural
åĸľ æ¬¢
éĩıåĮĸ å®½æĿ¾
å¦¥ åįı
I P
æĪ ı
ap ital
çī¹ å¾ģ
å¤± è¡¡
Ġsp ent
å¼ķ åħ¥
Ġimpro ved
Ġallow ing
Ġhapp ened
Ġappe ars
Ġsaf ety
reced ented
Ġl angu
äºĨ è¿Ļä¸Ģ
et he
Ġst ructure
ir ing
ä½Ĩ å®ĥ
ĠA b
ac ific
ac hes
ĠT rade
Ġtr y
ç»Ļ äºĪ
itt ing
Ġslow down
ĠRepublic ans
Ġdise ases
åľ¨è¿Ļ æĸ¹éĿ¢
b ank
v ail
Ġp aid
è¿ ģ
ä¸į ä¹ħ
çİ ĭ
Ġcon duct
è¡Į éķ¿
ä¹ĭ å¤Ħ
Ġy our
Ġpolic e
Ġme ant
å»º çŃĳ
Ġany thing
Ġprov ides
Ġfact or
fere nce
éģŃ éģĩ
Ġunp recedented
Ġestim ated
æ¾ ³
åħĭæŀĹ é¡¿
erke l
l antic
y an
Ġst abil
ĠE x
çİ° éĩĳ
èµ· åĪ°
ĠJ une
Ġsp end
Ġprodu c
çļĦäºº åı£
ruct uring
åįĩ åĢ¼
ä¸ĩ äºº
Ġent reprene
æĦŁ è§ī
Ġplan et
Ġfam ilies
çļĦçł ´
Ġdeath s
Ġmere ly
æıı è¿°
Cons ider
I nt
i able
s cale
u pp
Ġin form
åı Ľ
il es
åľ¨ è¿Ļä¸ª
ce mber
ul l
ĠA ss
åī Ĥ
çİ° çĬ¶
Ġse par
å¥ ĳ
åı¯èĥ½ æĺ¯
æĺİ æĻº
çĭ Ĥ
Ġob lig
Ġconc ent
åı¦ å¤ĸ
ĠCl inton
Ġelectric ity
re land
Ġw age
Ġh it
è¿Ļ ä¹Ī
Ġon line
èµĦ æł¼
è¢« è§Ĩä¸º
èĦ ļ
Ġac qu
é» Ħ
å·¨ é¢Ŀ
éĩĩåıĸ è¡ĮåĬ¨
æľįåĬ¡ ä¸ļ
Ġregul ators
Ġconsider able
Ġspe ech
Ġgeop olitical
åĩ¯æģ© æĸ¯
d ed
l ar
y ch
it ig
Ġb ureauc
Ġh ur
id ency
ä¼ļ åľ¨
å¯¹ å¾ħ
åıĳ åĬ¨
æľĢ éĩįè¦ģçļĦ
op s
ĠM a
æĪĳä»¬ åı¯ä»¥
æĦı è§ģ
æŀĦ æĪĲ
æ°Ķ ä½ĵ
Ġra ising
èĩªçĶ± è´¸æĺĵ
æľªæĿ¥ çļĦ
åĮ» çĶŁ
åįł æį®
ç¼ĵ æħ¢
yn es
å¹¸ è¿Ĳ
Ġrece ived
Ġexpert s
å¸ĥé²ģ å¡ŀå°Ķ
r ich
Ġw ent
se e
æĬ ĵ
å°± åı¯ä»¥
åºĶ çĶ¨
é«ĺ åº¦
Ġpr ime
Ġadv ance
ĠDe cember
Ġpres ent
com es
com ing
é»ĺ åħĭå°Ķ
Ġperm an
r ative
Ġ æ¯Ķå¦Ĥ
ä» ĭ
éĻ Ħ
ĠS ing
Ġwe l
çļĦç ĸ
éĥ¨ éĺŁ
Ġ1 00
æĶ¯ æĴĳ
å¼º åĬ²
è¥¿ æ´ĭ
200 5
Ġ200 1
çĶµ è§Ĩ
ĠEast ern
æĹ© å·²
éĶĻè¯¯ çļĦ
Ġsomet imes
Ġscient ists
Ġopt im
Ġtem per
Ġreven ue
Ġnar row
ĠPalestin ian
åı¥ è¯Ŀ
Ġmacro economic
m ark
p ay
u gh
çļĦ å¸Ĥåľº
çļĦ æł¸å¿ĥ
it ative
ä» °
Ġp un
or ks
è¿Ļ å°Ĩ
æĭ ¯
ist ics
if ying
ç« Ń
éĹ®é¢ĺ æĺ¯
ĠW e
è®® åĳĺ
Ġqu arter
Ġrem ark
æµ· å¤ĸ
stand ing
Ġrun ning
Ġopin ion
å°Ŀ è¯ķ
L ast
Ġm ach
å¤ ı
å° Ħ
ä¸Ń äº§éĺ¶çº§
ot e
æĿ¥ çľĭ
çĶ¨ æĿ¥
ä¸İ ç¾İåĽ½
ĠM ac
éļ Ķ
ris is
è¡¨ è¾¾
æ¡ ĳ
Ġsp ur
own ed
ä¼Ĺ å¤ļ
Ġposs ibility
ĠY ork
Ġconflic ts
ĠCl imate
Ġprincip le
Ġdesign ed
å®ıè§Ĥ ç»ıæµİ
çĻĮ çĹĩ
Ġassoc iated
p read
© åĽº
Ġ è¿Ļä¸Ģ
åĽ½ éĺ²
Ġde ad
å· ©åĽº
çļĦç ²
Ġtra ining
ace book
Ġac know
çĥ ¦
Ġresult ing
Ġequ al
æĬµ åĪ¶
ides pread
ä¼Ļä¼´ åħ³ç³»
å¾ª çİ¯
Ġconn ect
å¤ªéĺ³ èĥ½
æĭ¯ æķĳ
b les
Ġ åį³
Ġ âĤ¬
Ġf ell
ä¹ Ķ
Ġex ception
æľĢ æĸ°
ust ral
Ġwor st
åĿ Ĳ
Ġconf ere
æģĲ æĥ§
å®£ ä¼ł
æıĲåĩº äºĨ
èģĮ ä¸ļ
het or
çļĦçĬ ¶
S h
Ġp ack
Ġb ail
Ġb att
åĽ½ å¤ĸ
el lect
éĿŀ æ³ķ
Ġman ip
uc k
åŃĺ æ¬¾
åĽŀ å½Ĵ
Ġcommun ic
Ġstart ed
Ġchang ing
å¥ĩ æĢª
Ġoper ations
çĬ¯ ç½ª
Ġprincip les
è¦Ĩ çĽĸ
è¾© è®º
å¸Ŀ åĽ½
Ġbarri ers
T w
T ON
g overn
i ra
çļĦ è¡Įä¸º
åħ Ħ
Ġre le
å¤§ åŀĭ
ĠC o
æ´ ŀ
Ġr hetor
æĽ´ æľī
ä¹ĭ æīĢä»¥
Ġinc omes
Ġun able
æķ° çĻ¾ä¸ĩ
è· µ
å¼º åĪ¶
Ġhelp ing
è¾¹ ç¼ĺ
Ġsustain ed
Ġreturn s
çłĶ åıĳ
Ġcircum st
B oth
h ib
ä¸ Ŀ
äºº åĿĩ
æī ¬
ĠS aud
am es
åħ¨çĲĥ åıĺæļĸ
Ġcons olid
Ġcap t
av es
æī¿ åıĹ
ç»´ æĬ¤
æ® Ĭ
Ġdep loy
Ġgreat est
ç´§ å¼ł
äºĴ çĽ¸
æįŁ å®³
çķĻ åľ¨
Ġstreng th
Ġdepend s
Ġocc up
Ġdest ro
Ġclos er
Ġtas k
æĥ© ç½ļ
æ¾³ å¤§
C S
E N
P P
f all
Ľ çĽ¾
Ġw idespread
ic ip
åĬ £
æĺ¯ ä¸Ģç§į
ä¸į åıĹ
æĿ ¿
å¤§ è¥¿æ´ĭ
Ġst ake
ä¹Ł æĹłæ³ķ
æ³ķ åºŃ
Th us
ĠW h
Ġdis m
å·²ç»ı åľ¨
å¼º ç¡¬
éĩĳèŀį æľºæŀĦ
Ġpre vail
ĠH am
Ġra re
200 1
è¿Ľè¡Į äºĨ
Ġdebt s
åĽŀ åĪ°
Ġremain ed
çĽ®åīį çļĦ
Ġhig hest
æıĲåĩº çļĦ
Ġmet h
ç ĺ
in ary
Ġb ound
Ġe c
ä¼ Ĳ
åį ·
ç»ı èĲ¥
Ġpro ve
ĠE conom
åŃ Ł
åıĳ è¡Į
Ġen j
å®ļ çļĦ
ç»ĵ åĲĪ
200 6
19 90
Ġadd ition
çĽ®åīį ä¸ºæŃ¢
Ġins ist
åį±éĻ© çļĦ
Ġdou ble
Ġamount s
Per haps
æ¾³å¤§ åĪ©äºļ
p ri
s c
in et
ä¸Ģ èĪ¬
ab les
æĢ§ åĪ«
ia gn
Ġcomp rehensive
Ġman aged
è´§å¸ģ èģĶçĽŁ
Ġfore cast
not her
Ġmed ical
æĬµ æĬ¼
Ġtreat y
ĠPar liament
Ġtransp ort
Ġrat io
Ġmess age
Ġthous ands
B ecause
l ied
Ġ å¹¶
Ġb an
å® ľ
ä¸Ģ èµ·
ra ction
ä»¥ åīį
The ir
ä½Ĩ æĪĳä»¬
å¥ ĭ
éĩį å»º
ĠM erkel
åıĹ å®³
ä»» æľŁ
åĲĦ èĩª
Ġsupport ed
æĪĲåĬŁ çļĦ
ĠCh ile
Ġinst ru
æ¸© å®¤
Ġentire ly
Ġvict im
ĠDemoc rats
Ġpartners hip
Ġcollect ive
Ġlaun ched
r imin
Ġt ro
Ġd er
Ġe ight
Ġl ies
Ġg iving
éĢ ģ
æĽ´ é«ĺçļĦ
Ġeconom ist
æĦ Ī
éĥ½ å°Ĩ
Ġout comes
low s
ä¼ģä¸ļ çļĦ
å½¢ æĢģ
ç©¶ ç«Ł
çĪ ¶
Ġdemoc racies
Ġrest rict
Ġprom ises
åİŁåĽł æĺ¯
Ġinst ability
Ġgener ate
è¯Ń è¨Ģ
åıįæĺł äºĨ
è¯ļ çĦ¶
æķħ äºĭ
ashing ton
ij ing
Ġadap t
ethe less
Ġcircumst ances
H is
çļĦ æķ°æį®
ä¸Ń æīĢ
ä¸º åŁºç¡Ģ
ĠA d
Ġsu m
æľ¬ åľ°
æĥ ł
åĬł åĿ¡
end it
Ġdis rupt
å¿ĥ çĲĨ
æ» ¥
åĲĮæĹ¶ ä¹Ł
ç¨³å®ļ çļĦ
Ġes c
Ġcontrol s
Ġfight ing
Ġschool s
æİĮ æı¡
äººå·¥ æĻºèĥ½
E L
a res
r id
w an
en n
ä» ĩ
Ġp ace
Ġf unction
ä¸į æĦ¿
åĬł æĭī
ä½ĵ çİ°
Ġag encies
ank s
è¾¾ åĪ°äºĨ
èĲ İ
åħļ æ´¾
Ġte am
Ġcapital ism
Ġins p
Ġthreat s
Ġview ed
Ġcho ose
Ġimplement ed
Ġfunda ment
å¾Īå¤§ ç¨ĭåº¦ä¸Ĭ
éķĩ åİĭ
Ġplac es
A d
A nother
D R
æľī ä¸Ģä¸ª
ĠM al
èĥ ¡
åĮħ åĲ«
æŀģ å¤§
æĮĩ å¯¼
çļĦç»ıæµİ å¢ŀéķ¿
Ġend ed
çº³ å¾·
Ġrest ructuring
äº¿ç¾İåħĥ çļĦ
è¯Ħ è®º
çī¹åĪ«æĺ¯ åľ¨
æģ° æģ°
Ġstrengthen ing
Ġcr imin
Ġstrugg le
ĠGeor ge
å»ī ä»·
æĦ¤ æĢĴ
åı¯åĨįçĶŁ èĥ½æºĲ
at ures
åľ¨ ä¸Ģä¸ª
æĸ ¥
ra y
ä»¥ åĲİ
ĠS ch
çº ¯
çº ¸
Ġwe lf
um an
Ġint ellect
ĠF inancial
æķ° åįģ
ide red
Ġsp ir
æµ· æ´ĭ
Ġappro pri
Ġproduct ive
Ġbel ief
åĲĦåĽ½ æĶ¿åºľ
æĹ© æľŁ
ç§ģäºº éĥ¨éĹ¨
Ġrece ive
è´Ŀ å°Ķ
Ġunivers al
Ġexec ut
O r
f uel
Ġ vers
Ġf requ
Ġm er
å° ģ
æĺ¯ ç¾İåĽ½
åĴĮ ä¸ŃåĽ½
ĠI reland
Ġun less
è¿Ļä¸Ģ çĽ®æłĩ
Ġexp endit
ĠD av
Ġcons idered
ĠH ar
åĩĨ ç¡®
iet nam
åİĨåı² ä¸Ĭ
ä»ĺ åĩº
åĢŁ æ¬¾
Americ an
Ġlear n
Ġestim ates
Ġscenar io
Ġh ar
ä¸į åĪ©
ä¸į å¤Ł
ä¸į å¤ª
lo s
å°Ĩ ç»§ç»Ń
ke pt
ĠB RI
æĸ¯ çī¹
è° ¨
è¢« è®¤ä¸º
Ġsp ace
Ġ19 70
æŀģ ä¸º
ä¸ľ äºļ
åħ¬åı¸ çļĦ
ç»Ŀ å¯¹
èĦ± ç¦»
Ġeas ier
ĠIsrael i
èĳĹ åĲį
å±ħ æ°ĳ
çĳŀ æĭī
Ġmov ing
Ġtrend s
Ġintellig ence
èį· åħ°
Ġenorm ous
Ġwelf are
A f
n ic
r un
çļĦ æī¿è¯º
Ġm ention
æĺ ¥
ur b
å¼ Ł
ĠA SEAN
ĠA ustral
çŃ ¹
æĸ° åĬłåĿ¡
æ¯Ķ çİĩ
è½ ¨
å°Ķ å¾·
åĨħ çĳŀæĭī
og ue
è®© äºº
åįı åĬ©
æĿ¡ æ¬¾
Ġany one
Ġwar s
è¾¹ çķĮ
æħ Į
æ¼ «
å§Ķ åĨħçĳŀæĭī
Ġview s
å½ĵåīį çļĦ
ys is
Ġrefuge e
Ġlegis lation
ĠPe ople
Ġexperien ced
Ġrhetor ic
g en
s on
Ġ 80
Ġt ack
Ġl ight
åĴĮ æĬķèµĦ
ä»¥ æŃ¤
ä½Ĩ ä»ĸä»¬
æīĢ åľ¨
Ġse ll
æĥ ĳ
åĬł æĭ¿
ĠG eneral
åĨ³ å¿ĥ
çī¹ æ®Ĭ
æ¸ ´
reas ury
ĠJ u
Ġper cent
çľĭ èµ·æĿ¥
Ġ200 5
çĶµ åĬĽ
Ġevery where
Ġpres idency
wh ich
Ġvis it
Ġdrug s
i os
y le
º çī²
Ġs outhern
Ġw a
ä¸Ń æľŁ
Ġst em
è¦ģ æ¯Ķ
å¿ ĺ
çī ºçī²
è¿ĩ åī©
ĠG u
Ġun w
ip her
å®ī åĢį
ach ing
Ġra ised
Ġdef e
è¶ħ çº§
ç»Ŀ éĿŀ
Ġsuff er
å®¢ æĪ·
Ġabs ence
åľ¨ä¸Ģ èµ·
J ust
w hel
çļĦ åľ°åĮº
è¿Ļ å°±æĺ¯
ĠC old
æ´ ¥
æŀ ª
Ġse ven
äº§ éĩı
è¿ĺ éľĢè¦ģ
æ¸ ł
è¶Ĭ åįĹ
åĩı éĢŁ
æĶ¹éĿ© çļĦ
ĠCh rist
ç¿ °
Ġweak ness
ĠRe volution
ĠGree k
å·¥ä¸ļ åĮĸ
Ġunderm ine
å°ļ æľª
ĠCommun ist
Ġorig in
æ¸©å®¤ æ°Ķä½ĵ
o z
çļĦ å¯¹
ar ia
æĺ¯ å¦ĤæŃ¤
è® ¯
äºº æķ°
ä¸Ń éĹ´
æķ ı
20 20
ä½Ĩ è¿ĻäºĽ
åĩº äºİ
æ³ķ æ¡Ī
Ġor d
çĤ Ń
æµģ åħ¥
ade qu
Ġ200 6
Ġgen uine
èĳ ¡
Ġcoal ition
åĲĪæ³ķ æĢ§
Ġterrit orial
çĬ¹ å¤ª
çĹĽ èĭ¦
æ¸ł éģĵ
2 3
v iew
re et
al ing
Ġd rop
è¿Ļ ä¸¤
Ġcon cept
çļĦç Ĺ
åħ¥ ä¾µ
Ġ( $
Ġother wise
ä½İ æĶ¶åħ¥
ç»Ħ åĲĪ
Ġqu ite
æľĪ ä»½
Ġjust ice
ict ion
ron ic
åĶ Ĳ
Ġpers pect
è®° èĢħ
èį¯ çī©
Ġsmall er
Ġobject ives
Ġdynam ic
Ġinev itable
Ġrob ust
Ġrepe ated
f lation
çļĦ éĵ¶è¡Į
çļĦ è®¡åĪĴ
ï¼ į
Ġp en
èĢ ¶
ĠC al
ç¾İåĽ½ ç»ıæµİ
od e
Ġint ens
Ġres ist
ĠW ashington
ç»ĵ æł¸
èĲ Ħ
æķ´ åĲĪ
åıĤ åĬł
ä¹Łæĺ¯ å¦ĤæŃ¤
äºĶ å¹´
éĩĬ æĶ¾
Ġcomb ined
Ġinvol ved
Ġadjust ment
anu ary
èĳ¡ èĲĦ
Ġre vers
ä¸Ģ å¹´
Ġg l
Ġwh om
åħ¬ çº¦
Ġad equ
æ¶ Į
è®® ç¨ĭ
å·²ç»ı å¼Ģå§ĭ
æĭī ä¸ģ
çº¦ ç¿°
Ġwork ed
Ġoff ers
æĳ §
Ġprof its
Ġdeep ly
åł ¡
ĠDemoc ratic
Ġhundred s
æ¸ħæ´ ģ
. )
h ic
Ġ ä»İ
Ġis ol
æĿ Ĳ
Ġal loc
Ġen force
åıĺ æĪĲ
ä¹ī åĬ¡
Ġover whel
æĬķèµĦ äºİ
è¿ĳ æľŁ
ĠK ong
Ġpre m
æ°ĳä¸» åĽ½å®¶
éĩĩåıĸ äºĨ
æī© æķ£
Ġsol ar
Ġdecl ared
Ġmed ium
ĠV ietnam
Ġens uring
å¥¹ ä»¬
Ġdr iving
ai wan
åĬ³åĬ¨åĬĽ å¸Ĥåľº
Ġhim self
æ¶ī åıĬ
Ġask ed
è¯Ĭ æĸŃ
å°Ķå¤ļ å®ī
P ro
Ä Ł
Ġt ensions
çļĦ æĬĢæľ¯
çļĦ æĹ¶éĹ´
çļĦ æĪĺçķ¥
Ġs en
Ġs qu
it ter
Ġw ast
åħ ¼
åľ¨ ç»ıæµİ
ä¸Ģ çĤ¹
è¯ ¾
ĠC O
ä»ĸ åľ¨
ä¹Ł åºĶè¯¥
Ġcomp ut
Ġcomp lic
Ġdis aster
ris on
ĠJ anuary
Ġmost ly
Ġacc omp
ä½į äºİ
æ¶Ī å¤±
æ¡ ¥
Ġrem ov
æīĢæľī äºº
Ġtrans fer
é¦ĸ æ¬¡
Ġgo es
ç¼º éĻ·
Ġevery thing
åŁĥ å°Ķå¤ļå®ī
Ġplay ed
Ġget ting
åįļ æĭī
ĠBe ijing
çļĦçĭ ¬
Ġ 70
Ġa ware
çļĦ åĶ¯ä¸Ģ
Ġb ott
le vel
Ġl ines
éĢ »
å¹´ åº¦
è¦ģ ç´ł
ore s
ä¸ļ åĬ¡
ĠB ro
æĸ¯ ç§ĳ
äº§ èĥ½
åĪĨ ä¹ĭ
éľ ¸
Ġimp lies
Ġres ource
Th ose
Ġdec ided
ĠH IV
åĩł ä¸ªæľĪ
Ġown ers
Wh y
Ġcred ibility
Ġdiffere nces
åŁĥ åįļæĭī
Ġcredit ors
Ġhand s
RI DG
çĳŀ åħ¸
Ġprior ity
CA MB
åı¬ å¼Ģ
Ġbub ble
itud e
Ġcorre ct
ä¸įä»ħä»ħ æĺ¯
Ġimbal ances
RIDG E
CAMB RIDGE
E x
R us
m ore
Ġ å¦Ĥ
çļĦ çİ¯å¢ĥ
çļĦ åľ°æĸ¹
it ation
Ġin adequ
ä¸Ģ ç³»åĪĹ
Ġon going
us es
æŃ¤ åīį
Ġres il
å¿ħ çĦ¶
åĳĺ å·¥
æłĩ å¿Ĺ
çł ĸ
Ġper ipher
Ġar ms
åĤ ¬
åĲį ä¹ī
äººä»¬ å¯¹
Ġaff airs
çŁŃ ç¼º
èĤ¯ å°¼äºļ
æį¢ åı¥è¯Ŀ
ä¿® æŃ£
Ġpromot ing
Tr ump
ĠSaud i
G overn
d den
u k
in ent
çļĦ æİªæĸ½
çļĦ éľĢæ±Ĥ
ä¸į è¦ģ
Ġfor ms
Ġst age
ad a
æł ĳ
æµ ®
ĠC our
åĢ ¡
Ġse x
çĶŁ ç´ł
ä½ľ åĩº
Ġcomp l
Ġcomp ens
è§£ æĶ¾
èĥ ŀ
è®© ä»ĸä»¬
å®ŀçİ° äºĨ
å£ ģ
Ġless on
Ġless ons
ene z
Ġinclud es
çº³ åħ¥
æ²¹ ä»·
Ġhard ly
Ġcoll abor
åĲ¸å¼ķ åĬĽ
Ġvar ious
Ġsharp ly
æĦıè¯Ĩ å½¢æĢģ
Ġpoore st
ç £
çļĦ åĬªåĬĽ
æĺ¯ ä¸ª
èĥ½ åľ¨
ä¿ Ĺ
ant ly
é«ĺ çº§
æĹł çĸĳ
æĻ ļ
ä»» åĳ½
Ġdis s
æŁ ı
Ġdevelop ments
Ġpre fer
int s
æĦ¿ æĻ¯
ç¦» å¼Ģ
äº§çĶŁ äºĨ
Ġpers ist
ä¸įç¡®å®ļ æĢ§
æļĤ æĹ¶
åĬłæĭ¿ å¤§
3 00
B O
W he
p in
çļĦ åĢºåĬ¡
Ġf allen
Ġd ue
ä½Ĩ è¿Ļä¸Ģ
od s
ä¸ĭ æĿ¥
æĶ¿æ²» å®¶
Ġprov ed
Ġpopul ations
ç´§ å¯Ĩ
Ġfac ed
Ġgener ally
Ġcol le
Ġterror ist
å¿½ çķ¥
åı¦ä¸Ģ æĸ¹éĿ¢
Ġarr ange
Ġdistrib ution
Ġminist ers
Ġintellect ual
enez uel
çļĦ é¢Ĩå¯¼
Ġbe g
ra ft
æ³ķ æ²»
ĠB l
åħ¬ æŃ£
ĠT aiwan
are n
ĠH ong
Ġper ce
æĶ¾ åľ¨
åı° æ¹¾
æĬĹ è®®
ä½ı æĪ¿
Ġfear s
è¿Ŀ åıį
Ġexpand ing
Ġdiplom acy
æ³¨æĦı åĬĽ
Ġimplic ations
car bon
G erm
it z
Ġb ase
Ġe y
æĭ Ľ
å®ŀ è·µ
Ġle verage
å°± åľ¨
ast ro
Ġres istance
Ġj oint
Ġtr ial
Ġover come
è¶ħ è¶Ĭ
Ġob st
æ¼ ı
è¯ķ éªĮ
çī¹æľĹæĻ® çļĦ
Ġtar iff
Ġpotential ly
Ġmult ip
ç©· äºº
åĵª äºĽ
æĵį ä½ľ
Ġopt ions
è¿¹ è±¡
Ġgreen house
å© ļ
ĠHe alth
åĽ½æľī ä¼ģä¸ļ
Ġtyp ically
augh t
åħĦ å¼Ł
e v
f ers
r do
Ġ round
çļĦ å¨ģèĥģ
en h
Ġm ount
å° ĸ
ĠP ort
ĠM arch
Ġtr ied
ĠD C
Ġro ot
Ġfir m
è®¸å¤ļ åĽ½å®¶
åŀ Ĵ
éļı ä¹ĭ
iet h
åħ´ è¶£
Ġmain ly
é¥ ±
ĠKe ynes
ÄŁ an
rdo ÄŁan
g ain
l ong
çļĦ èµĦéĩĳ
er y
Ġs ought
åĽ Ń
Ġh or
Ġre b
ct ober
Ġst ay
ä»¥ å¾Ģ
Ġsu dden
ç»ıæµİ åıĳå±ķ
æ¯ Ľ
ĠB ut
æĥ ¨
éĥ½ æ²¡æľī
ff ect
æĹł äºº
åĲĪ ç»Ħç»ĩ
åŃ¦ éĻ¢
Ġexp ensive
æĭī ç¾İ
åĽŀ çŃĶ
éĻĲ äºİ
éħ ·
Ġcut ting
ĠPart ners
Ġpat ients
Ġspe ak
Ġbl ame
Ġpract ice
Ġpropos al
Ġmechanism s
éĺµ èĲ¥
E s
e enth
in ks
çļĦ åıĺåĮĸ
åı «
ä¸Ģ å¼Ģå§ĭ
ä¸Ģ åįĬ
Ġsu sp
è¿ĩ æ¸¡
åĬ¨ çī©
éĩĳ çłĸ
çĽ¸ ä¼¼
å¯¼ åĲĳ
å¯¼ å¼¹
å¦Ĥæŀľ æĪĳä»¬
Ġacc um
æľĪ çļĦ
ç»Ļ äºĨ
Ġus ually
Ġact ors
Ġfore st
è¨Ģ ä¹ĭ
åĽŀ åºĶ
Ġemer ged
Ġstand s
Ġform al
Ġinnov ative
Ġorgan ization
Ġcommit ments
Ġtal k
Ġestablish ment
Ġguarant ee
Ġheav ily
åħ±äº§ åħļ
åŃ£ åº¦
æīŃ æĽ²
Ġhour s
èĳ¡èĲĦ çīĻ
ĠCour t
E CD
R ather
f ense
n s
al le
Ġto ld
Ġd ro
Ġd imin
Ġe p
ç» ĥ
as ing
Ġg one
åĨ °
Ġst ead
Ġex act
æ¯Ķ éĩį
Ġro om
ĠO ctober
åĲ¦ è®¤
sel s
Ġass ert
æģĲ æħĮ
ä¼ĺ åħĪ
èı Į
åħ±åĴĮ åĽ½
å¼Ģåıĳ éĵ¶è¡Į
Ġresol ve
Ġrein for
éº» çĥ¦
Ġhop es
Ġentreprene urs
æĭīä¸ģ ç¾İæ´²
a ut
Ġ ut
çļĦ è¡ĮåĬ¨
çļĦ åħ¬åħ±
Ġre ly
åľ¨ è¿Ļä¸Ģ
æĢ ¨
ä¸ª ä½ĵ
åĮĸ ä¸º
å½ĵ ä¸Ń
ĠM an
ru d
æĿĥ çļĦ
Ġreg imes
Ġbank rupt
äº¤ éĢļ
æİ¨ è¡Į
Ġdef end
Ġtechn ical
Ġprof ound
æĬµ æ¶Ī
Ġdev ast
Ġobject ive
Ġparticip ation
Ġjo in
bu ild
åŃ¤ ç«ĭ
Ġvolat ility
Ġlangu age
Ġconfere nce
2 4
D uring
p ing
p et
çļĦ çĶŁæ´»
çļĦ æĸ¹æ³ķ
it ious
Ġd iagn
ä¸Ģ ä¸ĭ
åĲ ĥ
id ers
The n
å¦ Ļ
am er
æĥ ¯
éĥ½ è¦ģ
çĲĨ äºĭä¼ļ
çĽ® çļĦæĺ¯
Ġpart ner
ag ue
çŁ ĽçĽ¾
è· ĥ
Ġconf ron
Ġoff ered
åŃĺåľ¨ çļĦ
ä¸įåı¯ æĮģç»Ń
åĵĪ é©¬æĸ¯
Ġauthor itarian
å£° ç§°
åŁºç¡Ģè®¾æĸ½ æĬķèµĦ
éĻ·åħ¥ äºĨ
Ġobs er
Ġve hic
çļĦç© º
Ġpercent age
Ġt ies
he ast
Ġs il
å¹ »
è® ½
Ġg ender
å· §
æ´ ª
æķ ¢
åĩº åĶ®
Ġun ique
æ¬§çĽŁ æĪĲåĳĺåĽ½
èĩ³ ä»Ĭ
æĥ³ æ³ķ
é©¬ éĩĮ
å°¼ æĹ¥
Ġ200 4
åĭ ĩ
åŁºéĩĳ ä¼ļ
åį³ä½¿ æĺ¯
å³ »
åģ¿ è¿ĺ
Ġagg reg
çģµ æ´»
Ġvirt ually
åŃŁ åĬłæĭī
è°¨ æħİ
çļĦ åĪ©çĽĬ
ç» ¼
åĴĮ æľįåĬ¡
æ¬ ²
ĠA nd
if t
Ġv o
Ġch ann
çļĦç Ī
Ġ20 20
åŁº åľ°
Ġrec omm
Ġup on
200 4
Ġco ordin
çī© ä»·
Ġcred ible
Ġmed ic
Ġimm igrants
Ġche ap
Ġcy cle
Ġheav y
çħ¤ çĤŃ
Ġmot iv
aren cy
n ings
Ġs old
Ġm or
ä¸Ģ æĿ¡
æĪ Ī
åº ĩ
å¤§ ä¼ļ
åı¯ ä¿¡
ä¸Ĭ åİ»
ä¹ĭ ä¸º
ap ore
éģ ¥
åı¯èĥ½ å¯¼èĩ´
Ġwhe reas
ag er
Ġpl ed
è®¤ çľŁ
èº« ä¸Ĭ
èİ· çĽĬ
è´¹ çĶ¨
æ°ĳä¸» çļĦ
äº¿ æ¬§åħĥ
Ġac ad
æĶ¶åħ¥ çļĦ
æīĵ çł´
Ġuse ful
é¢Ŀ å¤ĸ
ä»įçĦ¶ æĺ¯
åıįå¯¹ æ´¾
å¯Ĩ éĽĨ
Ġinvol ve
Ġpurp ose
æį¢åı¥è¯Ŀ è¯´
s ych
Ġs pect
Ġb ul
æľ ĭ
le t
Ġre levant
et h
ç»ı åĲĪç»Ħç»ĩ
åħ¶ åľ¨
ial ogue
åĪ° çĽ®åīįä¸ºæŃ¢
Ġwork s
Ġapp oint
æĮĩ æİ§
ç¬¬ ä¸Ģä¸ª
è± ª
ç»Ī äºİ
çº³ ç¨İ
Ġstart ers
åľ°æĸ¹ æĶ¿åºľ
èŃ¦ å¯Ł
Ġsuff ering
æĢİ ä¹Ī
Ġeth nic
Ġmist ake
éĢĨ è½¬
æ¸´ æľĽ
éĢ» è¾ĳ
ĠPartners hip
d r
w ing
an i
Ġm itig
le b
Ġon es
ä¹Ł ä¸įä¼ļ
æİ ©
åİ ī
åī ¥
é¡ µ
ag ers
Ġtra vel
å®ī çĲĨ
æ¶Ī çģŃ
Ġtrans actions
åįĩ é«ĺ
åĽ° æī°
Ġconc lus
æļ´ éľ²
å±Ĥ æ¬¡
ç©º æ°Ķ
Ġuns ustainable
å¤ĸæ±ĩ åĤ¨å¤ĩ
æĬĵ ä½ı
Ġperman ent
æĳ§ æ¯ģ
U nder
f ort
o il
u ations
Ġ ä»ĸ
Ġ 90
çļĦ äºĭå®ŀ
at is
ent ieth
il leg
åľ¨ çº¿
åĲ ¹
ä¸º æŃ¤
Ġwh atever
20 30
Ġex cl
äºİ æĺ¯
Ġsh ock
Ġsh ape
åĮĸ åĴĮ
çļĦç ¦
Ġ20 30
æľŁ æľĽ
åĨħ æĪĺ
å·´ æĭīåħĭ
å¸¸ è§Ħ
åģļ å¥½
è¯ģ åĪ¸
Ġprocess es
é¢ĨåŁŁ çļĦ
çļĦæľĢ ä½³
Ġnum bers
ĠKore an
Ġpurs uing
Ġgre w
Ġlear ning
Ġterrit ory
Ġrenew able
Ġrepl ace
Ġfig ure
Ġdeg ree
æŁı æŀĹ
atis f
2 8
N or
i ot
u ous
ä¸ ĳ
åħ ¹
ä½ ©
æĪ ´
ä¸į å¦Ĥ
äºº éģĵ
ur ies
ĠA ll
è¿ĩ æĿ¥
è¥¿ äºļ
æĶ¾ æĿ¾
æİ¨ ç¿»
ä¸ľ æ¬§
ä¼ģä¸ļ å®¶
ç¨İ çİĩ
ä¸¥ å³»
ç¬¬ ä¸Ģæ¬¡
Ġdes per
éĿŀæ´² åĽ½å®¶
æĦŁ æŁĵ
çªģ çĦ¶
ä¸ĢçĽ´ æĺ¯
æ®µ æĹ¶éĹ´
ĠV enezuel
Ġturn ing
Ġplan ning
Ġcaus ing
Ġdev al
éĽĨä¸Ń åľ¨
ograph ic
Ġdescrib ed
åīįæīĢæľª æľīçļĦ
F ortunately
J apan
i ately
l a
he rent
çļĦ åį±éĻ©
Ġst ra
æĮ ¤
æīĢ éĢłæĪĲçļĦ
åĬ¨ ä½ľ
ç¨ Ģ
éĥ¨ ç½²
Ġ1 7
æį Ĳ
åħ¨çĲĥ éĩĳèŀįåį±æľº
ĠT reasury
å·²ç»ı æĪĲä¸º
Ġinvest ing
è´¢ åĬ¡
æ³¨ äºİ
æ¿Ģ çĥĪ
çĶµ åŃĲ
èĤ¡ ä¸ľ
æĬĹ çĶŁç´ł
å£° æĺİ
å¿ħè¦ģ çļĦ
Ġexpl an
Ġcounter part
Ġwee ks
Ġprep ared
Ġdram atically
å« ©
Ġty pe
Ġproduc ers
Ġaggreg ate
C l
H ere
p ower
t ime
é ±
re en
çļĦ èĩªçĶ±
or por
Ġg ir
å¸ ķ
ä»¥ ä¾¿
å¯¹ æ¬§æ´²
æ³ ½
åĪ© æ¯Ķäºļ
å¤ĸ åĽ´
æĹł åĬĽ
æ²¡ èĥ½
ĠN ig
ä»¥åıĬ åħ¶ä»ĸ
ĠO ECD
lud ing
çĹħ æ¯Ĵ
ç»Ŀ å¤§å¤ļæķ°
Ġpos itions
Ġdecl ining
ĠComm ittee
Ġgener ations
Ġcomb ination
ä¸įç®¡ æĺ¯
çļĦçľŁ æŃ£
Ġdivid ed
æµª è´¹
F r
N A
i ences
l ad
å ĺ
çļĦ åĨ³å®ļ
çļĦ æĪĲæľ¬
al y
st ream
Ġl i
æĹ Ĺ
Ġex ac
ĠS il
çī Ľ
ä¹ĭ ä¸Ĭ
anc y
æģ ¨
èĤ ¥
è®¤ å®ļ
èį Ĵ
Ġapp lic
æĶ¯æĮģ èĢħ
Ġsc hem
æµģ åĲĳ
å°ı æĹ¶
æīĭ ä¸Ń
Ġremain ing
åĬŁ èĥ½
Ġfail ing
ĠIn stitute
Ġinteg rated
Ġcho ices
å®Ĺ åķĨåĵģ
ä¼Ĭæĸ¯åħ° æķĻ
ä»ħä»ħ æĺ¯
çº· çº·
Ġdiscuss ion
Ġmob il
æĤ£ èĢħ
Ġintrodu ced
ĠSw ed
Ġfri ends
ç¯ ĩ
æĽ´ä¸į çĶ¨
Ġdestro y
Ġappropri ate
ĠJu ly
ĠPort ug
Ġexac erb
b led
i ant
çļ ĩ
çļĦ éĢīæĭ©
çļĦ éĢŁåº¦
Ġw ond
Ġd ri
ç» ķ
Ġh on
å¼ ¥
ch ang
ad d
ab led
ä¹Ł å¿ħé¡»
åıĳ èµ·
èµĦ åĬ©
ä¸» æµģ
åĬł ä»¥
æĮģ ä¹ħ
æĥħ æĬ¥
åĲĦ æĸ¹
Ġinf ect
Ġar my
ä»į æľī
æ® ĸ
æľºæŀĦ çļĦ
Ġsign s
æİĴ éĻ¤
Ġcour t
Ġel ites
å¾ĭ å®¾
Ġknow s
å¯Ĩ åĪĩ
Ġmove ments
ç§¯ ç´¯
Ġful f
Ġhapp ens
åĽº å®ļ
èı² å¾ĭå®¾
Ġdeterm ine
èĥĮæĻ¯ ä¸ĭ
å¹¸è¿Ĳ çļĦæĺ¯
Ġtro ops
2 7
c ount
f irst
o es
t ies
Ġ è¿ĻäºĽ
Ħ æĸŃ
çļĦ åİĨåı²
çļĦ ä¸ľè¥¿
Ġw is
Ġb ody
ä¸į æ»¡
æĿ ľ
ç»ı è¿ĩ
ĠA ct
ä¹Ł èĥ½
ĠB er
Ġy outh
ä»ĸä»¬ åľ¨
éĢī é¡¹
èĥ Ĩ
å·´ å«©
ĠK h
ĠJ ew
Ġrem ind
Ġunder t
æł¹ æºĲ
äº¿ äºº
åŀ ĦæĸŃ
è¿Ĳ ä½ľ
å®Į ç¾İ
cur ities
åıĳçĶŁ åľ¨
Ġbo ard
Ġhum ans
Ġpers u
Ġrul ing
Ġdeep er
Ġhold ing
Ġrecogn ized
éĢĲ æŃ¥
Ġtem porary
Ġimmed iately
éģµ å®Ī
çĸ² è½¯
Ġbatt le
P A
S A
Ġ illeg
Ġf ost
Ġm ur
ä¸į è®º
Ġcon ventional
å¯¹ å¤ĸ
è¿ĺ èĥ½
åıª ä¼ļ
äºī åıĸ
å¥½ æ¶Īæģ¯
Ġacc ord
Ġcontin uing
äººä»¬ çļĦ
æ¯ı ä¸ª
æ·± è¿ľ
ç´§ è¿«
èĳ £
With out
Ġaddress ed
ĠArab ia
é»İ å·´å«©
Ġdest ruction
ival ent
Ġdel ay
ä¸§ å¤±
æĽ´ä¸įçĶ¨ è¯´
çļĦ åĨĽäºĭ
Ġd ream
Ġl end
Ġbe ar
è¿Ļ ä¸¤ä¸ª
Ġst o
Ġcon ver
éĿ Ļ
ç¾İåĽ½ æĶ¿åºľ
ä¹ĭ æĹ¶
ib eral
éĹ® è´£
æ¯Ķ æĸ¹
ä¿Ŀ çķĻ
Ġgrow n
Ġfa ith
ç½Ĺ é©¬
stit ution
è®¡åĪĴ çļĦ
ruct ive
Ġequ ally
Ġann ually
Ġelect oral
Ġstart ing
ä¹Łè®¸ æĺ¯
ne y
Ġlear ned
æĽ´å¥½ åľ°
Ġcal c
ĠCol omb
Ġinadequ ate
é± ¼
è ¹
Ġ å¹¶ä¸Ķ
çļĦ æ°ĳä¸»
Ġp arent
Ġp ension
Ġb re
Ġf oot
äºº çī©
ra ge
èµ Į
ĠC ent
ä¹Ł åı¯èĥ½
å°Ĩ æĪĲä¸º
æĽ´ å¿«
è¾ ±
è¾ Ľ
ant ed
ib ilities
éĥ½ èĥ½
ff ic
Ġpl ants
de bt
åįĹ äºļ
ç¤º å¨ģ
Ġprom ised
åĲ¸ æĶ¶
å¤±åİ» äºĨ
DG s
Ġtransp arency
Ġamb itious
ili pp
Be yond
æľĭ åıĭ
G lobal
´ è´£
ä¸Ģ å®¶
ä¸Ģ éĥ¨åĪĨ
Ġst ress
Ġex erc
ĠM e
è° ´è´£
è¿Ļä¸Ģ éĹ®é¢ĺ
åıĹ åĪ°äºĨ
èĭ± æł¼åħ°
Ġ19 6
Ġtw entieth
ok ing
åĳ½ è¿Ĳ
çļĦä¸Ģ äºĽ
éª ¤
Ġiss ued
èĲ¥ åħ»
Ġsustain ability
è¶ħè¿ĩ äºĨ
é¥ ¥
Ġreflect ed
ik es
Ġbring ing
Ġcorpor ations
Ġcandid ates
è°· æŃĮ
åĢºæĿĥ äºº
å¥ĳ çº¦
Ġsum mer
O ur
Ġa ris
çļĦ èĥ½æºĲ
çļĦ ä»·æł¼
çļĦ ä¿¡æģ¯
Ġb old
Ġf eed
ar ation
il ed
ä¸Ģ ä»½
Ġl osing
Ġan im
res p
Ġse a
Ġimp ed
å¤± æľĽ
éĩĳèŀį ä½ĵç³»
ident s
å½±åĵį åĪ°
Ġunder lying
èİ· åıĸ
ç§ĳ ç´¢
å¡ «
æ¯ı å¤©
å»ºç«ĭ ä¸Ģä¸ª
ä»½ é¢Ŀ
Ġtoward s
Ġencoura ging
Ġanal ysis
éľĩ æĥĬ
Ġquant itative
ĠPol and
Ġpubl ished
ĠPh ilipp
Ġperspect ive
å°¼æĹ¥ åĪ©äºļ
ç§ĳç´¢ æ²ĥ
Ġ ï¼Ľ
çļĦ åİĭåĬĽ
çļĦ ä¾ĭåŃĲ
Ġc ell
Ġb illions
Ġre act
å¤§ å®ĹåķĨåĵģ
con n
con s
å¥ ī
ĠB ang
éĺ ´
è¿ĻäºĽ éĹ®é¢ĺ
ll or
èī º
Ġ19 30
å°¼ æĸ¯
Ġsol ve
ç§° ä¹ĭä¸º
æ½ ĺ
Ġput ting
è¶ĬæĿ¥è¶Ĭ å¤ļ
Ġrequire ments
Ġstud ies
acc o
Ġgr and
ä¸»æĿĥ åĢºåĬ¡
az a
Ġblo c
Ġprior ities
Ġoccur red
Ġpurch ases
Ġtrou ble
bol a
Ġord inary
ĠBro ther
å£ģ åŀĴ
å®īçĲĨ ä¼ļ
C O
N on
Ġp sych
Ġe vol
Ġn ations
åľ¨ èĭ±åĽ½
æľī å¤ļ
ĠC ar
å¹´ é¾Ħ
if orn
çĶ¨ æĪ·
ĠM c
æ¬§æ´² åĽ½å®¶
åıĺ ä¸º
lic it
èĤ Ĩ
Ġtra ck
ä½İ åĪ©çİĩ
åĽłä¸º ä»ĸä»¬
Ġunder pin
åĩı è½»
å¼ķ å¯¼
èİ· èĥľ
ä¾ĭ å¤ĸ
Ġdes ire
Ġlo oks
ç´§ æĢ¥
Ġtrad ition
Ġplay ing
Ġcrit ics
Ġph il
Ġrepres ents
ĠSyr ian
Ġagg ressive
Ġlegis l
ĠDep ression
éĿĴ å¹´
Ġbeg un
è®½ åĪº
G O
g u
çļĦ æīĢæľī
çļĦ åĲİæŀľ
çļĦ ä»»åĬ¡
it i
Ġf ert
Ġn omin
æĺ¯ æľī
as c
est ed
è¡Į æĶ¿
å®ŀ è´¨
æŃ¤ æ¬¡
os ov
çļĦç ¥
Ġ1 3
og le
Ġpre ced
åĬ© éķ¿
è®¾ å¤ĩ
ax im
åįĹ éĥ¨
æ·± åħ¥
æĪĲåĬŁ åľ°
Ġdisc ipl
åį¡ æ¢ħ
çļĦæľĢ æĸ°
St ill
èī° éļ¾
Ġtrig ger
BE R
ĠSing apore
ĠAustral ia
amer on
æ¯Ķæĸ¹ è¯´
R ec
i ers
l ines
w ith
Ġ æĺ¯
Ġ æĪĳä»¬
Ġ ä»ĸä»¬
çļĦ åħ³ç³»
åĴĮ å®īåħ¨
è¿Ļ ä¹Łæĺ¯
äºĨ å¯¹
è¡ ·
ä»¥ ä¸ĭ
ul a
æĽ´ åħ·
åĬ¨ æľº
Ġimp ose
row ing
Ġtr ip
ä¿¡ åı·
Ġrel uct
åĩı ç¨İ
19 6
Ġmon it
åįł é¢Ĩ
çĽĳç®¡ èĢħ
éĺ» æĮ
Ġgain ed
æĢ¥ éľĢ
Ġserious ly
Ġcontrib uted
æ°¸ ä¹ħ
Ġassum e
ç»ıå¸¸ é¡¹çĽ®
ustr ial
Ġbelie ved
Ġexact ly
Ġobser vers
N ew
P acific
g as
i res
k en
z e
çļĦ è´§å¸ģ
an a
Ġp aper
or ient
Ġg ave
è¿Ļ å°±
ä¸Ń åħ±
å¿ Ĩ
ĠS ocial
ĠG overn
æĢ» é¢Ŀ
å¼ı çļĦ
Ġper fect
æİ¥ è§¦
19 80
çĭ ±
å² ©
æķĻèĤ² åĴĮ
åĪĽéĢł äºĨ
Ġspec ies
ä¼ļè®® ä¸Ĭ
cl ass
æ¯Ĵ åĵģ
èī¯ å¥½çļĦ
Ġread y
çĥŁ èįī
Af ric
é¥± åıĹ
C T
æ Ĩ
Ġ ä¹Ł
åľ¨ åĽ½éĻħ
ä¸Ģ åĽ½
ĠE rdoÄŁan
ä½Ĩ å®ĥä»¬
Ġal though
åİ Į
å¢ Ļ
Ġeconom ically
åĪ¶ çº¦
un n
Ġ1 6
å¢ŀéķ¿ åĴĮ
è§£ ä½ĵ
èĩ´ åĳ½
åıĳå±ķ ä¸Ń
Ġrel ated
æĶ¯æĮģ çļĦ
Ġtw enty
æĭħ ä¿Ŀ
Ġadd ed
Ġoff set
Ġhealth y
æŀĹ æĸ¯
å¤ª å¹³
æ·± åº¦
èĬ ¬
li hood
çİ°ä»£ åĮĸ
rodu ct
Ġsurpris e
Ġdet ail
æĺ¾èĢĮæĺĵ è§ģ
Ġconserv ative
Ġinclus ive
yl um
çļĦç² ¾
ĠHam as
Ġenj oy
åıĹå®³ èĢħ
åĶĲ çº³å¾·
A b
D A
çļĦ åħ±åĲĮ
æľ ¨
Ġm ix
åĽ½ åĬ¡
il ing
æľī èĥ½åĬĽ
å¤§ èĲ§æĿ¡
æ² ¦
Ġr ic
Ġr ational
åĳ Ī
åī ĳ
ä¸ŃåĽ½ äºº
å± ĭ
ĠB al
éĥ½ å¿ħé¡»
ĠF in
èĤ ī
ç«ĭ åĪ»
ä½İ ä¼°
é© ¾
Ġunder st
æīĢæľī çļĦ
Ġrep orts
å°ı ç»Ħ
Ġmod est
éķ¿æľŁ ä»¥æĿ¥
éħ Ĵ
Ġprop ortion
åį³ä½¿ åľ¨
çļĦæľĢ å¤§
å¾Īå¤ļ äºº
æģĲæĢĸ åĪĨåŃĲ
Ġliberal ization
åĲĪçĲĨ çļĦ
ĠPro t
Ġkill ed
åħ±äº§ ä¸»ä¹ī
Ġcontract s
ĠEng land
èµĭ äºĪ
çļĦç¼ º
çļĦçł´ åĿı
C omp
f in
w orks
ic ious
ar i
æĺ¯ ä¸ºäºĨ
ä¸Ģ åĲį
ä¸į äºĨ
ä¸į èī¯
ä¸Ń æľī
ig or
æĬ «
åı¯ æĢķ
ä½Ĩ åħ¶
åĪ° æĿ¥
å°± è¿ŀ
åĬł å¤§
æĦı æĸĻ
æĺİ å¹´
ç© ¿
æ´» åĬĽ
æµģ è¡Į
Ġconf ir
Ġemer gence
Ġrest ore
éĺ² å¾¡
Ġequ ivalent
èµĦäº§ ä»·æł¼
äººåı£ çļĦ
ĠIn vestment
Ġfl aw
èĮĥåĽ´ åĨħ
Ġachie ving
ĠRo ad
Ġprotest s
Ġvictim s
i h
Ġf ire
Ġto ugh
ĠâĢ ¦
åľ¨ æĶ¿æ²»
å¹´ åºķ
åĪ° åºķ
Ġimp osed
é«ĺ éĢŁ
å°Ķ çļĦ
æĢ» åĢ¼
Ġpe ak
Ġlead s
æĥħ å½¢
ire ct
200 3
ĠInd ones
Ġemer ge
æ°´å¹³ çļĦ
éĥ¨éĹ¨ çļĦ
Ġposs ibly
ars h
Ġaccount ability
Ġexper iment
ç¼ĵ è§£
Ġprof it
å¹ħ åº¦
Ġtru ly
ug ust
Ġreach ing
Ġident ity
ĠLe ban
Ġsubstant ially
Ġfix ed
Ġcritic ism
Ġmut ual
èĢĲ èį¯
ĠPl an
iforn ia
4 00
A m
E n
çļĦ çĲĨçĶ±
on om
ç» ©
ä¹ ĥ
im ir
ad ow
ore ign
å± ¥
ib iot
ä¸ĭ æ»ĳ
row n
éĹ®é¢ĺ åľ¨äºİ
Ġcomp ris
æĹ¥ æ¸Ĳ
éĽ ¨
ĠK osov
Ġqu o
æİ¥ çĿĢ
è£ Ķ
Ġact ive
éĿŀæ´² çļĦ
ex change
ä¸ĭéĻį åĪ°
ä¸ĵ æ³¨äºİ
éĻįä½İ äºĨ
Ġprotect ing
çļĦçľ ĭ
éĶĢ åĶ®
ĠAI DS
éĢĶ å¾Ħ
Ġdram atic
åħĳ çİ°
è¸ ª
rus sels
Ġphys ical
ç»ĵæł¸ çĹħ
Ġbott om
lad imir
å¤ªå¹³ æ´ĭ
g round
p ric
Ġ è¯¥
äº ¦
an ied
Ġw id
Ġm axim
åľ¨ åĨħçļĦ
æľĢ ä½İ
Ġen act
os is
ib et
åĮº åĪ«
ä½¿ åħ¶
Ġdec ide
å¾Ī æľīåı¯èĥ½
çĤ¹ æĺ¯
æĬķèµĦ åĴĮ
Ġinvest ig
åĵį åºĶ
èĭ±åĽ½ éĢĢæ¬§
åģļ çļĦ
Ġar rest
Ġtrans fers
çļĦäºº ä»¬
è¿Ľè¡Į çļĦ
å½¢ è±¡
ç§» åĬ¨
è´Ł éĿ¢
Ġsign ed
Ġaff ected
Ġfew er
æĪ¿ ä»·
Ġdisp utes
Ġear th
Ġestablish ing
æĤ² åī§
Ġfig ures
Ġcandid ate
pr il
çļĦçĬ¶ åĨµ
Ġobst ac
åºĩ æĬ¤
2 2
7 5
C an
e b
i pe
Ġ ä¸ŃåĽ½
Ġt act
çļĦ åģļæ³ķ
it ably
Ġb omb
ar th
im b
nt il
éĻ Ī
ĠS erb
Ġcom pe
çķ ª
è¿ĺ åľ¨
è¿ĺ å¿ħé¡»
ç³ Ĭ
æĶ¹ è¿Ľ
ree ment
Ġdec is
è¿ĳ åĩł
Ġacc ur
æŁĲ ä¸ª
Ġappro aches
èĢĥ éªĮ
ç§ģ èĲ¥
Ġel ite
Ġconcern ed
éĺ¶ å±Ĥ
Ġsuff ered
Ġviol ent
æ¦ ľ
Ġpract ical
Ġcy ber
Ġconstit utional
çļĦéĩįè¦ģ æĢ§
ĠPalestin ians
osp ital
æķı æĦŁ
o ly
è ļ
çļĦ åıįåºĶ
an ish
is on
Ġg ot
ol ar
ä¸į å°ĳ
ment ed
Ġas ylum
est ern
Ġex it
å± ł
å¹¶ å°Ĩ
äº§ æĿĥ
çļĦç ĥ
Ġ1 4
ä¸ĸçķĮ åĲĦåľ°
æĻ °
æĬķ æľº
é¢Ĩå¯¼ çļĦ
Ġar med
æĺ¾ å¾Ĺ
è¿Ļæł· ä¸Ģä¸ª
ä¸ī åĪĨä¹ĭä¸Ģ
Ġ200 3
Ġsupport ing
è¿Ĳ çĶ¨
èĩªçĶ± åĮĸ
ail y
Ġinstit ution
åŁĥ å¡ŀ
éĢīä¸¾ ä¸Ń
çĻ¾ åĪĨ
Ġeng aged
è§ī å¾Ĺ
Ġpropos als
Ġattract ive
app oint
Ġjournal ists
Ġaccomp anied
count ry
2 9
b order
g ic
Ġ ver
çļĦ æĿĥåĪ©
ro g
ä¸Ģ è·¯
Ġl iter
åĴĮ æ¬§æ´²
åĴĮ åĽ½éĻħ
æ¬ º
æ¬ ł
çİ Ľ
ĠE bola
ĠS umm
åĩº çĶŁ
éĩį å¡ĳ
æľ¬ è´¨
ap ing
æŃ£ ä¹ī
çĲĨ æĢ§
æ± ī
ä»İ äºĭ
Ġag ing
Ġcont ent
éĤ£ ç§į
æ²¡ äºº
ĠT ibet
åħ± äº«
çŁ ¿
ĠJ in
Ġus ers
ç¬¬ åĽĽ
Ġcost ly
ç»ĵæŀľ æĺ¯
è¯º è´Ŀå°Ķ
æŃ» åĪĳ
Ġpay ing
Ġaccount ing
è¡¥ åģ¿
çĮ Ľ
Ġrecogn ition
èī¯ å¥½
Ġfuel ed
Ġsec ular
åı¤ å·´
ä¸įè¶³ ä»¥
Ġident ify
èĶ ĵ
ä¸° å¯Į
å½¼ æŃ¤
åŁĥå¡ŀ ä¿Ħ
E S
c omm
c risis
l ades
r ating
çļĦ åħ¬åı¸
Ġe ast
åĴĮ æĹ¥æľ¬
ä¸į å®ī
åĮ Ī
èĥ½ åĬĽçļĦ
é¢ ł
ĠA ugust
if th
ĠB russels
è¿ĺ å°Ĩ
éĤ£ ä¸ª
è¯´ æĺ¯
éĢī ç¥¨
ĠW all
åģļ åĪ°
æĻ® åıĬ
ove red
è´Ł è´£ä»»
Ġnational ism
åĮ» åŃ¦
ä¼¦ çĲĨ
Chin ese
rem e
Ġshow ed
Ġrese arc
ç®Ģ è¨Ģä¹ĭ
æĢ¥ åī§
Ġnet works
åħ» èĢģ
Ġincent ive
è·Ŀ ç¦»
Ġce leb
Ġsup erv
Ġmortg age
Ġsen ior
ç»¼ åĲĪ
ĠPortug al
åŁĥå¡ŀä¿Ħ æ¯Ķäºļ
I A
W AS
i op
m on
çļĦ æ¬§çĽŁ
çļĦ èµĦæľ¬
Ġw ake
ion al
Ġd ialogue
Ġe volution
Ġre vol
åĴĮ çİ¯å¢ĥ
éĢ Ĵ
ä¼ļ å¯¼èĩ´
ul f
ĠA pril
åħ¶ ä¸ŃçļĦ
å¤ļ åħĥ
åĬ¨ åĳĺ
å®ļ ä»·
ĠP aul
äºĭ ä¸ļ
é«ĺ æķĪ
åĿ İ
åıį èĢĮ
å¼º åĬ¿
ren ce
ä¸»ä¹ī åĴĮ
ä¸¤ ä½į
Ġcent ers
çī© ç§į
Ġhigh light
Ġwant ed
Ġimplement ation
Ġstruct ures
æ¸¸ æĪı
æĭ¿ åĩº
Ġoppos ite
Ġhistor ic
æĲ º
Ġmob ile
Ġgradu ally
çºł æŃ£
mb ly
ING TON
Ġplatform s
Ġwel come
Ġremark able
Ġgir ls
ĠJin ping
èĶĵ å»¶
lades h
Ġ .
Ġ å¦Ĥæŀľ
Ł çĸ¾
çļĦ æ³ķå¾ĭ
er a
an gh
Ġf em
Ġn one
è¯ ŀ
ra p
æ² Ł
æĮ ª
ain ed
åİ ļ
oc u
art ment
éĺ ±
åħ³ éĹŃ
æĪĺ æĸĹ
Ġall iance
ä¿Ŀ åģ¥
åıį è¿ĩæĿ¥
èŀį åħ¥
è§Ħ èĮĥ
ord ination
éĩįè¦ģ æĢ§
èĻ Ĳ
å¤į åħ´
ä¸¾ è¡ĮçļĦ
Ġdef ined
æĬĢæľ¯ çļĦ
æĸĩ ç«ł
éª Ĺ
éħ ¬
ĠTr ans
Ġset ting
éĻ· éĺ±
Ġant ibiot
Ġpress ures
èĲ¨ å¾·
Ġreport ed
Ġboost ing
ĠTur k
Ġborrow ers
Ġdeterm ined
Ġobs erv
Ġsurpris ing
Ġsurve y
Ġcrimin al
ĠIndones ia
ĠKosov o
B R
H INGTON
P e
s k
Ġt empt
Ġf al
ic a
Ġth r
åº Ĩ
è´ ¯
et ic
ä»¥ å¤ĸ
ad ing
æĮ ½
Ġnot ably
Ġse arch
Ġsh r
du c
ign ed
æĿĥ å¨ģ
ren cy
ä¸¤ èĢħ
Ġsupp lies
åºĶè¯¥ æĺ¯
ç¤¾ä¼ļ çļĦ
200 2
åĪ¤ æĸŃ
Ġequ ality
èĪ ¹
Ġbr ut
è¿« åĪĩ
èĲ½ åĲİ
igr ant
é¡¾ éĹ®
Ġprevious ly
æĺĤ è´µ
Ġelimin ate
èĽ ĭ
Rus sia
n ational
Ġ iron
çļĦ ç§»æ°ĳ
å® °
è¿Ļ éĩĮ
åĩ Ń
id el
ĠE th
ĠA be
ort ed
åıĳ æĺİ
if e
éķ ĳ
æľĢ ä½³
Ġint ended
å¾Ī å®¹æĺĵ
æĸ½ åĬł
éģĵ çĲĨ
è®¾ ç«ĭ
è§Ĥ å¿µ
æīĢæľī äººéĥ½
æ· ¡
ä¸¥ åİī
ob el
ä¸´ æĹ¶
Ġbene fic
åħħ è¶³
ĠV ladimir
çīĻ åĪ©
èĲ½ å®ŀ
Ġprevent ing
Ġmaintain ing
ç»Ĩ èĥŀ
ä¿Ŀå®Ī åħļ
åĥµ å±Ģ
Ġcomprom ise
Tw o
åĮĪ çīĻåĪ©
angh ai
U ntil
p ass
Ġp hen
ing u
åĴĮ æĶ¿åºľ
éĿ ¡
åĩº èµĦ
åĩº çİ°åľ¨
å¤ļ å¹´
åħ¨ åĬĽ
çī ¢
çī µ
Ġsh ocks
æľĢ åĪĿ
éĩį è§Ĩ
æľ¬ äºº
ĠB ern
åĬł æ²Ļ
art ers
åĪĨ åĪ«
åĲĪ åĲĮ
Ġexp osed
Ġexp licit
Ġman aging
æ²¡æľī äºº
éĵ¶è¡Į å®¶
åħ¶ä»ĸ äºº
Ġind e
ä¸¤ ç§į
åĲĦ ä¸ª
Ġar ch
çľĭ ä¸Ĭåİ»
æ³¨ åħ¥
æĸĩ æĺİ
Ġcre ates
çªģ çł´
ĠCh ance
ç§ģ æľī
ck er
æľīæķĪ åľ°
éĢĤ çĶ¨äºİ
Ġoper ate
Ġnet work
Ġaccept ed
Ġclose ly
Ġexpand ed
å¡ŀå°Ķ ç»´äºļ
Ġengage ment
Ġembra ce
Ġmand ate
æĬĽ å¼ĥ
Govern ments
Ġperce ived
æ®ĸ æ°ĳ
ĠPhilipp ines
o ke
Ġ å°Ĩ
Ġ èĢĮä¸Ķ
çļĦ æĢģåº¦
æĿ İ
im p
æĹ º
ce an
Ġfor t
ĠC ameron
ĠA m
Ġwe ather
æ³ķ å®ĺ
å± Ī
æĽ´ å¹¿æ³Ľ
äºĽ æĹ¶åĢĻ
æĪĳ åľ¨
Ġch amp
ä¸ĭ äºĨ
æĪĳä»¬ åľ¨
Ġun con
ç½ ķ
ä¸ĸçķĮ åħ¶ä»ĸ
Ġman agers
æĶ¿çŃĸ åĪ¶å®ļ
ç¤ ¼
æ²¡æľī ä»Ģä¹Ī
age ment
ä½ķ ç§į
ä¸¤ å¹´
Ġapp ly
éĴ ¢
é¦ĸ å¸Ń
å½¢ æĪĲäºĨ
Ġopp onents
åĮ» éĻ¢
Ġdoes n
äººæ°ĳ éĵ¶è¡Į
Ġhuman ity
å£° éŁ³
ç¾¤ ä¼Ĺ
åıĤä¸İ èĢħ
Ġpar ad
Ġnegoti ate
ä¿® æĶ¹
Ġche m
Ġsure ly
æ¯ģ çģŃ
Ġir re
ĠKen ya
Ġsal es
cont ro
lif eration
æĬ« éľ²
çĻ¾åĪĨ çĤ¹
Ġresearc hers
D I
m osp
u able
Ġa ud
çļĦ å¢ŀåĬł
çļĦ å®īåħ¨
Ġc ra
Ġc rop
Ġd ow
æĺ¯ çĶ±
ä¸Ģ æĸ¹éĿ¢
ä¸į éľĢè¦ģ
æĹ ±
se curity
Ġcon g
ä¿ ±
Ġch ronic
åĪĨ äº«
æĶ¿åºľ åľ¨
ĠF ound
å¼Ģ å±ķ
Th ird
ç¼ ĸ
ä¿¡ èªī
Ġra ce
åĪĽ ä¸ļ
Ġrep ut
çļĦäºº æ°ĳ
å®Į æķ´
è´¢æĶ¿ æĶ¿çŃĸ
è´¢æĶ¿ éĥ¨éķ¿
Ġinclud ed
omm od
çº³ ç²¹
Ġthreat ened
Ġant icip
è¡¥ åħħ
ĠIran ian
èģĮ ä½į
æ¼Ķ è®²
å¥¹ çļĦ
Ġpeace ful
è®² è¯Ŀ
å»¶ éķ¿
An y
ä¸įå¹³çŃī æĢ§
Ġresol ution
çļĦçŁ ³
çļĦçŁ Ń
ĠMuslim s
Ġemploy ees
Ġsent iment
Ġpus hing
ĠCan ada
æ»¥ çĶ¨
ĠBRI CS
Ġperipher y
ĠBang ladesh
Non etheless
WAS HINGTON
c he
f ree
r s
çļĦ æĿĥåĬĽ
at al
Ġto ler
å¤ ¸
om ing
Ġn ine
Ġn av
Ġn orthern
ä¸Ģ è½®
æī £
ur ch
Ġr ival
ä¹Ł ä¸įæĺ¯
ç»ıæµİ åĴĮ
Ġwe ight
æľĢ å¥½çļĦ
