{"<s>":0,"<pad>":1,"</s>":2,"<unk>":3,"!":4,"\"":5,"#":6,"$":7,"%":8,"&":9,"'":10,"(":11,")":12,"*":13,"+":14,",":15,"-":16,".":17,"/":18,"0":19,"1":20,"2":21,"3":22,"4":23,"5":24,"6":25,"7":26,"8":27,"9":28,":":29,";":30,"<":31,"=":32,">":33,"?":34,"@":35,"A":36,"B":37,"C":38,"D":39,"E":40,"F":41,"G":42,"H":43,"I":44,"J":45,"K":46,"L":47,"M":48,"N":49,"O":50,"P":51,"Q":52,"R":53,"S":54,"T":55,"U":56,"V":57,"W":58,"X":59,"Y":60,"Z":61,"[":62,"\\":63,"]":64,"^":65,"_":66,"`":67,"a":68,"b":69,"c":70,"d":71,"e":72,"f":73,"g":74,"h":75,"i":76,"j":77,"k":78,"l":79,"m":80,"n":81,"o":82,"p":83,"q":84,"r":85,"s":86,"t":87,"u":88,"v":89,"w":90,"x":91,"y":92,"z":93,"{":94,"|":95,"}":96,"~":97,"¡":98,"¢":99,"£":100,"¤":101,"¥":102,"¦":103,"§":104,"¨":105,"©":106,"ª":107,"«":108,"¬":109,"®":110,"¯":111,"°":112,"±":113,"²":114,"³":115,"´":116,"µ":117,"¶":118,"·":119,"¸":120,"¹":121,"º":122,"»":123,"¼":124,"½":125,"¾":126,"¿":127,"À":128,"Á":129,"Â":130,"Ã":131,"Ä":132,"Å":133,"Æ":134,"Ç":135,"È":136,"É":137,"Ê":138,"Ë":139,"Ì":140,"Í":141,"Î":142,"Ï":143,"Ð":144,"Ñ":145,"Ò":146,"Ó":147,"Ô":148,"Õ":149,"Ö":150,"×":151,"Ø":152,"Ù":153,"Ú":154,"Û":155,"Ü":156,"Ý":157,"Þ":158,"ß":159,"à":160,"á":161,"â":162,"ã":163,"ä":164,"å":165,"æ":166,"ç":167,"è":168,"é":169,"ê":170,"ë":171,"ì":172,"í":173,"î":174,"ï":175,"ð":176,"ñ":177,"ò":178,"ó":179,"ô":180,"õ":181,"ö":182,"÷":183,"ø":184,"ù":185,"ú":186,"û":187,"ü":188,"ý":189,"þ":190,"ÿ":191,"Ā":192,"ā":193,"Ă":194,"ă":195,"Ą":196,"ą":197,"Ć":198,"ć":199,"Ĉ":200,"ĉ":201,"Ċ":202,"ċ":203,"Č":204,"č":205,"Ď":206,"ď":207,"Đ":208,"đ":209,"Ē":210,"ē":211,"Ĕ":212,"ĕ":213,"Ė":214,"ė":215,"Ę":216,"ę":217,"Ě":218,"ě":219,"Ĝ":220,"ĝ":221,"Ğ":222,"ğ":223,"Ġ":224,"ġ":225,"Ģ":226,"ģ":227,"Ĥ":228,"ĥ":229,"Ħ":230,"ħ":231,"Ĩ":232,"ĩ":233,"Ī":234,"ī":235,"Ĭ":236,"ĭ":237,"Į":238,"į":239,"İ":240,"ı":241,"Ĳ":242,"ĳ":243,"Ĵ":244,"ĵ":245,"Ķ":246,"ķ":247,"ĸ":248,"Ĺ":249,"ĺ":250,"Ļ":251,"ļ":252,"Ľ":253,"ľ":254,"Ŀ":255,"ŀ":256,"Ł":257,"ł":258,"Ń":259,"Ġt":260,"in":261,"Ġa":262,"ä¸":263,"he":264,"re":265,"çļ":266,"çļĦ":267,"on":268,"Ġthe":269,"ï¼":270,"er":271,"at":272,"en":273,"äº":274,"ï¼Į":275,"ãĢ":276,"Ġc":277,"âĢ":278,"Ġs":279,"it":280,"Ġo":281,"an":282,"es":283,"ãĢĤ":284,"is":285,"ä»":286,"Ġw":287,"al":288,"Ġp":289,"or":290,"Ġb":291,"Ġin":292,"åı":293,"æľ":294,"åħ":295,"Ġf":296,"ed":297,"nd":298,"ing":299,"åĽ":300,"Ġto":301,"ic":302,"ar":303,"Ġm":304,"ion":305,"è¿":306,"Ġof":307,"ro":308,"åľ":309,"å¤":310,"åĪ":311,"å®":312,"Ġd":313,"Ġand":314,"ou":315,"ĠâĢ":316,"åĽ½":317,"ent":318,"æĺ":319,"Ġth":320,"Ġe":321,"ç»":322,"le":323,"st":324,"ä½":325,"åĬ":326,"Ġh":327,"Ġre":328,"om":329,"Ġn":330,"il":331,"å°":332,"ä¹":333,"åľ¨":334,"æĺ¯":335,"æĶ":336,"ä¸Ģ":337,"ve":338,"as":339,"ly":340,"å¹":341,"ä¼":342,"åĲ":343,"æĪ":344,"æĸ":345,"Ġl":346,"åĴ":347,"åĴĮ":348,"è®":349,"Ġbe":350,"ct":351,"Ġg":352,"ut":353,"Ġis":354,"èĢ":355,"ol":356,"ä¸į":357,"æĿ":358,"åį":359,"å¯":360,"ation":361,"çĽ":362,"Ġthat":363,"çĶ":364,"éĩ":365,"è¿Ļ":366,"im":367,"âĢĻ":368,"åº":369,"æľī":370,"æĹ":371,"ĥ½":372,"äºº":373,"è¯":374,"æī":375,"ce":376,"ä¸Ń":377,"se":378,"ĠâĢĶ":379,"äºĨ":380,"æŃ":381,"ver":382,"Ġde":383,"ot":384,"ur":385,"å¸":386,"ra":387,"è¡":388,"åĨ":389,"è´":390,"å¾":391,"åĩ":392,"ä¸º":393,"ment":394,"Ġfor":395,"å·":396,"éĢ":397,"ld":398,"ig":399,"id":400,"et":401,"ow":402,"æ¬":403,"Ġit":404,"Ġon":405,"å¼":406,"æĢ":407,"å¤§":408,"ies":409,"åĮ":410,"æĶ¿":411,"èµ":412,"Ġst":413,"èĥ½":414,"ç»ı":415,"ä»¬":416,"ch":417,"nt":418,"ä»¥":419,"ad":420,"Ġpro":421,"Ġu":422,"æł":423,"çİ":424,"æµ":425,"ill":426,"ĠC":427,"å¹´":428,"ä¼ļ":429,"ate":430,"ir":431,"Ġcon":432,"ul":433,"å¯¹":434,"æ°":435,"éĿ":436,"èĩ":437,"éĻ":438,"æĬ":439,"é¢":440,"¦ģ":441,"æ´":442,"ç¾":443,"åı¯":444,"æķ":445,"è¦ģ":446,"æĿ¥":447,"è§":448,"ore":449,"æŀ":450,"ĠâĢĵ":451,"pe":452,"Ġas":453,"The":454,"èĢĮ":455,"ers":456,"ç¾İ":457,"å®¶":458,"æ²":459,"ith":460,"ä¸ª":461,"est":462,"æ¬§":463,"æ³":464,"è¡Į":465,"ĠE":466,"ity":467,"Ġwh":468,"éĹ":469,"Ġr":470,"20":471,"ä½Ĩ":472,"Ġal":473,"å½":474,"Ġcou":475,"ãĢģ":476,"ç§":477,"ĠA":478,"her":479,"Ġsu":480,"æĭ":481,"åħ¶":482,"lo":483,"Ġex":484,"ge":485,"ä»ĸ":486,"åŃ":487,"ä¿":488,"äºİ":489,"Ġwith":490,"Ġare":491,"ort":492,"æĮ":493,"ay":494,"å¿":495,"ist":496,"ab":497,"å¦":498,"con":499,"ä¸Ĭ":500,"ess":501,"Ġan":502,"Ġne":503,"ial":504,"âĢĿ":505,"æĪĲ":506,"åĪ°":507,"çĲ":508,"ä¹Ł":509,"åĢ":510,"th":511,"ive":512,"res":513,"åľ°":514,"ain":515,"us":516,"åıĳ":517,"Ġha":518,"ter":519,"ĠS":520,"æĽ":521,"å¦Ĥ":522,"åĩº":523,"æµİ":524,"Ġnot":525,"if":526,"am":527,"ç»ıæµİ":528,"åĬĽ":529,"å°Ĩ":530,"çº":531,"Ġcom":532,"iv":533,"åĳ":534,"çŃ":535,"æİ":536,"ĠU":537,"å®ŀ":538,"Ġwe":539,"ke":540,"æ¯":541,"å¤ļ":542,"Ġby":543,"æīĢ":544,"Ġhas":545,"æĹ¶":546,"åİ":547,"å¢":548,"conom":549,"åī":550,"èµĦ":551,"em":552,"çİ°":553,"ä¸»":554,"ä¸ŃåĽ½":555,"æ´²":556,"æ°ĳ":557,"ç¾İåĽ½":558,"Ġhave":559,"ac":560,"åħ¨":561,"ould":562,"hin":563,"çī":564,"pp":565,"æ³ķ":566,"Ġse":567,"ĠI":568,"åŁ":569,"Ġle":570,"æĸ¹":571,"åĪ©":572,"Ġwill":573,"çĶŁ":574,"and":575,"Ġpol":576,"ï¼Ī":577,"å±":578,"ï¼ī":579,"Ġsh":580,"å¥":581,"éķ":582,"æĽ´":583,"Ġeconom":584,"qu":585,"äºĽ":586,"æľĢ":587,"åĽ½å®¶":588,"ust":589,"èĩª":590,"è¿ĩ":591,"æĪĳ":592,"æĦ":593,"åĽł":594,"oc":595,"çķ":596,"uro":597,"åĬ¨":598,"Ġwor":599,"um":600,"Ġen":601,"éķ¿":602,"Ġv":603,"æĢ§":604,"igh":605,"å°±":606,"rom":607,"Ġcount":608,"æŃ¤":609,"èĢħ":610,"éĩį":611,"ä¹ĭ":612,"over":613,"ç«":614,"ĠâĢľ":615,"åĮĸ":616,"op":617,"ä¾":618,"æľ¬":619,"ost":620,"æĸ°":621,"è¾":622,"ant":623,"ap":624,"å¾Ĺ":625,"ä¸ļ":626,"ĠB":627,"ical":628,"å¹¶":629,"åĪ¶":630,"æľº":631,"Ġim":632,"Ġfrom":633,"Ġcountr":634,"æĥ":635,"ĠChin":636,"Ġat":637,"os":638,"å®ļ":639,"ç®":640,"ia":641,"åĬł":642,"ions":643,"çĶ¨":644,"Ġor":645,"od":646,"ĠP":647,"art":648,"Ġmore":649,"é¡":650,"åĵ":651,"Ġits":652,"Ġch":653,"iz":654,"æı":655,"Ġhe":656,"åĲĮ":657,"å¢ŀ":658,"Ġy":659,"ä¸İ":660,"Ġtheir":661,"ure":662,"ç¨":663,"ome":664,"ast":665,"è¿Ľ":666,"åīį":667,"âĢľ":668,"ong":669,"éĺ":670,"è¶":671,"éģ":672,"æĸ¯":673,"ä½ľ":674,"ä¸ĸ":675,"urope":676,"åº¦":677,"äº§":678,"ĠG":679,"å½ĵ":680,"çĦ":681,"ib":682,"ä¸Ģä¸ª":683,"ans":684,"ĠM":685,"un":686,"åĪĨ":687,"Ġinc":688,"åºĶ":689,"æĮģ":690,"æ¬§æ´²":691,"ä¸ĭ":692,"éľ":693,"æŃ£":694,"ä½ĵ":695,"Ġint":696,"el":697,"äºĭ":698,"åħ¬":699,"éĥ½":700,"çĦ¶":701,"éĩĳ":702,"ff":703,"éļ":704,"åĲİ":705,"éĤ":706,"éĿ¢":707,"åħ³":708,"æŀľ":709,"ther":710,"Ġimp":711,"æĪĳä»¬":712,"Ġun":713,"çĲĨ":714,"é«":715,"row":716,"But":717,"Ġres":718,"red":719,"éĹ®":720,"é«ĺ":721,"ĠEurope":722,"ich":723,"anc":724,"ear":725,"å®ĥ":726,"ru":727,"ĠChina":728,"ak":729,"èģ":730,"çļĦç":731,"ect":732,"éĥ":733,"çŃĸ":734,"Ġwould":735,"æ²»":736,"å¤ĸ":737,"æ¯Ķ":738,"æ±":739,"åģ":740,"åı¯èĥ½":741,"mer":742,"æĹł":743,"éĥ¨":744,"æł·":745,"åºľ":746,"end":747,"åıĬ":748,"Ġthis":749,"æĶ¿åºľ":750,"çĽ¸":751,"gh":752,"Ġad":753,"all":754,"pt":755,"åħ¥":756,"ight":757,"åľº":758,"çķĮ":759,"è°":760,"Ġab":761,"ç½":762,"çĿ":763,"å·²":764,"èĭ":765,"å¯¼":766,"Ġcan":767,"é¢ĺ":768,"çĽŁ":769,"Ġwas":770,"overn":771,"Ġ20":772,"å¹³":773,"è¢":774,"æıĲ":775,"ary":776,"ä»İ":777,"ance":778,"Ġ1":779,"æĦı":780,"Ġag":781,"æľŁ":782,"åĲĪ":783,"éľĢ":784,"ĠUS":785,"In":786,"Ġcont":787,"Ġthey":788,"æĪĺ":789,"çĽ®":790,"Ġthan":791,"able":792,"åıĺ":793,"ç¡":794,"ĠR":795,"åĨ³":796,"ä»ĸä»¬":797,"å¸Ĥ":798,"ric":799,"du":800,"åŁº":801,"éĿŀ":802,"Ġcountries":803,"è¿ĺ":804,"è½":805,"éĹ®é¢ĺ":806,"ç®¡":807,"ational":808,"è¿Ļä¸Ģ":809,"ard":810,"çĲĥ":811,"Ġwhich":812,"ous":813,"Ġgovern":814,"çĿĢ":815,"ĠF":816,"Ġfin":817,"cc":818,"out":819,"æķ°":820,"çľ":821,"åĿ":822,"ç³":823,"éĢļ":824,"çī¹":825,"ç§į":826,"ip":827,"Ġall":828,"rou":829,"å¼Ģ":830,"00":831,"ates":832,"åĮº":833,"ud":834,"Th":835,"æģ":836,"Ġcomp":837,"åŃ¦":838,"æį":839,"éĤ£":840,"ated":841,"è¯¥":842,"ark":843,"ä¿Ŀ":844,"ä¸ĸçķĮ":845,"ign":846,"äºļ":847,"æĿĥ":848,"æĻ":849,"çİĩ":850,"ations":851,"çĶ±":852,"èģĶ":853,"ere":854,"ank":855,"ç»Ł":856,"Ġwhe":857,"Ġgrow":858,"é¢Ĩ":859,"åı¯ä»¥":860,"åĬ¡":861,"å·¥":862,"Ġworld":863,"è¯´":864,"æĬķ":865,"Ġexp":866,"Ġyear":867,"ä¹ī":868,"Ġrec":869,"åħĥ":870,"bal":871,"ult":872,"è¢«":873,"ie":874,"ress":875,"åıį":876,"åħ¨çĲĥ":877,"Ġman":878,"å°Ķ":879,"æĺİ":880,"æ²¡":881,"å¢ŀéķ¿":882,"Ġfa":883,"Ġ(":884,"Ġgovernment":885,"éĹ´":886,"æĶ¿çŃĸ":887,"åıĹ":888,"ven":889,"Ġj":890,"æĶ¯":891,"ä»£":892,"æ¶":893,"éĵ":894,"ike":895,"éĩı":896,"Ġeconomic":897,"lic":898,"è¿ĻäºĽ":899,"å»":900,"éĢī":901,"ä»»":902,"orm":903,"one":904,"åĨħ":905,"ĠT":906,"æĢ»":907,"ĠW":908,"ç¼":909,"Ġdo":910,"è§£":911,"Ġpolic":912,"reat":913,"Ġbut":914,"å¿ħ":915,"Ġdis":916,"ide":917,"ç³»":918,"Ġtr":919,"lobal":920,"ence":921,"Ġpart":922,"åĳĺ":923,"èĥ":924,"ç¤":925,"ç»ĵ":926,"å§":927,"èŀ":928,"æĪĸ":929,"æĶ¿æ²»":930,"Ġpolit":931,"ä½¿":932,"èŀį":933,"å±ķ":934,"ag":935,"æĶ¹":936,"Ġbec":937,"ĠD":938,"è®®":939,"Ġpl":940,"å·²ç»ı":941,"ĠN":942,"èĤ":943,"Ġinv":944,"Ġnew":945,"çĤ":946,"åħĭ":947,"ub":948,"ris":949,"ä»·":950,"è®¤":951,"Ġbeen":952,"æ¸":953,"è®¸":954,"og":955,"Ġout":956,"éĻħ":957,"Ġreg":958,"è®©":959,"æ²¡æľī":960,"Ġother":961,"æĭī":962,"æĶ¶":963,"Ġso":964,"age":965,"ine":966,"ree":967,"åħ±":968,"æ¬§çĽŁ":969,"ors":970,"ä¿¡":971,"åİ»":972,"æĹ¥":973,"çŁ":974,"è®¡":975,"éľĢè¦ģ":976,"ç«ĭ":977,"æº":978,"Ġpe":979,"ç©":980,"Ġme":981,"ep":982,"Ġdec":983,"å¾·":984,"arket":985,"ile":986,"¥¿":987,"åıĸ":988,"èµ·":989,"Ġover":990,"è·":991,"å¼º":992,"ction":993,"ime":994,"çĸ":995,"Ġglobal":996,"ç´":997,"å¸Ĥåľº":998,"lop":999,"å·´":1000,"è¡¨":1001,"åıª":1002,"velop":1003,"åį±":1004,"è¥¿":1005,"are":1006,"å¿ĥ":1007,"ll":1008,"éĵ¶":1009,"Ġgrowth":1010,"åĲĳ":1011,"ack":1012,"Ġlead":1013,"åĢº":1014,"Ġï¼Į":1015,"è¾¾":1016,"éĵ¶è¡Į":1017,"Ġtra":1018,"ä½İ":1019,"ose":1020,"èĭ±":1021,"Â·":1022,"Ġone":1023,"æŁ":1024,"form":1025,"so":1026,"ä¹Ī":1027,"è®º":1028,"æĺĵ":1029,"ï¼ļ":1030,"åħ¶ä»ĸ":1031,"æĥħ":1032,"é£":1033,"ian":1034,"å¾Ī":1035,"æĸ½":1036,"meric":1037,"æ±Ĥ":1038,"ower":1039,"Ġinter":1040,"çĤ¹":1041,"ens":1042,"åĽłä¸º":1043,"å¸¸":1044,"ally":1045,"éĽ":1046,"å¦Ĥæŀľ":1047,"æĬķèµĦ":1048,"æľª":1049,"Ġris":1050,"ä»Ĭ":1051,"ern":1052,"ren":1053,"éĢł":1054,"è¿ĳ":1055,"Ġind":1056,"ç¡®":1057,"ition":1058,"erm":1059,"é©":1060,"äºī":1061,"å¥½":1062,"Ġneed":1063,"ĠãĢĤ":1064,"Ġund":1065,"Ġfinanc":1066,"å¤±":1067,"ĠK":1068,"å°ĳ":1069,"ities":1070,"ä¸»ä¹ī":1071,"ue":1072,"Ġalso":1073,"our":1074,"Ġeff":1075,"Ġdem":1076,"ility":1077,"Ġmarket":1078,"çº¦":1079,"Ġshould":1080,"au":1081,"å»º":1082,"cy":1083,"æºĲ":1084,"èĩ´":1085,"çŃī":1086,"Ġlike":1087,"ä½ķ":1088,"éĩĳèŀį":1089,"reas":1090,"ĠJ":1091,"ç¨ĭ":1092,"èĩ³":1093,"ĠâĢĿ":1094,"Ġonly":1095,"åı£":1096,"ake":1097,"Ġcons":1098,"ä»¥åıĬ":1099,"Ġcould":1100,"Ġdevelop":1101,"Ġinvest":1102,"å¸ģ":1103,"ĠUn":1104,"é¡»":1105,"æłĩ":1106,"åıĳå±ķ":1107,"éļ¾":1108,"é¢Ħ":1109,"èī":1110,"æŀĦ":1111,"è§Ħ":1112,"çĽĬ":1113,"Ġcomm":1114,"èİ":1115,"Ġpolitical":1116,"å¿ħé¡»":1117,"çł":1118,"å¼ı":1119,"éĩĮ":1120,"Ġabout":1121,"ident":1122,"ire":1123,"ç»Ń":1124,"ĠAmeric":1125,"ople":1126,"ç±":1127,"Ġmost":1128,"èĲ":1129,"Ġpre":1130,"ĠH":1131,"å®ī":1132,"æ¬¡":1133,"åĬ©":1134,"åįģ":1135,"ç»Ħ":1136,"Ġacc":1137,"Ġbank":1138,"åĪĻ":1139,"Ġno":1140,"fic":1141,"ä¸¤":1142,"éģĵ":1143,"Ġsuch":1144,"ange":1145,"Ġï¼ī":1146,"Ġper":1147,"Ġstr":1148,"ä½į":1149,"ord":1150,"Ġwho":1151,"ative":1152,"æł¼":1153,"å½±":1154,"Ġlong":1155,"Ġcl":1156,"Ġnow":1157,"Ġbet":1158,"Ġthere":1159,"éĻ©":1160,"éĶ":1161,"ited":1162,"è´§":1163,"Ġpolicy":1164,"Ġcap":1165,"low":1166,"åį±æľº":1167,"æ¶Ī":1168,"Ġfinancial":1169,"ood":1170,"æ°Ķ":1171,"ä¾Ľ":1172,"ĠEuropean":1173,"Ġsupp":1174,"¾ä¼ļ":1175,"åĵį":1176,"æ¡":1177,"ments":1178,"Ġsp":1179,"éĿ©":1180,"æķĻ":1181,"uch":1182,"rit":1183,"Ġeven":1184,"ublic":1185,"ism":1186,"Ġpeople":1187,"åĲĦ":1188,"Ġup":1189,"åĽ½éĻħ":1190,"æķĪ":1191,"Ġqu":1192,"æĶ¾":1193,"Ġyears":1194,"ber":1195,"Ġ19":1196,"ĠEU":1197,"ble":1198,"ach":1199,"ew":1200,"DP":1201,"old":1202,"gy":1203,"æİ¥":1204,"å°½":1205,"Ġincreas":1206,"æ¨":1207,"åĢĻ":1208,"ĠL":1209,"Ġwork":1210,"åĨµ":1211,"ious":1212,"èĭ±åĽ½":1213,"Ġcur":1214,"Ġpr":1215,"å¤Ł":1216,"ä¸Ķ":1217,"Ġrem":1218,"Ġmany":1219,"Ġsome":1220,"éĩįè¦ģ":1221,"åĩł":1222,"åºĶè¯¥":1223,"yst":1224,"ces":1225,"ution":1226,"erv":1227,"æĥ³":1228,"illion":1229,"Ġinf":1230,"åģļ":1231,"Ġem":1232,"Ġwere":1233,"ital":1234,"int":1235,"æľĪ":1236,"de":1237,"bt":1238,"ç¬":1239,"Ġthem":1240,"æ¨¡":1241,"æį®":1242,"åĮħ":1243,"å½±åĵį":1244,"é¢Ĩå¯¼":1245,"201":1246,"åĢ¼":1247,"æŀģ":1248,"é©¬":1249,"è®¾":1250,"und":1251,"Ġeconomy":1252,"av":1253,"è¶Ĭ":1254,"Ġcountry":1255,"This":1256,"ä¸įæĺ¯":1257,"èį":1258,"æĻ®":1259,"åħ°":1260,"Ġif":1261,"act":1262,"ish":1263,"Ġapp":1264,"Ġunder":1265,"ause":1266,"Ġra":1267,"åħļ":1268,"ä»ħ":1269,"å®ĥä»¬":1270,"ç½Ĺ":1271,"lect":1272,"å¤§çļĦ":1273,"çĹ":1274,"Ġmust":1275,"ang":1276,"Ġhis":1277,"Ġrel":1278,"è´§å¸ģ":1279,"ough":1280,"èĻ":1281,"æ´»":1282,"ace":1283,"è´¢":1284,"Ġar":1285,"Ġ201":1286,"è§Ĥ":1287,"ï¼Ľ":1288,"æŃ¥":1289,"æĶ¯æĮģ":1290,"ame":1291,"amp":1292,"åį³":1293,"è½¬":1294,"çľĭ":1295,"Ġwhen":1296,"åĪĴ":1297,"éĢļè¿ĩ":1298,"ons":1299,"é¡¹":1300,"å¸ĥ":1301,"è£":1302,"ystem":1303,"éĻį":1304,"åŃĲ":1305,"å¤©":1306,"per":1307,"åĽłæŃ¤":1308,"åĪ«":1309,"Ġthese":1310,"æ°´":1311,"Ġk":1312,"Ġlar":1313,"Ġcris":1314,"Ġprodu":1315,"èº":1316,"eral":1317,"çĽ´":1318,"And":1319,"ç±»":1320,"åĩı":1321,"åľ°åĮº":1322,"sia":1323,"ĠSt":1324,"ä¼ģ":1325,"åĬ¿":1326,"ä¼Ĭ":1327,"åĪĽ":1328,"pect":1329,"very":1330,"å¸¦":1331,"Ġpower":1332,"éĺ¿":1333,"äº¤":1334,"ä»į":1335,"own":1336,"æĬĢ":1337,"Ġro":1338,"erest":1339,"å¼ķ":1340,"arly":1341,"æĺ¾":1342,"rough":1343,"é£İ":1344,"ç¾İåħĥ":1345,"æł¹":1346,"uc":1347,"Ġmay":1348,"è¿Ļæł·":1349,"ks":1350,"åĨį":1351,"we":1352,"ç¤¾ä¼ļ":1353,"é¦":1354,"ating":1355,"äºĭå®ŀ":1356,"æľĹ":1357,"ms":1358,"ount":1359,"vent":1360,"èº«":1361,"Ġsc":1362,"ç»Ļ":1363,"200":1364,"It":1365,"alth":1366,"ese":1367,"Ġsystem":1368,"Ġfir":1369,"19":1370,"Ġus":1371,"åįı":1372,"æµģ":1373,"æİ¨":1374,"åŃĺ":1375,"æĮĩ":1376,"è°ĥ":1377,"ass":1378,"æīĢæľī":1379,"Ġintern":1380,"Ġtw":1381,"cess":1382,"ä¸ľ":1383,"ï¼Ł":1384,"åĨĽ":1385,"æī¿":1386,"ĠO":1387,"Ġinto":1388,"Ġpo":1389,"Ġcent":1390,"ä½Ĩæĺ¯":1391,"èİ·":1392,"Ġte":1393,"åķ":1394,"åĵģ":1395,"Ġ%":1396,"Ġam":1397,"å§ĭ":1398,"æĸ¹éĿ¢":1399,"åı¸":1400,"åĤ":1401,"éĴ":1402,"resident":1403,"ory":1404,"Ġmuch":1405,"Ġwhat":1406,"Ġtime":1407,"stit":1408,"Ġsoc":1409,"æĿ¡":1410,"Ġhow":1411,"Ġrep":1412,"æ»":1413,"å¤Ħ":1414,"Ġleaders":1415,"åİŁ":1416,"ä¼ģä¸ļ":1417,"ond":1418,"Ġinterest":1419,"fter":1420,"ä»Ģ":1421,"å¢ĥ":1422,"ä¼¼":1423,"Ġact":1424,"ced":1425,"Ġatt":1426,"Ġcrisis":1427,"è®¤ä¸º":1428,"å°½ç®¡":1429,"Ġhad":1430,"å®ŀçİ°":1431,"çĻ":1432,"lud":1433,"oss":1434,"è´¹":1435,"æ·":1436,"å°ı":1437,"Ġpublic":1438,"ert":1439,"æĭħ":1440,"èĦ":1441,"ä¹İ":1442,"get":1443,"Ġco":1444,"ild":1445,"æ°ĳä¸»":1446,"äº¿":1447,"æĪĲä¸º":1448,"è¿ľ":1449,".âĢĿ":1450,"æŃ£åľ¨":1451,"åķĨ":1452,"åĲĮæĹ¶":1453,"ç¨İ":1454,"çķ¥":1455,"ific":1456,"è®¡åĪĴ":1457,"Ġow":1458,"æľ¯":1459,"ov":1460,"çļĦæĺ¯":1461,"éĢŁ":1462,"è´¸":1463,"Ġany":1464,"çī©":1465,"ä¸¥":1466,"å¤į":1467,"olog":1468,"çĽ®æłĩ":1469,"Ġrecent":1470,"åħ·":1471,"ç§ĳ":1472,"æĹłæ³ķ":1473,"Ġhigh":1474,"Ġmon":1475,"Ġreal":1476,"Ġtrans":1477,"ä¸ī":1478,"ible":1479,"ful":1480,"è¯ģ":1481,"ç¦":1482,"å¸Į":1483,"çļĦäºº":1484,"its":1485,"è§£åĨ³":1486,"çĬ":1487,"imate":1488,"ual":1489,"æĭ¬":1490,"ists":1491,"æ¬§åħĥ":1492,"æŃ¢":1493,"æıĲä¾Ľ":1494,"ade":1495,"å°¼":1496,"hip":1497,"éĩĩ":1498,"Ġjust":1499,"è®¸å¤ļ":1500,"åŀ":1501,"éļı":1502,"æľĽ":1503,"ruct":1504,"ä¸¾":1505,"ral":1506,"å¨":1507,"æīĭ":1508,"Ġdif":1509,"ĠAf":1510,"ient":1511,"åĮħæĭ¬":1512,"Ġproble":1513,"Ġimport":1514,"Ġ200":1515,"ob":1516,"çİ°åľ¨":1517,"ä¿Ħ":1518,"Ġfar":1519,"Ġfore":1520,"Ġinternational":1521,"ok":1522,"æĢ»ç»Ł":1523,"hed":1524,"ĠUnited":1525,"åįĩ":1526,"ä¼Ĺ":1527,"hen":1528,"vers":1529,"Ġconf":1530,"éĥ¨åĪĨ":1531,"å¯¼èĩ´":1532,"Ġagain":1533,"iss":1534,"è¯Ĩ":1535,"å£":1536,"As":1537,"æļ":1538,"Ġwar":1539,"ization":1540,"åĤ¨":1541,"urn":1542,"èĥ½å¤Ł":1543,"Ġref":1544,"è¿Ľè¡Į":1545,"è¶³":1546,"æľį":1547,"Ġwell":1548,"æ¡Ī":1549,"ç»ĩ":1550,"Ġac":1551,"å¢ŀåĬł":1552,"åį´":1553,"æł¸":1554,"ç»´":1555,"Ġbecause":1556,"Ġcontin":1557,"ics":1558,"ase":1559,"ives":1560,"è´¸æĺĵ":1561,"æĥħåĨµ":1562,"¨Ģ":1563,"è¨Ģ":1564,"åĥ":1565,"çģ":1566,"ject":1567,"ise":1568,"ax":1569,"åħ¬åı¸":1570,"å¼Ģå§ĭ":1571,"Ġpric":1572,"å·±":1573,"é¦ĸ":1574,"ç¥":1575,"uring":1576,"¿½":1577,"ï¿½":1578,"Ġdebt":1579,"ied":1580,"ç»Ħç»ĩ":1581,"ä¸ĩ":1582,"åĽŀ":1583,"æĶ¹éĿ©":1584,"åĢºåĬ¡":1585,"æķ´":1586,"read":1587,"ry":1588,"å¦ĤæŃ¤":1589,"Ġprov":1590,"åĸ":1591,"å°±æĺ¯":1592,"èĩªå·±":1593,"åĲį":1594,"Ġtwo":1595,"ä»¤":1596,"Ġway":1597,"æĬ¥":1598,"å¯Į":1599,"è§Ĩ":1600,"çĥ":1601,"å¤®":1602,"Ġsupport":1603,"çľŁ":1604,"ä»¶":1605,"Ġgen":1606,"ç¬¬":1607,"Ġthose":1608,"è¿Ļä¸ª":1609,"åĲ¦":1610,"Ġremain":1611,"å½¢":1612,"ä¾ĭ":1613,"oth":1614,"iven":1615,"ption":1616,"æ³¨":1617,"pec":1618,"è¿Ĳ":1619,"æĶ¶åħ¥":1620,"åĩĨ":1621,"lear":1622,"åĳ½":1623,"å¡":1624,"äºĮ":1625,"å¨ģ":1626,"ite":1627,"ween":1628,"ward":1629,"âĢĶ":1630,"å±Ģ":1631,"iet":1632,"ove":1633,"æ¿":1634,"åį°":1635,"Ġless":1636,"éĻĲ":1637,"çļĦç»ıæµİ":1638,"vel":1639,"oll":1640,"Ġfact":1641,"ç²":1642,"Ġdef":1643,"æ®":1644,"èĩªçĶ±":1645,"opul":1646,"ound":1647,"ĠChinese":1648,"any":1649,"æ¿Ģ":1650,"å®Į":1651,"Ġend":1652,"é»":1653,"sel":1654,"itt":1655,"rent":1656,"Ġbetween":1657,"inist":1658,"ind":1659,"ration":1660,"çļĦä¸Ģ":1661,"åıĺåĮĸ":1662,"ç§»":1663,"Ġadd":1664,"é£İéĻ©":1665,"æľªæĿ¥":1666,"ues":1667,"Ġent":1668,"ice":1669,"è´¢æĶ¿":1670,"eed":1671,"æĸŃ":1672,"éĢĢ":1673,"çºª":1674,"Ġdep":1675,"åĩ»":1676,"è±":1677,"chn":1678,"ene":1679,"æĬĢæľ¯":1680,"Ġeffect":1681,"åİĨ":1682,"éĻ¤":1683,"æµ·":1684,"çŁ¥":1685,"ures":1686,"ail":1687,"åŃĹ":1688,"ize":1689,"Ġcapital":1690,"Ġmod":1691,"Ġdes":1692,"Ġopp":1693,"äºĭå®ŀä¸Ĭ":1694,"æ¬¾":1695,"éĽĨ":1696,"Ġwhile":1697,"äººä»¬":1698,"çİ¯":1699,"èī²":1700,"æľºæŀĦ":1701,"æĬ¤":1702,"Ġright":1703,"ict":1704,"ä¾Ŀ":1705,"ings":1706,"çĹħ":1707,"Ġprog":1708,"aj":1709,"è¿Ļç§į":1710,"å¸¦æĿ¥":1711,"ural":1712,"Ġinclud":1713,"éĹ¨":1714,"ä¸´":1715,"å®īåħ¨":1716,"Ġhel":1717,"cur":1718,"ç©¶":1719,"ç®Ĺ":1720,"å·¨":1721,"ä¼ł":1722,"è¶ħ":1723,"çĭ":1724,"åħĪ":1725,"Ġown":1726,"ä¸»è¦ģ":1727,"aw":1728,"ability":1729,"Ġpopul":1730,"Ġour":1731,"è´£":1732,"èµĦæľ¬":1733,"æ¯ı":1734,"ç¨³":1735,"åĽ°":1736,"éķ¿æľŁ":1737,"Ġlarge":1738,"çª":1739,"Ġmem":1740,"Ġeuro":1741,"ç»Ī":1742,"ç¡Ģ":1743,"åŁºç¡Ģ":1744,"è¯Ŀ":1745,"ince":1746,"åĬŁ":1747,"çĽĳ":1748,"ĠAmerica":1749,"çĶµ":1750,"èİ·å¾Ĺ":1751,"allen":1752,"round":1753,"Ġadv":1754,"Âł":1755,"æĮģç»Ń":1756,"åŀĭ":1757,"Ġfirst":1758,"Ġsur":1759,"Ġhelp":1760,"Ġresp":1761,"ĠAfric":1762,"Ġcost":1763,"è´Ł":1764,"Ġnational":1765,"ä¸ĢäºĽ":1766,"å®ĺ":1767,"Ġoff":1768,"éĿŀæ´²":1769,"çĶŁäº§":1770,"Ġinvestment":1771,"Ġrequ":1772,"led":1773,"For":1774,"50":1775,"Ġchange":1776,"åıĳçĶŁ":1777,"Ġbanks":1778,"æĸĩ":1779,"æ´¾":1780,"rib":1781,"Ġass":1782,"å·¥ä½ľ":1783,"Ġlast":1784,"éª":1785,"term":1786,"ri":1787,"ential":1788,"ĠInd":1789,"Ġstate":1790,"ergy":1791,"Ġexamp":1792,"è·¯":1793,"åľŁ":1794,"æīį":1795,"è¾¹":1796,"ĠRus":1797,"Ġtechn":1798,"ajor":1799,"cal":1800,"èħ":1801,"Ġfund":1802,"åįĹ":1803,"åĪĹ":1804,"é¢Ĩå¯¼äºº":1805,"ump":1806,"Ġredu":1807,"Ġsim":1808,"ty":1809,"ç»Ŀ":1810,"çĶļ":1811,"æĦŁ":1812,"loy":1813,"Ġtrade":1814,"Ġcurrent":1815,"rat":1816,"Ġob":1817,"æĢģ":1818,"aking":1819,"Ġreform":1820,"æŁĲ":1821,"Ġresult":1822,"èĥ½æºĲ":1823,"Ġbo":1824,"ä»Ģä¹Ī":1825,"Ġthrough":1826,"å¾Ģ":1827,"ä¹ĭéĹ´":1828,"ilit":1829,"ç¢":1830,"utions":1831,"ç´ł":1832,"æĬĬ":1833,"orts":1834,"Ġtax":1835,"åĨ²":1836,"å¤ĩ":1837,"åĳĬ":1838,"Ġsub":1839,"les":1840,"çĽ®åīį":1841,"30":1842,"ized":1843,"On":1844,"Ġmarkets":1845,"Ġsign":1846,"Ġ$":1847,"Ġ2":1848,"Ġpartic":1849,"èĤ²":1850,"ç½Ĺæĸ¯":1851,"Ġcre":1852,"Ġmajor":1853,"Ġafter":1854,"éĩĩåıĸ":1855,"Ġagainst":1856,"Ġconc":1857,"Ġseem":1858,"Ġinfl":1859,"Wh":1860,"åĭ":1861,"æģ¯":1862,"æİ§":1863,"æİª":1864,"æĽ´åĬł":1865,"å¾·åĽ½":1866,"è§ģ":1867,"æĮĳ":1868,"oun":1869,"Ķç©¶":1870,"Ġexample":1871,"è¡ĮåĬ¨":1872,"ä»»ä½ķ":1873,"ç»ĵæŀľ":1874,"åŃĺåľ¨":1875,"fere":1876,"Ġappro":1877,"çĪ":1878,"åħį":1879,"Ġhum":1880,"ä¸ĸçºª":1881,"çł´":1882,"Ġboth":1883,"ç»§":1884,"å²":1885,"000":1886,"æ°ĶåĢĻ":1887,"è¦ģæ±Ĥ":1888,"Ġhealth":1889,"å¥¥":1890,"Ġgreat":1891,"åħ³ç³»":1892,"Ġkn":1893,"åİĭ":1894,"éĤ£äºĽ":1895,"åĥı":1896,"gest":1897,"Ġgo":1898,"é²":1899,"Ġext":1900,"èĢĥ":1901,"ging":1902,"çº§":1903,"ç«ŀ":1904,"Ġdemoc":1905,"æŀĹ":1906,"è¯º":1907,"If":1908,"Ġbecome":1909,"ically":1910,"Ġgood":1911,"Ġregion":1912,"å¹´çļĦ":1913,"ram":1914,"çªģ":1915,"å¤ª":1916,"ract":1917,"Ġke":1918,"Ġwhere":1919,"Ġrates":1920,"Ġchallen":1921,"è´·":1922,"åį°åº¦":1923,"æľĢè¿ĳ":1924,"Ġtoo":1925,"Ġcor":1926,"Ġaut":1927,"æĽ´å¤ļ":1928,"æħ":1929,"æ·±":1930,"day":1931,"èĬ":1932,"éĤ£ä¹Ī":1933,"è¿ĩåİ»":1934,"ex":1935,"å®¹":1936,"iness":1937,"Ġmake":1938,"ä¿Ħç½Ĺæĸ¯":1939,"å¿«":1940,"è±¡":1941,"ts":1942,"æī©":1943,"ç¼º":1944,"ting":1945,"åĪ°äºĨ":1946,"GDP":1947,"çī¹åĪ«":1948,"æĪĲåĳĺ":1949,"Ġimportant":1950,"Ġlo":1951,"ç¤º":1952,"curity":1953,"Ġforeign":1954,"omm":1955,"çļĦåĽ½å®¶":1956,"Ġgovernments":1957,"gan":1958,"Ġest":1959,"Ġdevelopment":1960,"ä¸įä¼ļ":1961,"Ġsocial":1962,"å¤®è¡Į":1963,"ç¨³å®ļ":1964,"Ġinstit":1965,"ortun":1966,"Ġenergy":1967,"éħ":1968,"æĮĳæĪĺ":1969,"åı²":1970,"ices":1971,"åįķ":1972,"Ġdemand":1973,"åıĤ":1974,"æĦ¿":1975,"çº³":1976,"åŁŁ":1977,"éĢłæĪĲ":1978,"ron":1979,"æĪĲåĬŁ":1980,"åĮ»":1981,"ä½ľä¸º":1982,"è§Ħæ¨¡":1983,"æĹ¥æľ¬":1984,"Ġeconomies":1985,"Ġstrate":1986,"ä¸ŃåĽ½çļĦ":1987,"ĠIs":1988,"apan":1989,"ploy":1990,"ather":1991,"Ġfail":1992,"Ġbu":1993,"ready":1994,"ater":1995,"ĠGerm":1996,"çĶļèĩ³":1997,"ä»·æł¼":1998,"Ġemer":1999,"åĪ¤":2000,"king":2001,"ending":2002,"åĲĪä½ľ":2003,"not":2004,"åĪĩ":2005,"çİ¯å¢ĥ":2006,"è´¨":2007,"ĠGDP":2008,"Ġbene":2009,"éĿ¢ä¸´":2010,"åĬ³":2011,"Ġpolicies":2012,"æ¼":2013,"æĴ":2014,"ä¹Łæĺ¯":2015,"åĪ©çĽĬ":2016,"Ind":2017,"ä¸¥éĩį":2018,"ç´§":2019,"Ġfut":2020,"åĽ½åĨħ":2021,"è¡¡":2022,"åĶ":2023,"æĢ§çļĦ":2024,"Ġrest":2025,"ense":2026,"Ġsol":2027,"æİĴ":2028,"å¼±":2029,"als":2030,"å¥³":2031,"Ġdom":2032,"Ġprom":2033,"å§Ķ":2034,"è¿Ļæł·çļĦ":2035,"Ġprot":2036,"Ġserv":2037,"ath":2038,"åħ´":2039,"åĨľ":2040,"æĹ¶éĹ´":2041,"Ġval":2042,"åįł":2043,"Ġdoes":2044,"ision":2045,"äºļæ´²":2046,"Ġtechnolog":2047,"Ġstill":2048,"çĸĹ":2049,"åĳ³":2050,"Ġrisk":2051,"ft":2052,"Ġback":2053,"That":2054,"æĪĺçķ¥":2055,"Ġevery":2056,"ĠStates":2057,"usiness":2058,"fore":2059,"åıĪ":2060,"Ġoffic":2061,"eg":2062,"Ġtoday":2063,"èģĶåĲĪ":2064,"åĨ³å®ļ":2065,"è¯ķ":2066,"less":2067,"ä»¥æĿ¥":2068,"Ġalready":2069,"åĪ©çİĩ":2070,"æ¯Ķå¦Ĥ":2071,"æ¶Īè´¹":2072,"åįģå¹´":2073,",âĢĿ":2074,"æīĵ":2075,"è°Ī":2076,"Ġfuture":2077,"æŃ¤å¤ĸ":2078,"å¯¹äºİ":2079,"Ġcour":2080,"æĸ°çļĦ":2081,"Ġret":2082,"etary":2083,"More":2084,"ç»§ç»Ń":2085,"ä¸įåĲĮ":2086,"äº¿ç¾İåħĥ":2087,"Ġiss":2088,"ss":2089,"ually":2090,"äººæ°ĳ":2091,"ĠCh":2092,"Ġrate":2093,"ĠPresident":2094,"æľįåĬ¡":2095,"è¯Ħ":2096,"æĳ":2097,"iscal":2098,"ning":2099,"ç§°":2100,"æ¬§åħĥåĮº":2101,"Ġlevel":2102,"åĮĹ":2103,"Ġbas":2104,"å¦Ĥä½ķ":2105,"æİªæĸ½":2106,"å¹¶ä¸į":2107,"ç¦»":2108,"eration":2109,"å¦Ĥä»Ĭ":2110,"åĸĦ":2111,"Ġsame":2112,"outh":2113,"æĦıåĳ³":2114,"è´¥":2115,"Ġcred":2116,"Ġsa":2117,"Ġbillion":2118,"ined":2119,"å»ºç«ĭ":2120,"ians":2121,"åı¦":2122,"Ġconsum":2123,"æķĻèĤ²":2124,"éĺ²":2125,"åħ¬åħ±":2126,"ä¸ĢçĽ´":2127,"Ġstrong":2128,"æĹı":2129,"æĭ©":2130,"way":2131,"æĪĲæľ¬":2132,"æ½":2133,"èĮ":2134,"äººçļĦ":2135,"iew":2136,"äº§çĶŁ":2137,"ten":2138,"ĠJapan":2139,"æ°´å¹³":2140,"zone":2141,"èĻĳ":2142,"Ġhuman":2143,"Ġmilit":2144,"Ġequ":2145,"ä¸ŃçļĦ":2146,"Ġindust":2147,"Ġuse":2148,"ially":2149,"ingly":2150,"Ġins":2151,"Ġmain":2152,"Ġproblem":2153,"éĢīæĭ©":2154,"Ġleg":2155,"ran":2156,"Ġed":2157,"çī¹æľĹ":2158,"Ġpur":2159,"å®³":2160,"ctor":2161,"åıªæľī":2162,"ä¸Ģç§į":2163,"Ġlow":2164,"ĠBrit":2165,"æľºä¼ļ":2166,"èĢĮä¸Ķ":2167,"æµĭ":2168,"æıĲé«ĺ":2169,"æĦıåĳ³çĿĢ":2170,"åŃ¦å®¶":2171,"åħħ":2172,"ĠTr":2173,"åĬĽçļĦ":2174,"Ġbenef":2175,"çī¹æľĹæĻ®":2176,"åĽ¾":2177,"90":2178,"ä½ľçĶ¨":2179,"ality":2180,"Ġbusiness":2181,"Ġset":2182,"ç§ģ":2183,"ants":2184,"æĭ¥":2185,"rast":2186,"åĽ¢":2187,"Ġdiffere":2188,"Ġsince":2189,"ouse":2190,"Ġel":2191,"åĩºçİ°":2192,"åŁĥ":2193,"Ġlikely":2194,"der":2195,"çłĶç©¶":2196,"Ġbeing":2197,"Ġsm":2198,"Ġproduct":2199,"iron":2200,"Ġcentral":2201,"é¢Ŀ":2202,"åĿ¦":2203,"è¡¨æĺİ":2204,"Ġclimate":2205,"Ġann":2206,"ï¿½ï¿½":2207,"æĤ":2208,"æ¸ħ":2209,"ared":2210,"Ġfiscal":2211,"ä¸ĭéĻį":2212,"èĥģ":2213,"çĸĳ":2214,"éģ¿":2215,"å´":2216,"Ġshort":2217,"ĠWest":2218,"èĪ":2219,"inc":2220,"æģĲ":2221,"å®£":2222,"æĿ¥è¯´":2223,"Ġregul":2224,"ä»įçĦ¶":2225,"ges":2226,"å¨ģèĥģ":2227,"ably":2228,"),":2229,"ily":2230,"ä¸ĵ":2231,"Ġmight":2232,"æĢĿ":2233,"éĥ¨éĹ¨":2234,"ä¼¦":2235,"other":2236,"ä¾¿":2237,"èĥĢ":2238,"éļıçĿĢ":2239,").":2240,"ĠRussia":2241,"å¤´":2242,"Ġelect":2243,"åĻ":2244,"è´«":2245,"åĲĮæł·":2246,"æ®µ":2247,"Ġpos":2248,"åºŃ":2249,"Ġdisc":2250,"çĭ¬":2251,"Ġtake":2252,"ä¿ĿæĬ¤":2253,"å®ŀæĸ½":2254,"çĬ¶":2255,"Indeed":2256,"hing":2257,"ä»½":2258,"ä»¤äºº":2259,"pl":2260,"ever":2261,"èĭı":2262,"Ġpriv":2263,"ĠBank":2264,"mental":2265,"æĪĺäºī":2266,"ĠSe":2267,"ç½ĳ":2268,"å®ŀéĻħ":2269,"ccess":2270,"åĽ½å®¶çļĦ":2271,"Ġterm":2272,"Chin":2273,"åĿı":2274,"å¹²":2275,"tern":2276,"abor":2277,"Ġes":2278,"ĠAfrica":2279,"ç«ŀäºī":2280,"imes":2281,"å¸ĮæľĽ":2282,"åİĨåı²":2283,"Ġwithout":2284,"Ġop":2285,"åİŁåĽł":2286,"Ġprices":2287,"ving":2288,"Ġsee":2289,"åŁİ":2290,"ç¼©":2291,"ell":2292,"æļ´":2293,"ä»ĺ":2294,"Ġbr":2295,"èĳ":2296,"è¿«":2297,"Ġcommun":2298,"å±Ĥ":2299,"Ġparticul":2300,"å¹¶ä¸Ķ":2301,"ç³»ç»Ł":2302,"Ġmade":2303,"ger":2304,"Ġpoint":2305,"bers":2306,"ior":2307,"ness":2308,"æľĢç»Ī":2309,"å¹¿":2310,"ider":2311,"è¡Įä¸º":2312,"ck":2313,"ency":2314,"èµĦäº§":2315,"Ġincluding":2316,"ä¸ĢæŃ¥":2317,"ç¾İåĽ½çļĦ":2318,"å¾ĭ":2319,"ĠAmerican":2320,"åĽ½çļĦ":2321,"éľĢæ±Ĥ":2322,"åĿĩ":2323,"èĤ¡":2324,"çĽĳç®¡":2325,"èģĶçĽŁ":2326,"Ġreas":2327,"éªĮ":2328,"tal":2329,"ved":2330,"ä½¿çĶ¨":2331,"Ġdecl":2332,"æŃ»":2333,"å¼ł":2334,"çĶŁæ´»":2335,"åĪ¶åº¦":2336,"Ġcompet":2337,"Ġthreat":2338,"ĠAsia":2339,"éĶ®":2340,"Ġdown":2341,"æĶ¹åıĺ":2342,"çļĦéĹ®é¢ĺ":2343,"hold":2344,"Ġvot":2345,"Ġcall":2346,"èĥ½åĬĽ":2347,"åħ³éĶ®":2348,"æĭ¥æľī":2349,"Ġeduc":2350,"ines":2351,"Ġbel":2352,"ieve":2353,"Ġmilitary":2354,"ivers":2355,"ä¸įåı¯":2356,"æ²¹":2357,"Ġbetter":2358,"xt":2359,"ged":2360,"ä»·åĢ¼":2361,"land":2362,"ä¸įèĥ½":2363,"ç»ıæµİä½ĵ":2364,"è¿°":2365,"æ³¢":2366,"Ġneg":2367,"Ġser":2368,"Ġmed":2369,"æ»¡":2370,"ertain":2371,"æĸ¹æ¡Ī":2372,"viron":2373,"Ġcannot":2374,"ä¼¯":2375,"æĿ¥èĩª":2376,"åĪ©äºļ":2377,"æ£":2378,"abl":2379,"æŃ¦":2380,"ç§»æ°ĳ":2381,"Ġeurozone":2382,"éĻ·":2383,"Ġsuccess":2384,"Ġexpect":2385,"éĶĻ":2386,"èĲ¥":2387,"uel":2388,"Ġposs":2389,"Ġstand":2390,"To":2391,"è¿Ļæĺ¯":2392,"ä¼°":2393,"Ġimpro":2394,"åħ±åĲĮ":2395,"è½»":2396,"åįıè®®":2397,"åĻ¨":2398,"ĠV":2399,"ç®¡çĲĨ":2400,"ĠThe":2401,"åŁºéĩĳ":2402,"è¾ĥ":2403,"äºĴ":2404,"éĻįä½İ":2405,"åĬ³åĬ¨":2406,"æĸ¯åĿ¦":2407,"çī¹åĪ«æĺ¯":2408,"éŁ":2409,"ä¼¼ä¹İ":2410,"hor":2411,"cond":2412,"é¡¹çĽ®":2413,"åĩºåı£":2414,"Ġjob":2415,"ä¸įä»ħ":2416,"èµĦæºĲ":2417,"æİ§åĪ¶":2418,"æĹ¶åĢĻ":2419,"Ġagree":2420,"ä»ĸä»¬çļĦ":2421,"Ġstates":2422,"ience":2423,"Ġquest":2424,"Ġfac":2425,"æĿŁ":2426,"Ġknow":2427,"åį¡":2428,"ç¥¨":2429,"anies":2430,"ä¸ºäºĨ":2431,"å§Ķåĳĺ":2432,"Ġpers":2433,"Ġhig":2434,"æī¿è¯º":2435,"Ġaff":2436,"ãĢĬ":2437,"ãĢĭ":2438,"ute":2439,"æľīæķĪ":2440,"ç¿":2441,"Ġter":2442,"ĠY":2443,"here":2444,"Ġtoward":2445,"ructure":2446,"Ġmillion":2447,"æĻ¯":2448,"Ġdid":2449,"æī§":2450,"çŁ³":2451,"cept":2452,"èµĦéĩĳ":2453,"åĳ¨":2454,"Ġcontro":2455,"èĦ±":2456,"li":2457,"Ġoften":2458,"éĢīä¸¾":2459,"è¥¿æĸ¹":2460,"ĠTrump":2461,"Ġdist":2462,"idd":2463,"China":2464,"80":2465,"ĠDe":2466,"Ġprop":2467,"åıįå¯¹":2468,"åĽĽ":2469,"ars":2470,"stain":2471,"Ġanother":2472,"Ġide":2473,"Ġpay":2474,"Ġstart":2475,"è¿ĺæĺ¯":2476,"æĺ¯åĲ¦":2477,"äººåı£":2478,"orld":2479,"ĠIndia":2480,"ĠUnion":2481,"vol":2482,"ollow":2483,"Ġimm":2484,"Ġcourse":2485,"ä½ł":2486,"Ġenviron":2487,"ä¼ĬæľĹ":2488,"éĿŀå¸¸":2489,"åĩıå°ĳ":2490,"Ġclo":2491,"Ġaccount":2492,"With":2493,"arch":2494,"å¯Ĩ":2495,"Ġprocess":2496,"Ġsustain":2497,"Ġsecurity":2498,"Ġthree":2499,"racy":2500,"æ³ķåĽ½":2501,"åį«":2502,"èµ°":2503,"å¤ļæķ°":2504,"éĺ»":2505,"åĨ³çŃĸ":2506,"lement":2507,"ources":2508,"åĪĽéĢł":2509,"Ġapproach":2510,"æİ¥åıĹ":2511,"åĦ":2512,"Ġdire":2513,"ÂłÂł":2514,"åĽłç´ł":2515,"åĵĪ":2516,"Ġant":2517,"Ġcompanies":2518,"Ġhard":2519,"ury":2520,"ents":2521,"æŁ¥":2522,"éĴĪ":2523,"ately":2524,"Ġarg":2525,"uclear":2526,"ered":2527,"Ġap":2528,"Ġorder":2529,"Ġthen":2530,"Ġhist":2531,"æĸ¹å¼ı":2532,"åĲĦåĽ½":2533,"ivity":2534,"ployment":2535,"Ġcurren":2536,"orth":2537,"Ġpres":2538,"åħ¶ä¸Ń":2539,"Ġmove":2540,"æı´":2541,"åĪº":2542,"ĠEast":2543,"ĠComm":2544,"æ±ĩ":2545,"ä½ĵç³»":2546,"å§Ķåĳĺä¼ļ":2547,"éĻ¢":2548,"æķ°æį®":2549,"çļĦæĥħåĨµ":2550,"åı°":2551,"Ġpast":2552,"æĸĻ":2553,"å·®":2554,"Ġpot":2555,"ross":2556,"åıĹåĪ°":2557,"Ġturn":2558,"å¤§éĥ¨åĪĨ":2559,"çŁŃ":2560,"Ġtrad":2561,"çħ":2562,"ä»İèĢĮ":2563,"Ġlaw":2564,"Ġallow":2565,"Ġmeas":2566,"ç¨ĭåº¦":2567,"self":2568,"io":2569,"Ġloc":2570,"Ġmonetary":2571,"por":2572,"Ġview":2573,"æĹ©":2574,"ä¹Łè®¸":2575,"iving":2576,"Ġav":2577,"rem":2578,"There":2579,"ä¿ĥ":2580,"åģ¥":2581,"Ġrul":2582,"æĽ¾":2583,"ocus":2584,"æįŁ":2585,"cing":2586,"ink":2587,"road":2588,"ades":2589,"åį³ä½¿":2590,"åĦ¿":2591,"ä¸įæĸŃ":2592,"åĩłä¹İ":2593,"åĨ²çªģ":2594,"Ġinstitutions":2595,"Ġput":2596,"Ġfew":2597,"å¸®":2598,"10":2599,"Ġvery":2600,"Ġamong":2601,"ä¸Ģæł·":2602,"ĠInt":2603,"Ġbefore":2604,"ph":2605,"åĢŁ":2606,"Ġaddress":2607,"èĢĥèĻĳ":2608,"Ġofficial":2609,"stand":2610,"æľīåı¯èĥ½":2611,"Ġine":2612,"Ġleast":2613,"Ġchild":2614,"roup":2615,"æĻº":2616,"å¸Ń":2617,"Ġaround":2618,"ĠGermany":2619,"ç¡®ä¿Ŀ":2620,"Ġprotect":2621,"ä¼ĺ":2622,"æĬĹ":2623,"ç§¯":2624,"ä¸ĬçļĦ":2625,"ivid":2626,"å®Įåħ¨":2627,"Ġeas":2628,"Ġens":2629,"osed":2630,"è¶ħè¿ĩ":2631,"They":2632,"ä¿ĿæĮģ":2633,"Ġplay":2634,"ç«¯":2635,"uge":2636,"è¯¯":2637,"Ġincome":2638,"ç©º":2639,"ening":2640,"Ġfollow":2641,"åľ°æĸ¹":2642,"åĵ¥":2643,"åĴĮå¹³":2644,"è§Ĵ":2645,"Ġnext":2646,"é¢ĨåŁŁ":2647,"å½ĵçĦ¶":2648,"Ġlim":2649,"çĶ±äºİ":2650,"æī¹":2651,"Ġincrease":2652,"We":2653,"åĴĮåħ¶ä»ĸ":2654,"Ġtar":2655,"Moreover":2656,"Ġfocus":2657,"åĽ´":2658,"å¡ŀ":2659,"ead":2660,"çļĦæľĢ":2661,"Ġopportun":2662,"è°ĪåĪ¤":2663,"æ¨¡å¼ı":2664,"è®¾æĸ½":2665,"ued":2666,"Ġprivate":2667,"éĢĤ":2668,"åĬĽéĩı":2669,"çº¿":2670,"rug":2671,"åģľ":2672,"So":2673,"ves":2674,"Ġpresident":2675,"Ġchang":2676,"æıĲåĩº":2677,"åĲ¸":2678,"è¡¥":2679,"estic":2680,"most":2681,"Ġcar":2682,"itions":2683,"Ġpress":2684,"æĪ¿":2685,"èĩªèº«":2686,"è¿Ľä¸ĢæŃ¥":2687,"å¾ĹåĪ°":2688,"å¤ĸäº¤":2689,"Ġrole":2690,"ĠIn":2691,"Ġexper":2692,"ä¹ĭä¸Ģ":2693,"Ġinflation":2694,"Ġlabor":2695,"å®¶åºŃ":2696,"Ġplan":2697,"è£ģ":2698,"çĻ¾":2699,"Ġadm":2700,"Ġauthor":2701,"Ġpotential":2702,"èĮĥ":2703,"åŁİå¸Ĥ":2704,"æ¢":2705,"çļĦæĶ¿æ²»":2706,"åĪ¸":2707,"èĢĮä¸įæĺ¯":2708,"sian":2709,"ĠFed":2710,"oney":2711,"ĠWorld":2712,"Ġweak":2713,"åī§":2714,"åīĬ":2715,"Ġnum":2716,"urther":2717,"æĪĸèĢħ":2718,"äºĨä¸Ģ":2719,"éĤ£æł·":2720,"éĺŁ":2721,"è¿ĺæľī":2722,"Ġneeds":2723,"Ġdeveloping":2724,"èĻ½":2725,"iddle":2726,"ying":2727,"Ġach":2728,"Ġinn":2729,"ä¹Į":2730,"up":2731,"vere":2732,"ĠSouth":2733,"å°±ä¸ļ":2734,"éĩįæĸ°":2735,"èģĶåĲĪåĽ½":2736,"ĠIran":2737,"Ġrise":2738,"åıĳè¾¾":2739,"Ġform":2740,"åĪ¶å®ļ":2741,"omen":2742,"Ġnuclear":2743,"é¡¿":2744,"ages":2745,"è®°":2746,"å¹´ä»£":2747,"ĠFr":2748,"Ġproblems":2749,"Ġmembers":2750,"Ġful":2751,"å£°":2752,"ama":2753,"Ġcredit":2754,"èģĮ":2755,"éĿł":2756,"ittle":2757,"Ġeffective":2758,"Ġdefic":2759,"ratic":2760,"Ġwhether":2761,"ç¼ĵ":2762,"Ġ3":2763,"60":2764,"lection":2765,"Ġprof":2766,"ances":2767,"èĻ½çĦ¶":2768,"At":2769,"Ġlif":2770,"ç¾¤":2771,"å¿µ":2772,"ibility":2773,"è´·æ¬¾":2774,"Ġsay":2775,"çı":2776,"aps":2777,"æĿ¥è¶Ĭ":2778,"Ġdomestic":2779,"éģ¿åħį":2780,"å¸®åĬ©":2781,"èµ¤":2782,"åıĤä¸İ":2783,"åºķ":2784,"éģŃ":2785,"èģĶåĤ¨":2786,"Ġestabl":2787,"pecially":2788,"äºĶ":2789,"ç±»ä¼¼":2790,"Ġmodel":2791,"change":2792,"ush":2793,"ission":2794,"Ġproject":2795,"è¶ĬæĿ¥è¶Ĭ":2796,"Ġinst":2797,"åħ³æ³¨":2798,"åĨĽäºĭ":2799,"åĭĴ":2800,"æ¼Ķ":2801,"Ġhigher":2802,"Ġmat":2803,"å¥¹":2804,"Ġsignific":2805,"Ġspec":2806,"70":2807,"Ġrather":2808,"çĽ¸åıį":2809,"æĶ¹åĸĦ":2810,"Ġthough":2811,"ç»ĵæŀĦ":2812,"gin":2813,"ner":2814,"åıĺå¾Ĺ":2815,"Ġshare":2816,"air":2817,"çļĦæĸ°":2818,"èĢģ":2819,"Ġdoll":2820,"Ġasse":2821,"æ´»åĬ¨":2822,"ix":2823,"ork":2824,"æİ¨åĬ¨":2825,"Ġclear":2826,"Ġlittle":2827,"ret":2828,"å¹ħ":2829,"¹ģ":2830,"ä¹ħ":2831,"æĬµ":2832,"ering":2833,"åĬª":2834,"åįĬ":2835,"åıĮ":2836,"Ġmoney":2837,"ä½ı":2838,"è§ĤçĤ¹":2839,"Ġremains":2840,"ç¾İèģĶåĤ¨":2841,"ished":2842,"Ġsector":2843,"åŁºæľ¬":2844,"éĢļèĥĢ":2845,"Ġneeded":2846,"æ°ĶåĢĻåıĺåĮĸ":2847,"40":2848,"Ġbal":2849,"åĪ©çĶ¨":2850,"Ġcase":2851,"Ġgu":2852,"åĬ±":2853,"for":2854,"ining":2855,"Ġrun":2856,"åĮĸçļĦ":2857,"ä¸Ģæ¬¡":2858,"akes":2859,"æģ¶":2860,"aus":2861,"åº·":2862,"ç²¾":2863,"ases":2864,"Ġvi":2865,"åºĶå¯¹":2866,"ĠKore":2867,"æĪĲåĳĺåĽ½":2868,"ling":2869,"ç¦ı":2870,"Ġgener":2871,"æŁĲäºĽ":2872,"Ġpar":2873,"Ġeducation":2874,"aim":2875,"itional":2876,"èį¯":2877,"Ġespecially":2878,"Ġcrit":2879,"Ġnon":2880,"å¾ħ":2881,"éĥ½æĺ¯":2882,"formation":2883,"com":2884,"Ġmonth":2885,"Ġcosts":2886,"ĠIntern":2887,"çĮ":2888,"å£«":2889,"Ġservices":2890,"ted":2891,"itive":2892,"Ġcontinue":2893,"Ġdifferent":2894,"pid":2895,"ficult":2896,"åĪĽæĸ°":2897,"å¯»":2898,"MF":2899,"ec":2900,"imin":2901,"Ġdifficult":2902,"inister":2903,"Ġreason":2904,"é£Ł":2905,"Ġemerging":2906,"Ġsignificant":2907,"Ġconcern":2908,"ick":2909,"åıĸå¾Ĺ":2910,"ened":2911,"å°¤":2912,"Ġpros":2913,"Ġkey":2914,"çīĻ":2915,"æ¸©":2916,"ogn":2917,"Ġhal":2918,"rael":2919,"å¤§éĩı":2920,"Ġren":2921,"ä»Ĭå¤©":2922,"Ġsociet":2923,"Ġph":2924,"Ġdr":2925,"ä¼´":2926,"å·´é©¬":2927,"Ġprogress":2928,"Ġshow":2929,"çĽ¸å½ĵ":2930,"èĩªå·±çļĦ":2931,"å½ĵåīį":2932,"æı´åĬ©":2933,"èµ¤åŃĹ":2934,"èĥľ":2935,"éħį":2936,"åĮ»çĸĹ":2937,"Ġcut":2938,"ä¹ł":2939,"Ġaccess":2940,"å¥¥å·´é©¬":2941,"acy":2942,"anced":2943,"èį£":2944,"Ġinnov":2945,"Ġcit":2946,"æ½ľ":2947,"ock":2948,"Ġspending":2949,"è´«åĽ°":2950,"è¿ĩç¨ĭ":2951,"åıªæĺ¯":2952,"ash":2953,"ides":2954,"Ġsmall":2955,"Ġmeans":2956,"ä¹°":2957,"è¶ĭ":2958,"åĪºæ¿Ģ":2959,"cies":2960,"æī¾":2961,"idence":2962,"Ġmeet":2963,"é¼":2964,"Ġwhy":2965,"åĢį":2966,"Ġbig":2967,"Ġcome":2968,"Ġcontrol":2969,"Ġfree":2970,"ird":2971,"æĶ¯åĩº":2972,"Ġdecades":2973,"é²ģ":2974,"Ġfurther":2975,"çĽ¸åħ³":2976,"åĿļ":2977,"Ġpeace":2978,"å¥½çļĦ":2979,"äº¬":2980,"Ġgroup":2981,"éĻĲåĪ¶":2982,"èĢħçļĦ":2983,"Ġfind":2984,"Ġefforts":2985,"rastructure":2986,"Ġfall":2987,"å¹³çŃī":2988,"Ġfe":2989,"èŃ":2990,"ä»ĸçļĦ":2991,"è´£ä»»":2992,"Ġcurrency":2993,"æĪ·":2994,"æŁĵ":2995,"åŁºç¡Ģè®¾æĸ½":2996,"éĺ¶":2997,"éĩĬ":2998,"istan":2999,"èŃ¦":3000,"Ġsuff":3001,"izing":3002,"Ġsimp":3003,"Ġrese":3004,"åºı":3005,"Ġhapp":3006,"arm":3007,"Ġduring":3008,"è¡°":3009,"Ġprice":3010,"èī²åĪĹ":3011,"ä»¥èī²åĪĹ":3012,"Ġrespons":3013,"Ġrelations":3014,"Ġbuild":3015,"è¡¨çİ°":3016,"èĤ¯":3017,"Ġgain":3018,"Ġincreasingly":3019,"Ġindustr":3020,"oti":3021,"ç®Ģ":3022,"æķ°åŃĹ":3023,"Ġlocal":3024,"bama":3025,"Ġev":3026,"èĲ¨":3027,"åģļåĩº":3028,"wh":3029,"ators":3030,"Ġcond":3031,"When":3032,"ave":3033,"ä¸İæŃ¤":3034,"Ġreforms":3035,"ON":3036,"Ġget":3037,"Ġconst":3038,"èµ·æĿ¥":3039,"Ġpoor":3040,"Ġappe":3041,"Ġdeep":3042,"sequ":3043,"æĸ¹æ³ķ":3044,"Ġinteg":3045,"è§ĦåĪĻ":3046,"åħ·æľī":3047,"Ġrequi":3048,"ç¹ģ":3049,"Ġconflic":3050,"æł¹æľ¬":3051,"Ġcitiz":3052,"çķĻ":3053,"åľ°ä½į":3054,"Ġeng":3055,"rate":3056,"èĲ½":3057,"ä¹ĭéĹ´çļĦ":3058,"Ġtreat":3059,"rop":3060,"Ġlonger":3061,"Ġtarget":3062,"å®¢":3063,"è®¨":3064,"Ġago":3065,"çľŁæŃ£":3066,"ys":3067,"ata":3068,"èĢ³":3069,"Ġgrowing":3070,"lam":3071,"Ġslow":3072,"åĬŀ":3073,"æĢ¥":3074,"Ġquestion":3075,"çļĦæĶ¿çŃĸ":3076,"çİ°å®ŀ":3077,"è½¦":3078,"ä¿¡æģ¯":3079,"Ġinit":3080,"çĻ½":3081,"Ġshif":3082,"reng":3083,"reed":3084,"Ġalmost":3085,"Ġrequire":3086,"Ġï¼Ī":3087,"Ġserious":3088,"Ġprevent":3089,"Ġcare":3090,"éĤ¦":3091,"Yet":3092,"pite":3093,"èµĸ":3094,"åħ³äºİ":3095,"Ġhowever":3096,"åįİ":3097,"æĭīåħĭ":3098,"Ġrecently":3099,"vious":3100,"èĵ":3101,"æ³ķå¾ĭ":3102,"Ġcol":3103,"Ġoil":3104,"é¦ĸåħĪ":3105,"å³":3106,"çļĦå¤§":3107,"icient":3108,"Ġstud":3109,"åį±éĻ©":3110,"åģ¥åº·":3111,"Ġmass":3112,"å¥ĩ":3113,"yn":3114,"Ġwithin":3115,"åľ¨äºİ":3116,"pris":3117,"åĪ¶éĢł":3118,"ä¼łç»Ł":3119,"Ġyet":3120,"çıŃ":3121,"Ġresources":3122,"é¢Ħç®Ĺ":3123,"è¿ŀ":3124,"Ġstreng":3125,"ä¼ļè®®":3126,"Ġitself":3127,"Ġstrateg":3128,"Ġgiven":3129,"ĠRep":3130,"æĿĢ":3131,"Ġhold":3132,"æ°ĳä¼Ĺ":3133,"Ġchallenges":3134,"ä¸Ĭåįĩ":3135,"ç»ıæµİå¢ŀéķ¿":3136,"Ġinfrastructure":3137,"åĢºåĪ¸":3138,"Ġdemocracy":3139,"ä¸Ĭè¿°":3140,"åĬªåĬĽ":3141,"åħ¨ä¸ĸçķĮ":3142,"Ġbest":3143,"epend":3144,"Ġseems":3145,"Ġreturn":3146,"è°ĵ":3147,"èĴ":3148,"æĸ°åħ´":3149,"Ġlower":3150,"åı¯èĥ½ä¼ļ":3151,"Ġnat":3152,"ror":3153,"Ġhouse":3154,"Ġrecogn":3155,"Ġconsider":3156,"åł":3157,"ĠUK":3158,"Europe":3159,"rab":3160,"ale":3161,"ention":3162,"çŁ¥éģĵ":3163,"ĠIsrael":3164,"Ġbenefits":3165,"èĳĹ":3166,"è¿½":3167,"åĪĿ":3168,"æĹ¥çĽĬ":3169,"ording":3170,"Ġclaim":3171,"éĩįè¦ģçļĦ":3172,"ners":3173,"Ġday":3174,"ĠPart":3175,"èĩ³å°ĳ":3176,"Ġevent":3177,"verage":3178,"çĶ¨äºİ":3179,"æĿ¡ä»¶":3180,"æĬ¥åĳĬ":3181,"Ġgreater":3182,"te":3183,"Ġur":3184,"Ġtru":3185,"ased":3186,"udget":3187,"çł´åĿı":3188,"æĮĩåĩº":3189,"Ġnegoti":3190,"ences":3191,"ä¸ªäºº":3192,"Ġenough":3193,"åİĭåĬĽ":3194,"Ġviol":3195,"Ġsecond":3196,"hes":3197,"Ġfound":3198,"éĴ±":3199,"Ġpopulation":3200,"é¼ĵ":3201,"è´Ń":3202,"Ġmember":3203,"Ġwant":3204,"æĬķèµĦèĢħ":3205,"äººç±»":3206,"æ²Ļ":3207,"ç«¥":3208,"Ġcontrib":3209,"Ġrapid":3210,"çĪĨ":3211,"æģĲæĢ":3212,"Ġfam":3213,"èŀįèµĦ":3214,"Ġparticularly":3215,"å¤«":3216,"å¯Ł":3217,"Ġcho":3218,"Ġcomple":3219,"åĪ»":3220,"Ġlib":3221,"Ġlack":3222,"æį¢":3223,"ç»ĵæĿŁ":3224,"volution":3225,"èħĬ":3226,"One":3227,"akers":3228,"ç¡®å®ļ":3229,"çļĦè¯Ŀ":3230,"æ¯«":3231,"Ġimpact":3232,"å¸ĮèħĬ":3233,"nce":3234,"çļĦå½±åĵį":3235,"Ġbor":3236,"Ġcitizens":3237,"å¹¸":3238,"æĿ¾":3239,"åıĳçİ°":3240,"ai":3241,"acc":3242,"2008":3243,"Ġinterests":3244,"Ġothers":3245,"omet":3246,"åħ¬æ°ĳ":3247,"æĪĳä»¬çļĦ":3248,"the":3249,"Ġwomen":3250,"ool":3251,"Ġorgan":3252,"Ġterms":3253,"ier":3254,"æĺ¯ä¸Ģä¸ª":3255,"å·ŀ":3256,"By":3257,"æľºåĪ¶":3258,"Ġworkers":3259,"éĺ¿æĭī":3260,"ĠObama":3261,"åı³":3262,"Ġsug":3263,"Ġcommon":3264,"man":3265,"Ġcaus":3266,"åħī":3267,"åı¯æĮģç»Ń":3268,"äº¤æĺĵ":3269,"ç»´æĮģ":3270,"While":3271,"ned":3272,"ided":3273,"å¹³è¡¡":3274,"Ġunderstand":3275,"Ġpred":3276,"ivil":3277,"æ¬§æ´²å¤®è¡Į":3278,"äºĭä»¶":3279,"ç¢³":3280,"'s":3281,"Ġinvestors":3282,"Ġstrategy":3283,"åĽº":3284,"éĿ©åĳ½":3285,"æĺ¾çĦ¶":3286,"èı":3287,"å·¨å¤§çļĦ":3288,"Ġer":3289,"ither":3290,"å·¦":3291,"åģĩ":3292,"ç©Ĩ":3293,"æľĿ":3294,"å°Ĩä¼ļ":3295,"Ġpost":3296,"çĽ¸å¯¹":3297,"èĥĮ":3298,"Ġpat":3299,"æķĳ":3300,"æľĢåĲİ":3301,"Ġrisks":3302,"Ġvalue":3303,"Ġcamp":3304,"æĦıå¤§":3305,"å¾Īå¤ļ":3306,"Ġhome":3307,"ç½®":3308,"æĿĥåĬĽ":3309,"æĿĤ":3310,"æ°ĳæĹı":3311,"åķĨä¸ļ":3312,"Ġrights":3313,"å®ĺåĳĺ":3314,"ä¸İæŃ¤åĲĮæĹ¶":3315,"ope":3316,"èĢĮæĺ¯":3317,"èĢĮè¨Ģ":3318,"ç«Ł":3319,"Ġbudget":3320,"Ġsav":3321,"æĦıå¤§åĪ©":3322,"Ġelection":3323,"cl":3324,"åıĻ":3325,"ession":3326,"Ġher":3327,"Ġhand":3328,"åľŁèĢ³":3329,"Ġbroad":3330,"These":3331,"çļĦç¤":3332,"ç¢į":3333,"Ġadminist":3334,"Ġnumber":3335,"Ġhalf":3336,"å½Ĵ":3337,"Ġused":3338,"æģĲæĢĸ":3339,"where":3340,"atic":3341,"Ġreport":3342,"Ġdirect":3343,"åľŁèĢ³åħ¶":3344,"onal":3345,"selves":3346,"Ġcoll":3347,"æī©å¤§":3348,"å°¤åħ¶":3349,"ç»ıæµİåŃ¦å®¶":3350,"Ġsuggest":3351,"After":3352,"lf":3353,"tain":3354,"äº¡":3355,"empt":3356,"ĠWar":3357,"ä»Ĭå¹´":3358,"Ġdata":3359,"Ġreduce":3360,"Ġbond":3361,"Ġdepend":3362,"é²ľ":3363,"ug":3364,"æ³Ľ":3365,"å±ħ":3366,"æĪĲäºĨ":3367,"ateral":3368,"ç´¢":3369,"Ġcreate":3370,"éĢĲ":3371,"æ¬§æ´²çļĦ":3372,"ç§ģäºº":3373,"ĠKorea":3374,"Ġocc":3375,"æķ´ä¸ª":3376,"åħ±åĴĮ":3377,"ä¹±":3378,"å®Ī":3379,"å°±ä¼ļ":3380,"ression":3381,"çĽ´æİ¥":3382,"Ġcle":3383,"Ġcertain":3384,"Ġmult":3385,"yr":3386,"é¢Ħæµĭ":3387,"åª":3388,"è®Ń":3389,"æĹ¶ä»£":3390,"ĠRe":3391,"atives":3392,"Ġoper":3393,"Ġprovide":3394,"Ġchildren":3395,"iqu":3396,"makers":3397,"æĵ":3398,"ield":3399,"éļ¾æ°ĳ":3400,"Ġmy":3401,"Ġyou":3402,"Ġmin":3403,"ä¹ı":3404,"Ġexchange":3405,"åĶ¯":3406,"ç²¹":3407,"Ġsimil":3408,"Ġensure":3409,"Ġrising":3410,"æīįèĥ½":3411,"é¥":3412,"Ġrelative":3413,"æŃ¦åĻ¨":3414,"ipl":3415,"vention":3416,"éĻ·åħ¥":3417,"Ġimplement":3418,"Ġmean":3419,"Ġopen":3420,"è¡°éĢĢ":3421,"ĩĥ":3422,"Ġshe":3423,"ç©·":3424,"gent":3425,"like":3426,"å¿ħè¦ģ":3427,"è¯ĨåĪ°":3428,"è¿ĲåĬ¨":3429,"èĬĤ":3430,"Ġrules":3431,"ĠFrance":3432,"åıĳå±ķä¸ŃåĽ½":3433,"èħĲ":3434,"è¿Ļä¸ĢçĤ¹":3435,"åķĨåĵģ":3436,"åĬ³åĬ¨åĬĽ":3437,"Ġ2008":3438,"Ġpossible":3439,"Ġimprove":3440,"æĺ¯åľ¨":3441,"Ġgr":3442,"ä¸įåĨį":3443,"rime":3444,"oura":3445,"è°ĥæķ´":3446,"ä¾Ŀèµĸ":3447,"Ġthus":3448,"ä¿®":3449,"æ¯Ĵ":3450,"Ġcoop":3451,"Ġmeasures":3452,"éº":3453,"ĠArab":3454,"Ġnever":3455,"çĬ¯":3456,"iod":3457,"åĲİæŀľ":3458,"è·¨":3459,"Ġspe":3460,"éļľ":3461,"Ġleadership":3462,"ç¨İæĶ¶":3463,"éĶĻè¯¯":3464,"Ġland":3465,"Ġforce":3466,"è¿ĽæŃ¥":3467,"Ġreflect":3468,"è®²":3469,"overty":3470,"æłĩåĩĨ":3471,"Ġlevels":3472,"Ġstep":3473,"Ġface":3474,"éĩĳèŀįåį±æľº":3475,"çĬ¶åĨµ":3476,"Ġjobs":3477,"åıĳå±ķä¸ŃåĽ½å®¶":3478,"ĠGree":3479,"Ġplace":3480,"è¯ķåĽ¾":3481,"éĺ¿æĭīä¼¯":3482,"Even":3483,"è¡Įä¸ļ":3484,"Ġleft":3485,"ä»£è¡¨":3486,"æ¸Ĳ":3487,"è·Į":3488,"èī¯":3489,"be":3490,"come":3491,"ä¼Ĭæĸ¯":3492,"èĵĦ":3493,"Ġeach":3494,"Ġdeal":3495,"å°¼äºļ":3496,"Ġcivil":3497,"ards":3498,"å·¥ä¸ļ":3499,"Ġagreement":3500,"ç¹ģèį£":3501,"åªĴ":3502,"å¼Ģåıĳ":3503,"å¹´è½»":3504,"Ġyoun":3505,"ç¥ŀ":3506,"çļĦæĥħåĨµä¸ĭ":3507,"bon":3508,"lation":3509,"aged":3510,"æ¦":3511,"å®Ĺ":3512,"è¿Ľåħ¥":3513,"çģ¾":3514,"çĥŃ":3515,"Ġfuel":3516,"Ġconsequ":3517,"éĹ»":3518,"æİĴæĶ¾":3519,"ived":3520,"ä¹ĭåīį":3521,"Ġfinance":3522,"Ġlife":3523,"ç§ĳåŃ¦":3524,"just":3525,"çĩĥ":3526,"æīĢè°ĵ":3527,"Ġregional":3528,"RI":3529,"å¤ĸåĽ½":3530,"åħĭåħ°":3531,"Ġindivid":3532,"æįŁå¤±":3533,"Ġpurs":3534,"ĠBritish":3535,"ä¼Ĭæĸ¯åħ°":3536,"Ġfl":3537,"ä¸»æĿĥ":3538,"å·´è¥¿":3539,"ä¹Įåħĭåħ°":3540,"ah":3541,"ä¼Ļ":3542,"å¤§è§Ħæ¨¡":3543,"Ġsec":3544,"ä¹ĭåĲİ":3545,"è¾¾åĪ°":3546,"Ġcult":3547,"å¹´æĿ¥":3548,"conomic":3549,"é»İ":3550,"haps":3551,"å¤±ä¸ļ":3552,"ä¸¤ä¸ª":3553,"Ġdev":3554,"Ġenc":3555,"å»ºè®¾":3556,"Ġsystems":3557,"ee":3558,"Ġfear":3559,"Ġstruct":3560,"çľ¼":3561,"çĸ¾":3562,"çĳ":3563,"entral":3564,"åĢĴ":3565,"ç½ª":3566,"CB":3567,"then":3568,"çĵ":3569,"Ġbegin":3570,"çĭ¬ç«ĭ":3571,"Ġbl":3572,"ront":3573,"è¶ĭåĬ¿":3574,"yond":3575,"ĠAr":3576,"Ġdisp":3577,"ç±³":3578,"Ġdollar":3579,"emoc":3580,"Ġcommit":3581,"æĭħå¿ĥ":3582,"éĴĪå¯¹":3583,"Al":3584,"å¼Ĥ":3585,"side":3586,"åıĭ":3587,"chool":3588,"ified":3589,"Ġchallenge":3590,"oid":3591,"ination":3592,"Ġstability":3593,"æŀ¶":3594,"Ġpolitics":3595,"æł¸å¿ĥ":3596,"çĥĪ":3597,"Ġtechnology":3598,"ĠBritain":3599,"Ġear":3600,"ĠSp":3601,"æĺİç¡®":3602,"åĨħéĥ¨":3603,"æł¹æį®":3604,"åıĻåĪ©äºļ":3605,"oint":3606,"ä½Ļ":3607,"ä¸įåı¯èĥ½":3608,"Ġformer":3609,"Ġfunda":3610,"Ġbalance":3611,"Ġindividual":3612,"Ġstat":3613,"åıĬåħ¶":3614,"æ¯ıå¹´":3615,"Ġboost":3616,"Ġconsumption":3617,"Ġaction":3618,"å¿§":3619,"199":3620,"Ġinflu":3621,"ä¾ĿçĦ¶":3622,"çĪ±":3623,"åªĴä½ĵ":3624,"ä¹¦":3625,"ä¹Ĳ":3626,"ceed":3627,"èµ¢":3628,"abil":3629,"åįģåĪĨ":3630,"åĦ¿ç«¥":3631,"az":3632,"Ġtoget":3633,"Ġever":3634,"äº§åĵģ":3635,"ĠTur":3636,"ĠWestern":3637,"Ġtogether":3638,"æ´ĭ":3639,"æµģåĬ¨":3640,"è¿ħ":3641,"Ġdest":3642,"ĠItal":3643,"ĠèĢĮ":3644,"Ġtal":3645,"aken":3646,"éĢīæ°ĳ":3647,"Ġ5":3648,"Ġdou":3649,"ilateral":3650,"Ġdeb":3651,"Ġchar":3652,"çļĦçł":3653,"çĽ¸ä¿¡":3654,"è¯ģæĺİ":3655,"Ġhousehold":3656,"Ġhim":3657,"Ġterror":3658,"Ġdang":3659,"å¾ģ":3660,"ç»ıæµİçļĦ":3661,"Ġpoverty":3662,"Ġfour":3663,"Ġblo":3664,"Ġnet":3665,"ä¸Ńä¸ľ":3666,"Ġthemselves":3667,"issions":3668,"Ġproductivity":3669,"Ġattack":3670,"Ġanti":3671,"ä¼Ļä¼´":3672,"Un":3673,"Ġche":3674,"Ġexist":3675,"Ġdecision":3676,"æ±ĩçİĩ":3677,"æķ¦":3678,"æĪĸè®¸":3679,"æĸĩåĮĸ":3680,"raz":3681,"irst":3682,"çº½":3683,"è£Ĥ":3684,"ĠRepublic":3685,"ä¸Ģåľº":3686,"acity":3687,"åĤ¨èĵĦ":3688,"cent":3689,"ä½Ĩåľ¨":3690,"æĭĴ":3691,"éļ¾ä»¥":3692,"rex":3693,"ised":3694,"çĪĨåıĳ":3695,"çİ°ä»£":3696,"Ġhead":3697,"Ġissues":3698,"istic":3699,"å¹´åīį":3700,"Ġwealth":3701,"çĲĨè§£":3702,"åĶ¯ä¸Ģ":3703,"kra":3704,"Ġ4":3705,"å¼¹":3706,"Ġunt":3707,"å»¶":3708,"Ġfirms":3709,"olit":3710,"æ¯ķ":3711,"Ġacross":3712,"å¡Ķ":3713,"dom":3714,"ming":3715,"Ġcomb":3716,"Ġmet":3717,"raw":3718,"éĹ®é¢ĺçļĦ":3719,"Ġmanage":3720,"Ġaccept":3721,"æ¬¢":3722,"æŃ£ç¡®":3723,"åİ»å¹´":3724,"Ġtimes":3725,"ins":3726,"Ġru":3727,"ĠNew":3728,"uation":3729,"erve":3730,"Ġexpl":3731,"Ġnecess":3732,"Ġsaf":3733,"Of":3734,"ban":3735,"Ġpract":3736,"Ġgra":3737,"æĹ¢":3738,"å¾®":3739,"åĵª":3740,"Ġexport":3741,"æ¸¸":3742,"Ġincreased":3743,"èĬ±":3744,"Ġannual":3745,"å§Ĩ":3746,"åı¤":3747,"æľīæīĢ":3748,"å¤§å¹ħ":3749,"åħ¬ä¼Ĺ":3750,"Ġiniti":3751,"è¿ħéĢŁ":3752,"çļĦåħ¨çĲĥ":3753,"igration":3754,"though":3755,"Ġprogram":3756,"æŀģç«¯":3757,"What":3758,"æŃ£å¦Ĥ":3759,"Ġnews":3760,"å¤įæĿĤ":3761,"aign":3762,"Ġonce":3763,"çŁ³æ²¹":3764,"çļĦæĹ¶åĢĻ":3765,"äºĪ":3766,"Ġfight":3767,"ç»ľ":3768,"è§£éĩĬ":3769,"Ġlook":3770,"ik":3771,"Ġåľ¨":3772,"Ġsing":3773,"æĦıä¹ī":3774,"æģ°":3775,"iation":3776,"çļĦä¸į":3777,"Ġfood":3778,"Ġearly":3779,"å¤§åŃ¦":3780,"quality":3781,"Ġbased":3782,"Ġstrengthen":3783,"Ġmaking":3784,"é»ĺ":3785,"çĶŁäº§çİĩ":3786,"éĺ»æŃ¢":3787,"Ġsimilar":3788,"åı·":3789,"è¯ī":3790,"å¼ĥ":3791,"éĻĨ":3792,"Ġpolitic":3793,"å¤±è´¥":3794,"Ġdeveloped":3795,"Ġperiod":3796,"Ġtre":3797,"Ġrepres":3798,"Ġsl":3799,"Ġemb":3800,"Ġbring":3801,"Ġresearch":3802,"å¤§å¤ļæķ°":3803,"Ġable":3804,"Ġhistory":3805,"Ġcampaign":3806,"Ġè¿Ļ":3807,"Ġsomet":3808,"è´§å¸ģæĶ¿çŃĸ":3809,"åĩĨå¤ĩ":3810,"Ġofficials":3811,"Ġconflict":3812,"Ġborrow":3813,"15":3814,"cil":3815,"den":3816,"åıįåºĶ":3817,"è®®ä¼ļ":3818,"æīĭæ®µ":3819,"Ġextrem":3820,"Ġbelieve":3821,"to":3822,"omp":3823,"ä¸»å¸Ń":3824,"ç½²":3825,"è£ħ":3826,"Ġamount":3827,"ç§¯æŀģ":3828,"25":3829,"Ġtop":3830,"ä¼¤":3831,"rupt":3832,"ä¼Ĭæĭīåħĭ":3833,"è§Ĩä¸º":3834,"å´©":3835,"å®½":3836,"Ġsure":3837,"ruption":3838,"ways":3839,"ĠNorth":3840,"ĠParty":3841,"å¹¶éĿŀ":3842,"åĲ¸å¼ķ":3843,"Ġachieve":3844,"åįĥ":3845,"éŁ©":3846,"ler":3847,"Ġsense":3848,"è½¯":3849,"å¼ķåıĳ":3850,"å®¡":3851,"æĽ´ä¸º":3852,"ĠIslam":3853,"Ġyoung":3854,"cial":3855,"reak":3856,"ively":3857,"åĬłåħ¥":3858,"Ġindepend":3859,"Ġrefuge":3860,"uf":3861,"igr":3862,"æľŁéĹ´":3863,"Ġbecom":3864,"Ġtrue":3865,"raq":3866,"éģı":3867,"ean":3868,"åĪļ":3869,"è¡ĮçļĦ":3870,"ĠUkra":3871,"Ġkeep":3872,"åĨľä¸ļ":3873,"çħ§":3874,"Ġold":3875,"Ġinformation":3876,"rodu":3877,"Ġla":3878,"æ°¸":3879,"è¢ĸ":3880,"æĽ´å¤ļçļĦ":3881,"Ġcorpor":3882,"çļĦç¤¾ä¼ļ":3883,"Ġmodern":3884,"Ġestablish":3885,"ä¸įè¶³":3886,"ä¸Ńå¤®":3887,"Ġdecade":3888,"Ġentire":3889,"åį«çĶŁ":3890,"Ġadministration":3891,"razil":3892,"ium":3893,"Ġsk":3894,"æĢĢ":3895,"ä¾µ":3896,"Ġ199":3897,"æī¿è®¤":3898,"Ġpromot":3899,"åŁĥåıĬ":3900,"ç»ıåİĨ":3901,"ĠSyr":3902,"éģĩ":3903,"Ġcr":3904,"isions":3905,"Ġdise":3906,"Ġclose":3907,"Ġsociety":3908,"rexit":3909,"11":3910,"å¹¶æ²¡æľī":3911,"yp":3912,"æĶ¿åºľçļĦ":3913,"Ġmaintain":3914,"Ġsit":3915,"Ġled":3916,"éĿ¢å¯¹":3917,"Ġaverage":3918,"Ġwater":3919,"Ġfive":3920,"Ġloss":3921,"è¯Ń":3922,"ief":3923,"å¾Ģå¾Ģ":3924,"Ġcommunity":3925,"ç¦ģ":3926,"Ġlargest":3927,"Ġcentury":3928,"å®£å¸ĥ":3929,"èĮĥåĽ´":3930,"Ġbord":3931,"è§ī":3932,"åºĶå½ĵ":3933,"Ġeffects":3934,"Ġadvanced":3935,"é¾":3936,"Ġdam":3937,"ä¸ªæľĪ":3938,"æ¯Ķäºļ":3939,"ource":3940,"Ġencoura":3941,"æĸĹ":3942,"äºĨä¸Ģä¸ª":3943,"Ġareas":3944,"Ġpolicymakers":3945,"å¹¿æ³Ľ":3946,"æĭĴç»Ŀ":3947,"onse":3948,"Ġunion":3949,"å®¹æĺĵ":3950,"Ġaim":3951,"ä¸Ńå¿ĥ":3952,"Ġadop":3953,"æĿĥåĪ©":3954,"utional":3955,"æĿ¡çº¦":3956,"ä¿ĥè¿Ľ":3957,"éĩįå¤§":3958,"èģĶéĤ¦":3959,"ä¸įç®¡":3960,"å¹³åĿĩ":3961,"rench":3962,"ç¬¬äºĮ":3963,"GDPçļĦ":3964,"Ġissue":3965,"ç¿¼":3966,"Ġenvironmental":3967,"åŁºäºİ":3968,"Ġrecover":3969,"arent":3970,"è¾¾æĪĲ":3971,"éģıåĪ¶":3972,"illions":3973,"Ġsever":3974,"åĲİçļĦ":3975,"è¶³å¤Ł":3976,"Ġchanges":3977,"Ġsimply":3978,"ä¸įåĪ°":3979,"ĠIraq":3980,"çĲĨçĶ±":3981,"Ġworking":3982,"Ġelse":3983,"Ġconditions":3984,"olic":3985,"çŃ¾":3986,"æ²»çĲĨ":3987,"Ġregime":3988,"Ġsovere":3989,"Ġsingle":3990,"Ġrece":3991,"Ġforces":3992,"æĹłè®º":3993,"åĬ©äºİ":3994,"ne":3995,"æľīçļĦ":3996,"åīĬåĩı":3997,"Ġdeficit":3998,"ä¸Ģèĩ´":3999,"Ġgre":4000,"rag":4001,"ĠECB":4002,"ĠMiddle":4003,"Ġpressure":4004,"è®¨è®º":4005,"aster":4006,"Ġrule":4007,"min":4008,"è´¬":4009,"æĿ¥çļĦ":4010,"æĥĬ":4011,"çĦ¶èĢĮ":4012,"å¤įèĭı":4013,"ĠInternational":4014,"çĳŀ":4015,"aring":4016,"key":4017,"ĠX":4018,"äº²":4019,"Ġhope":4020,"åįļ":4021,"èī¾":4022,"Ġposition":4023,"lia":4024,"æĭ¿":4025,"æ£®":4026,"arian":4027,"pped":4028,"è¿ĩåº¦":4029,"Ġliberal":4030,"èħĲè´¥":4031,"ify":4032,"Ġunem":4033,"çĽĸ":4034,"ĠCon":4035,"ä½Ĩè¿Ļ":4036,"åıªèĥ½":4037,"æļ´åĬĽ":4038,"uing":4039,"æľĢå¤§çļĦ":4040,"é¢Ĩè¢ĸ":4041,"Ġopportunity":4042,"Ġparties":4043,"Ġtotal":4044,"ĠUN":4045,"åģ¿":4046,"Ġreach":4047,"èĭ¦":4048,"Ġsupply":4049,"Ġresponse":4050,"Ġindustry":4051,"Ġdanger":4052,"ï¼ħ":4053,"ĠMinister":4054,"gypt":4055,"Ġavoid":4056,"mm":4057,"oh":4058,"wise":4059,"åħģ":4060,"Ġdespite":4061,"Ġoppos":4062,"äººæ°ĳå¸ģ":4063,"ufact":4064,"lus":4065,"ival":4066,"çļĦç¬":4067,"æīĺ":4068,"å°Ĩåľ¨":4069,"æĢ»çĲĨ":4070,"Ġrequires":4071,"åĲ¬":4072,"Ġunc":4073,"Ġemployment":4074,"å¸ĥä»Ģ":4075,"12":4076,"Some":4077,"è¿Ŀ":4078,"Ġproduction":4079,"ĠCommission":4080,"è´¬åĢ¼":4081,"Ġcapacity":4082,"è´¢å¯Į":4083,"æī§è¡Į":4084,"Ġseveral":4085,"ising":4086,"Ġabs":4087,"æķ°éĩı":4088,"Ġexpand":4089,"ç¼ĺ":4090,"æĶ¶çĽĬ":4091,"é¢ĦæľŁ":4092,"æĺ¾ç¤º":4093,"å½¢æĪĲ":4094,"å¿«éĢŁ":4095,"åħģè®¸":4096,"åĲĹ":4097,"å·¥åħ·":4098,"ç¤¾":4099,"Ġcoal":4100,"Ġcreat":4101,"ctions":4102,"æĹ¶æľŁ":4103,"ä»£ä»·":4104,"Ġregard":4105,"Ġdone":4106,"ä¹Łä¸į":4107,"æŃ»äº¡":4108,"Ġenvironment":4109,"Ġfull":4110,"åľ¨ç¾İåĽ½":4111,"çļĦçľ":4112,"æĶ¯ä»ĺ":4113,"å³°":4114,"å¿½":4115,"Ġemissions":4116,"çĵ¦":4117,"Americ":4118,"ç»Ĩ":4119,"Ġrev":4120,"å·¨å¤§":4121,"Ġï¼ļ":4122,"åħ»":4123,"è°ĥæŁ¥":4124,"æ¢ħ":4125,"æĮī":4126,"è¢Ń":4127,"ricult":4128,"ĠKing":4129,"Ġdemocratic":4130,"incip":4131,"æĶ¿æĿĥ":4132,"å±ŀ":4133,"æ±Ĺ":4134,"Ġeffort":4135,"Ġcreated":4136,"åĲī":4137,"ĠAsian":4138,"ĠRes":4139,"åħħåĪĨ":4140,"Ľèµ·":4141,"ä¸Ģé¡¹":4142,"Ġmanufact":4143,"ç¼ºä¹ı":4144,"Ġconsequences":4145,"åĲ¯":4146,"çĽĽ":4147,"èĩªçĦ¶":4148,"Ġmassive":4149,"Ġess":4150,"oral":4151,"åħ¸":4152,"ĠEn":4153,"å´Ľèµ·":4154,"Ġcooperation":4155,"Ġmar":4156,"åľ¨è¿Ļ":4157,"å¹²é¢Ħ":4158,"iversity":4159,"Ġshift":4160,"An":4161,"Ġbad":4162,"ruction":4163,"é»ĳ":4164,"æĦ¿æĦı":4165,"è¿İ":4166,"Ġalways":4167,"aging":4168,"å¸ĤåľºçļĦ":4169,"Ġbanking":4170,"å½¢å¼ı":4171,"down":4172,"Ġschool":4173,"ĠCl":4174,"Ġexports":4175,"Ġtest":4176,"Ġexcess":4177,"å¤±åİ»":4178,"çŁŃæľŁ":4179,"based":4180,"lt":4181,"ently":4182,"Ġlear":4183,"æľīåĪ©":4184,"å¦ĩ":4185,"å¼ĢæĶ¾":4186,"Ġident":4187,"velopment":4188,"Ġvict":4189,"ĠPar":4190,"ended":4191,"ç½ĳç»ľ":4192,"Ġinnovation":4193,"çļĦç¬¬":4194,"ds":4195,"iting":4196,"Ġflow":4197,"uss":4198,"èİ«":4199,"Ġmedia":4200,"Ġstructural":4201,"äº«":4202,"å®ª":4203,"Ġbeh":4204,"Ġinvol":4205,"æĸ¹éĿ¢çļĦ":4206,"ĠAfrican":4207,"Ġassum":4208,"æ¯«æĹł":4209,"Ġpredict":4210,"èı²":4211,"wide":4212,"Ġnorm":4213,"åĬŀæ³ķ":4214,"iplom":4215,"Ġpoliticians":4216,"ç»ıå¸¸":4217,"æĮ¥":4218,"åĳ¼":4219,"åĬłå¼º":4220,"ĠFund":4221,"æ¶¨":4222,"Ġkind":4223,"æľīåħ³":4224,"Ġprincip":4225,"åįıå®ļ":4226,"Ġcalled":4227,"çļĦç¾İåĽ½":4228,"imul":4229,"æķ£":4230,"Ġleading":4231,"Ġsustainable":4232,"ring":4233,"rated":4234,"å®¤":4235,"ighb":4236,"éľ²":4237,"2015":4238,"Ġtaken":4239,"atory":4240,"å®ı":4241,"Ġdeath":4242,"Ġalone":4243,"éĢļå¸¸":4244,"Ġperform":4245,"ä»ħä»ħ":4246,"å®ĥä»¬çļĦ":4247,"Ġindustrial":4248,"%.":4249,"ĠCentral":4250,"è¥¿çıŃ":4251,"Ġclos":4252,"liament":4253,"è¥¿çıŃçīĻ":4254,"He":4255,"alest":4256,"åľ¨è¿ĩåİ»":4257,"uted":4258,"rad":4259,"æĽ¿":4260,"è¿Ľç¨ĭ":4261,"Ġunlike":4262,"åģı":4263,"å¼ºè°ĥ":4264,"è½¬åŀĭ":4265,"Ġfailed":4266,"åĶ®":4267,"Ġthink":4268,"åľ¨ä¸Ģ":4269,"æ°ĳç²¹":4270,"éĤ»":4271,"éĽĨåĽ¢":4272,"çļĦä¿¡":4273,"Ġstrategic":4274,"æĮ¯":4275,"åĨ³çŃĸèĢħ":4276,"Ġhistor":4277,"Ġcy":4278,"æĺł":4279,"ä¸įå¹³çŃī":4280,"Ġself":4281,"Ġresol":4282,"èģĶç³»":4283,"iveness":4284,"DG":4285,"by":4286,"æģ©":4287,"ĠLe":4288,"éĺ¿å¯Į":4289,"Ġsaid":4290,"éĺ¿å¯Įæ±Ĺ":4291,"Ġvis":4292,"Ġtrillion":4293,"ä¼¦æķ¦":4294,"ills":4295,"æŀĲ":4296,"å¥½å¤Ħ":4297,"æī¿æĭħ":4298,"éĢŁåº¦":4299,"çģŃ":4300,"Ġfunds":4301,"Ġauthorities":4302,"åħ±åĴĮåħļ":4303,"æľīåĬ©äºİ":4304,"ç»ıéªĮ":4305,"æ¦Ĥ":4306,"Ġ6":4307,"rec":4308,"ç»ıæµİåŃ¦":4309,"ured":4310,"ä¸»ä¹īèĢħ":4311,"èį¡":4312,"åľ°åĮºçļĦ":4313,"lim":4314,"Ġpoll":4315,"å¤ĸéĥ¨":4316,"ä¿Ŀè¯ģ":4317,"Ġdecline":4318,"ĠUkraine":4319,"line":4320,"Ġdon":4321,"ĠCong":4322,"å®ŀéĻħä¸Ĭ":4323,"é¼ĵåĬ±":4324,"reg":4325,"Ġwhose":4326,"ç«Ļ":4327,"æŃ£æĺ¯":4328,"æ±¡":4329,"ensive":4330,"éĽ¶":4331,"æī¹è¯Ħ":4332,"Ġunemployment":4333,"åĩºäºĨ":4334,"oday":4335,"å·¥èµĦ":4336,"åİŁåĪĻ":4337,"æĦŁåĪ°":4338,"Ġvoters":4339,"Ġexpected":4340,"è´Ńä¹°":4341,"rong":4342,"Ġstimul":4343,"Ġprob":4344,"Ġrespect":4345,"é«ĺçļĦ":4346,"Ġagg":4347,"æķĪçİĩ":4348,"å¼ķèµ·":4349,"è´ŁåĢº":4350,"ä¸Ģä½į":4351,"äººåĳĺ":4352,"åıįæĺł":4353,"åıĳè¾¾åĽ½å®¶":4354,"éŁ©åĽ½":4355,"æĲ":4356,"Ġcause":4357,"Ġbeyond":4358,"åĪĨåŃĲ":4359,"æ¬§çĽŁçļĦ":4360,"éĶĢ":4361,"çĹĩ":4362,"å¸¦æĿ¥çļĦ":4363,"Ġlargely":4364,"å¯»æ±Ĥ":4365,"ĠTurkey":4366,"ched":4367,"Ġdiplom":4368,"ĠEgypt":4369,"Ġ10":4370,"æ¯ķç«Ł":4371,"med":4372,"market":4373,"Ġbar":4374,"utin":4375,"Ġnearly":4376,"æĬķç¥¨":4377,"ĠAmericans":4378,"Ġscient":4379,"æŁĲç§į":4380,"Ġmakes":4381,"Ġdrug":4382,"Ġproper":4383,"Ġeconomists":4384,"ĠBrazil":4385,"è¿Ľåı£":4386,"çĲĨè®º":4387,"Ġtransp":4388,"Ġways":4389,"éĽĨä¸Ń":4390,"æħ¢":4391,"Ġprosper":4392,"ented":4393,"rams":4394,"è¯Ħä¼°":4395,"ĠItaly":4396,"AN":4397,"æ¥":4398,"åĲ«":4399,"ĠSh":4400,"ĠDemoc":4401,"itted":4402,"ortunately":4403,"çģ«":4404,"éĻ¤äºĨ":4405,"æĽ¼":4406,"éĥ¨éķ¿":4407,"æ¡Ĩ":4408,"Ġobject":4409,"Ġgoods":4410,"Ġparticular":4411,"æĵį":4412,"çļĦæ¬§æ´²":4413,"irc":4414,"çº·":4415,"ends":4416,"alled":4417,"åĲĪçĲĨ":4418,"ç´¯":4419,"è½¬ç§»":4420,"ĠGreece":4421,"èµ¢å¾Ĺ":4422,"æīĢä»¥":4423,"å½ĵæĹ¶":4424,"æ²»çĸĹ":4425,"Ġfav":4426,"æī©å¼ł":4427,"è§Ĵèī²":4428,"è¯¸":4429,"Ġhaving":4430,"ected":4431,"Ġ2015":4432,"å¥³æĢ§":4433,"å·´åĭĴ":4434,"fer":4435,"çļĦä¸»è¦ģ":4436,"ä¹ĭå¤ĸ":4437,"åħ¬å¼Ģ":4438,"ä»»åĬ¡":4439,"å¤Ħäºİ":4440,"Ġvalues":4441,"å·´åĭĴæĸ¯åĿ¦":4442,"IMF":4443,"Such":4444,"lev":4445,"ä¸ĭçļĦ":4446,"æĶ»":4447,"ctors":4448,"å®ŀåĬĽ":4449,"å¹¶ä¸įæĺ¯":4450,"å»·":4451,"Ġparty":4452,"Ġtechnologies":4453,"Ġprojects":4454,"çļĦæĶ¯æĮģ":4455,"rade":4456,"iding":4457,"æ¯Ķä¾ĭ":4458,"Ġpartners":4459,"Ġassets":4460,"æľĿé²ľ":4461,"Ġuntil":4462,"Today":4463,"äººæĿĥ":4464,"æ²ĥ":4465,"Ġcounter":4466,"ghan":4467,"ĠFrench":4468,"ä¼ĺåĬ¿":4469,"Ġessential":4470,"Given":4471,"¢å¤į":4472,"è´Ŀ":4473,"å½ĵå±Ģ":4474,"çĽ®çļĦ":4475,"æģ¢å¤į":4476,"å²Ľ":4477,"æ½ľåľ¨":4478,"ien":4479,"Ġbegan":4480,"è¿ĻæĦıåĳ³çĿĢ":4481,"istance":4482,"ĠBrexit":4483,"Ġincent":4484,"å¼ºåĮĸ":4485,"åį³ä¾¿":4486,"Ġattempt":4487,"çĮ®":4488,"çĩĥæĸĻ":4489,"çļĦå¢ŀéķ¿":4490,"å½ķ":4491,"è®¤è¯ĨåĪ°":4492,"åĤ¨å¤ĩ":4493,"Ġsuccessful":4494,"æ¡Ĩæŀ¶":4495,"sw":4496,"Ġlives":4497,"æĹ¦":4498,"è¯ļ":4499,"Ġneighb":4500,"Ġpowerful":4501,"å®ĮæĪĲ":4502,"ä¸ĵå®¶":4503,"Ġinequality":4504,"ç®Ģåįķ":4505,"Ġcities":4506,"Ġstock":4507,"ç»Łæ²»":4508,"Ġopportunities":4509,"Ġmonths":4510,"Ġintegration":4511,"ĠKingdom":4512,"Acc":4513,"Ġmov":4514,"Ġunderm":4515,"Ġfram":4516,"Ġconstit":4517,"Ġaltern":4518,"å»ºè®®":4519,"Ġinvestments":4520,"å¤ĦçĲĨ":4521,"çº½çº¦":4522,"Ġten":4523,"Ġopt":4524,"ories":4525,"Ġability":4526,"åħ¶ä»ĸåĽ½å®¶":4527,"Ġexperience":4528,"Ġtem":4529,"ĠBush":4530,"Ġincreasing":4531,"hind":4532,"èİ±":4533,"Ġrespond":4534,"Ġnatural":4535,"bi":4536,"inking":4537,"è´¦":4538,"çŃĶ":4539,"æ¯ģ":4540,"Ġclass":4541,"åĨįæ¬¡":4542,"Ġactiv":4543,"Ġparticip":4544,"åĽ½ä¼ļ":4545,"è®¿":4546,"å¤§çº¦":4547,"ĠAl":4548,"enda":4549,"ights":4550,"è·Ŀ":4551,"Ġprec":4552,"Ġpopular":4553,"åĽ°éļ¾":4554,"ternal":4555,"%,":4556,"Ġ7":4557,"Ġdig":4558,"åĲĪæ³ķ":4559,"éģĵå¾·":4560,"Ġquick":4561,"ĠCoun":4562,"æĪĲç«ĭ":4563,"Ġgovernance":4564,"Ġdoing":4565,"ä¾ĽåºĶ":4566,"Ġ1990":4567,"éĢĢåĩº":4568,"Ġfundamental":4569,"mber":4570,"çļĦçĽ®æłĩ":4571,"Ġmis":4572,"Ġvol":4573,"ĠPro":4574,"Ġagricult":4575,"ĠNations":4576,"Ġprograms":4577,"Ġreven":4578,"ç¾İåĽ½åĴĮ":4579,"æľ¬èº«":4580,"æ··":4581,"Ġbonds":4582,"iate":4583,"Ġill":4584,"verse":4585,"å·¥äºº":4586,"Ġinfluence":4587,"NE":4588,"çĨ":4589,"çļĦéĤ£æł·":4590,"Ġgas":4591,"Ġdeterm":4592,"åħ¨çĲĥç»ıæµİ":4593,"2010":4594,"TO":4595,"ĠãĢģ":4596,"head":4597,"oment":4598,"é¡¾":4599,"Ġsoon":4600,"éĺ¿æł¹":4601,"Ġtrend":4602,"ĠCouncil":4603,"100":4604,"åħ¨éĿ¢":4605,"çĸ«":4606,"ä¸»ä¹īçļĦ":4607,"ĠAfghan":4608,"olicy":4609,"ina":4610,"Ġlost":4611,"ä¸įè¿ĩ":4612,"Ġsubs":4613,"è¿ª":4614,"å¸Ī":4615,"æķħ":4616,"ç¡®å®ŀ":4617,"Ġperhaps":4618,"ç¬¬ä¸ī":4619,"ï¿½ï¿½ï¿½":4620,"while":4621,"éĺ¿æł¹å»·":4622,"lies":4623,"ĠZ":4624,"çļĦé£İéĻ©":4625,"æĶ¿åħļ":4626,"å¿Ĺ":4627,"ä¹Łä¼ļ":4628,"åı¦ä¸Ģä¸ª":4629,"éģį":4630,"ç³Ł":4631,"Ġleader":4632,"hood":4633,"arily":4634,"Ġcomes":4635,"æĭħå¿§":4636,"Ġsubst":4637,"ĠAI":4638,"è½¬åıĺ":4639,"ÂłÂłÂłÂł":4640,"put":4641,"Ġ-":4642,"Ġ30":4643,"Ġaid":4644,"Ġpath":4645,"Ġbur":4646,"Ġrich":4647,"çŃĸçķ¥":4648,"ç«ĭåľº":4649,"Ġowing":4650,"ĠDevelopment":4651,"å¦ĩå¥³":4652,"Ġaway":4653,"ream":4654,"æĳĨ":4655,"Ġidea":4656,"Ġtraditional":4657,"Ġrelationship":4658,"çĸ¾çĹħ":4659,"Ġdel":4660,"è¾ĵ":4661,"åĪĨæŀĲ":4662,"Ġadjust":4663,"éĽ·":4664,"é©±":4665,"Ġprior":4666,"Ġ2010":4667,"Ġobs":4668,"reedom":4669,"Ġdebate":4670,"Many":4671,"set":4672,"Ġvar":4673,"Ġadvant":4674,"According":4675,"Ġge":4676,"Ġalong":4677,"Ġweap":4678,"ĠPalest":4679,"ä¾ĭå¦Ĥ":4680,"éĺ²æŃ¢":4681,"èĤ¯å®ļ":4682,"æīĢè°ĵçļĦ":4683,"Ġnecessary":4684,"Ġwin":4685,"åĨ·":4686,"åĬ¨èį¡":4687,"è¡¨ç¤º":4688,"aving":4689,"Ġdesign":4690,"Ġgoal":4691,"Ġdomin":4692,"chan":4693,"Ġunp":4694,"å®ĥçļĦ":4695,"Ġgroups":4696,"ape":4697,"ym":4698,"ĠTh":4699,"ored":4700,"åħ¬å¹³":4701,"ously":4702,"å·´åŁº":4703,"ä¸¤åĽ½":4704,"Ġhighly":4705,"çĻ¾ä¸ĩ":4706,"bo":4707,"æľīäºº":4708,"Ġelections":4709,"ises":4710,"æºĥ":4711,"ç¾¤ä½ĵ":4712,"force":4713,"Ġviolence":4714,"Ġbehind":4715,"è´´":4716,"thing":4717,"å¤ļçļĦ":4718,"Ġprim":4719,"èĦĨ":4720,"ä¾ĭåŃĲ":4721,"Ġpropos":4722,"æĽ¾ç»ı":4723,"å·´åŁºæĸ¯åĿ¦":4724,"éĢı":4725,"akistan":4726,"æĢģåº¦":4727,"ĠGerman":4728,"ç¨ĭåº¦ä¸Ĭ":4729,"çģ¾éļ¾":4730,"lying":4731,"ä¹Łåľ¨":4732,"ç´§ç¼©":4733,"Ġevidence":4734,"çļĦçŁ":4735,"Ġenter":4736,"ton":4737,"åºĵ":4738,"åĨĻ":4739,"æĢİ":4740,"æİĮ":4741,"ember":4742,"å¢ŀéķ¿çļĦ":4743,"sh":4744,"æĹ§":4745,"æł¡":4746,"Ġanal":4747,"Ġrecovery":4748,"å°±åĥı":4749,"ledge":4750,"Ġmoment":4751,"å¤º":4752,"ulner":4753,"Ġexternal":4754,"åŃ©":4755,"æĸ¯æŀĹ":4756,"Ġestim":4757,"çļĦä¸Ģä¸ª":4758,"Ġbreak":4759,"Ġlater":4760,"è¿Ļåľº":4761,"çľĭåĪ°":4762,"æ¶Īè´¹èĢħ":4763,"Ġtaking":4764,"çļĦæĸ¹å¼ı":4765,"ä¸ºä»Ģä¹Ī":4766,"åħ¶å®ŀ":4767,"æĻ®äº¬":4768,"æ°ĳä¸»åħļ":4769,"åı¦ä¸Ģ":4770,"Ġvir":4771,"æ¸¯":4772,"ĠRussian":4773,"å¡ŀå°Ķ":4774,"Ġwrong":4775,"ĠIMF":4776,"å¾Īå¤§":4777,"Ġcorruption":4778,"Ġstatus":4779,"CA":4780,"Ġsan":4781,"aced":4782,"ç»Łä¸Ģ":4783,"æ¹":4784,"Ġsw":4785,"ç¾İåĽ½äºº":4786,"Ġamb":4787,"Ġattention":4788,"è¯ģæį®":4789,"å®ĹæķĻ":4790,"ĠCongress":4791,"Ġair":4792,"Ġpass":4793,"å¹´ä¸Ń":4794,"åĳ¢":4795,"çĶŁåĳ½":4796,"ĠBar":4797,"ĠMon":4798,"Ġcontrast":4799,"ç¡¬":4800,"åıªè¦ģ":4801,"Ġsurpris":4802,"Ġfailure":4803,"Ġbenefit":4804,"Ġprobably":4805,"Now":4806,"Ġrat":4807,"ä¸ĭè·Į":4808,"Ġindic":4809,"Ġult":4810,"ĠPrime":4811,"Ġdiscuss":4812,"èª":4813,"oring":4814,"åĴĮç»ıæµİ":4815,"åĬłåī§":4816,"çĿ£":4817,"Ġfinancing":4818,"ç¬¦":4819,"æ±¡æŁĵ":4820,"Ġcat":4821,"Ġmob":4822,"ulation":4823,"uslim":4824,"æĶ¿çŃĸçļĦ":4825,"Ġdemon":4826,"Ġprevious":4827,"Ġactually":4828,"èĨ":4829,"Ġthird":4830,"omb":4831,"çĽ¸æ¯Ķ":4832,"è§£åĨ³æĸ¹æ¡Ī":4833,"Ġmajority":4834,"æīĵåĩ»":4835,"å´©æºĥ":4836,"Ġsubstant":4837,"åĨ²åĩ»":4838,"St":4839,"stead":4840,"Ġusing":4841,"Ġoccur":4842,"èĦĨå¼±":4843,"ç§©":4844,"Ġrecession":4845,"æ¶ī":4846,"ĠSyria":4847,"vest":4848,"Ġwide":4849,"åĪĳ":4850,"åĽ½æ°ĳ":4851,"Ġgive":4852,"çĶŁçī©":4853,"Ġcomplex":4854,"minbi":4855,"ç§©åºı":4856,"rep":4857,"Ġmiddle":4858,"Ġlive":4859,"ä¹Łå°Ĩ":4860,"æķĪæŀľ":4861,"æĥ³è¦ģ":4862,"Ġterrit":4863,"igrants":4864,"Ġframew":4865,"All":4866,"Ġvulner":4867,"è¿Ľå±ķ":4868,"Ġavail":4869,"è¿½æ±Ĥ":4870,"å¢ŀéķ¿çİĩ":4871,"æ»ĭ":4872,"æī¾åĪ°":4873,"Ġcases":4874,"è´¡":4875,"Ġwee":4876,"Ġworse":4877,"izations":4878,"Ġinclude":4879,"Ġsolution":4880,"Ġargu":4881,"è¢Ńåĩ»":4882,"ä½³":4883,"åĴĮæĶ¿æ²»":4884,"äººéĥ½":4885,"åıĳèĩª":4886,"Ġcoming":4887,"Ġagenda":4888,"ĠNational":4889,"erves":4890,"Ġrad":4891,"Ġachie":4892,"Ġasset":4893,"18":4894,"Ġeth":4895,"æĺ¯åĽłä¸º":4896,"Ġnothing":4897,"åı¯èĥ½æĢ§":4898,"Ġrecord":4899,"Ġlarger":4900,"æ»ŀ":4901,"çģµ":4902,"å®ªæ³ķ":4903,"ĠãĢĭ":4904,"å°Ĭ":4905,"çīĩ":4906,"éģĹ":4907,"ä¿Ŀå®Ī":4908,"2009":4909,"Ġreality":4910,"åĸľ":4911,"Ġtaxes":4912,"Ġfeel":4913,"ĠQ":4914,"æľĢå¤§":4915,"åīĬå¼±":4916,"Ġuncertain":4917,"Ġrevolution":4918,"go":4919,"Ġ50":4920,"inanc":4921,"Ġlat":4922,"Ġliving":4923,"å¢¨":4924,"æļĸ":4925,"rats":4926,"æ»¡è¶³":4927,"Ġextreme":4928,"åħŃ":4929,"Ġthings":4930,"æŃ§":4931,"æ³¡":4932,"ĠMay":4933,"Ġimmed":4934,"åĿļæĮģ":4935,"Ġhuge":4936,"ä½ĵåĪ¶":4937,"è¿ĳå¹³":4938,"Ġprospect":4939,"ä¹łè¿ĳå¹³":4940,"Ġsituation":4941,"ç¾İåĽ½æĢ»ç»Ł":4942,"å¸¸å¸¸":4943,"Ġattract":4944,"è´¨éĩı":4945,"Ġlegit":4946,"Ġrenminbi":4947,"Ġmeeting":4948,"Ġmanufacturing":4949,"chanism":4950,"het":4951,"ç»ª":4952,"ĠAg":4953,"Ġdecisions":4954,"Ġfarm":4955,"Ġcompetition":4956,"èĴĤ":4957,"å°ļ":4958,"çĽĪ":4959,"uster":4960,"æĺİæĺ¾":4961,"å·¦åı³":4962,"Ġcorporate":4963,"èĹ":4964,"att":4965,"Ġperm":4966,"Ġeither":4967,"ä¼ĳ":4968,"Ġshar":4969,"èĦĳ":4970,"year":4971,"itarian":4972,"æ±½":4973,"Ġlegal":4974,"æĢĿæĥ³":4975,"éĢĲæ¸Ĳ":4976,"Ġdemonst":4977,"ä¸¹":4978,"æİĪ":4979,"ĠGlobal":4980,"å·´é»İ":4981,"Ġlimited":4982,"æĢĢçĸĳ":4983,"Ġbehav":4984,"Ġcirc":4985,"ä¸ĢåĪĩ":4986,"çİ°è±¡":4987,"Ġseen":4988,"ĠPakistan":4989,"Ġjo":4990,"åħ·ä½ĵ":4991,"Ġvote":4992,"è´¡çĮ®":4993,"Ġpow":4994,"åľ£":4995,"Ġnar":4996,"å°Ĩæĺ¯":4997,"è¯¥åĽ½":4998,"åħ¨çĲĥåĮĸ":4999,"é¢Ħè®¡":5000,"Ġrelig":5001,"Ġdefense":5002,"Ġcarbon":5003,"¦Ĩ":5004,"è¦Ĩ":5005,"çļĦåĽ½éĻħ":5006,"Ġden":5007,"ĠMuslim":5008,"ä¿ĿéĻ©":5009,"è¿ľè¿ľ":5010,"å¹´è½»äºº":5011,"Ġrepresent":5012,"Ġz":5013,"è¿Ī":5014,"leg":5015,"Ġrein":5016,"Ġlate":5017,"äºĭæĥħ":5018,"æĢ»ä½ĵ":5019,"Ġreducing":5020,"Ġread":5021,"2014":5022,"è§Ĥå¯Ł":5023,"Ġkill":5024,"æ¿ĢåĬ±":5025,"rugg":5026,"Ġcommitment":5027,"SE":5028,"èĸ":5029,"Ġdi":5030,"å¹´ä»¥æĿ¥":5031,"Ġansw":5032,"Ġwilling":5033,"Ġexpans":5034,"ä¸ľè¥¿":5035,"Ġeasy":5036,"Ġcollect":5037,"Like":5038,"Ġä½Ĩ":5039,"itable":5040,"ets":5041,"å½»":5042,"å¥Ĺ":5043,"æĥħç»ª":5044,"åģļæ³ķ":5045,"imately":5046,"æĤ²":5047,"Ġsubsid":5048,"called":5049,"arter":5050,"æ´Ľ":5051,"è¾©":5052,"Instead":5053,"ä½¿å¾Ĺ":5054,"åį³å°Ĩ":5055,"Ġannoun":5056,"Ġrelatively":5057,"æĽ´å¤§çļĦ":5058,"ĠPutin":5059,"åīįæĻ¯":5060,"å½ĵä»Ĭ":5061,"Ġbecame":5062,"income":5063,"Ġstandards":5064,"Ġcru":5065,"arant":5066,"è¿¹":5067,"å±±":5068,"2013":5069,"åŁºéĩĳç»Ħç»ĩ":5070,"Ġve":5071,"çļĦåħ³éĶ®":5072,"Ġstrugg":5073,"åĪĨéħį":5074,"æ¶Īæģ¯":5075,"Ġemploy":5076,"Ġgeneral":5077,"Ġsolutions":5078,"æ¥ļ":5079,"Ġfed":5080,"Ġground":5081,"utes":5082,"éĢĥ":5083,"ä¹Łæľī":5084,"agn":5085,"éĵ¶è¡ĮçļĦ":5086,"èĩ³åħ³":5087,"æĬĢèĥ½":5088,"rought":5089,"Ġcontinent":5090,"Ġpurch":5091,"å®½æĿ¾":5092,"Ġign":5093,"ung":5094,"Ġ2013":5095,"çŁ¥è¯Ĩ":5096,"éĢłæĪĲçļĦ":5097,"Ġrenew":5098,"loc":5099,"ç³ķ":5100,"å·¥ç¨ĭ":5101,"ç³»åĪĹ":5102,"Ġproduce":5103,"Ġrefugees":5104,"çļĦåİŁåĽł":5105,"èĢĮåľ¨":5106,"åıĳæĮ¥":5107,"æĸ¹éĴĪ":5108,"å¹¶æľª":5109,"ensus":5110,"æĻ®éģį":5111,"ä¸ĩäº¿ç¾İåħĥ":5112,"éĿ¢ä¸´çĿĢ":5113,"Ġgreen":5114,"OR":5115,"ired":5116,"åĢ¾":5117,"Ġwords":5118,"æĶ¾å¼ĥ":5119,"éļľç¢į":5120,"å®ıè§Ĥ":5121,"NEW":5122,"¨èĥĢ":5123,"ä¸Ģä½ĵ":5124,"åŁ¹":5125,"éĩĳèŀįå¸Ĥåľº":5126,"è®¾è®¡":5127,"Ġrefere":5128,"å±ĢéĿ¢":5129,"Ġconcerns":5130,"onald":5131,"ĠXi":5132,"èĨ¨èĥĢ":5133,"Ġsharp":5134,"çļĦä¸ĸçķĮ":5135,"åĩ¯":5136,"Ġheld":5137,"éĥ½ä¼ļ":5138,"æıĲåįĩ":5139,"åĢ¼å¾Ĺ":5140,"ĠOr":5141,"ological":5142,"çĬ¹":5143,"æģ¶åĮĸ":5144,"Ġelsewhere":5145,"å©":5146,"orn":5147,"Ġfreedom":5148,"Ġreally":5149,"æĹ¨":5150,"å¾Īéļ¾":5151,"éº¦":5152,"Ġpowers":5153,"æĶ¿å®¢":5154,"rict":5155,"Ġexpert":5156,"ification":5157,"Ġbusinesses":5158,"plus":5159,"ç©Ĩæĸ¯æŀĹ":5160,"atin":5161,"èµŀ":5162,"æĸ°éĹ»":5163,"åĮºåŁŁ":5164,"Ġindeed":5165,"2012":5166,"æ³¨æĦı":5167,"æĴ¤":5168,"çļĦçłĶç©¶":5169,"First":5170,"rel":5171,"çļĦèĥ½åĬĽ":5172,"Ġtook":5173,"Ġmiss":5174,"ception":5175,"Ġnear":5176,"æŃ£å¼ı":5177,"éĵģ":5178,"å°ĳæķ°":5179,"å¤©çĦ¶":5180,"çĥŁ":5181,"æĴŃ":5182,"äºĴèģĶ":5183,"Ġestablished":5184,"çļĦæĶ¿åºľ":5185,"æĺĤ":5186,"æĢķ":5187,"åĪ¶è£ģ":5188,"Ġjud":5189,"Ġ2014":5190,"çĻĮ":5191,"å®ĺæĸ¹":5192,"Ġurban":5193,"Ġdigital":5194,"Ġweapons":5195,"iance":5196,"é½":5197,"ä¸įä½Ĩ":5198,"å¾Ħ":5199,"æ²«":5200,"ĠAn":5201,"åĲĮæĦı":5202,"Ġ15":5203,"è½®":5204,"ext":5205,"Ġguarant":5206,"Ġsomething":5207,"Ġfavor":5208,"Ġquickly":5209,"æ³¡æ²«":5210,"Ġdyn":5211,"æľīäºĽ":5212,"åľ°çĲĥ":5213,"Ġheav":5214,"Ġarr":5215,"Ġprotection":5216,"Ġdeficits":5217,"æ»ĭçĹħ":5218,"äºĭåĬ¡":5219,"ĠEuropeans":5220,"åħ±è¯Ĩ":5221,"å¼ºå¤§çļĦ":5222,"Ġscience":5223,"æĤ£":5224,"olitical":5225,"Ġexplain":5226,"eor":5227,"ä¸Ģå®ļ":5228,"æĿĳ":5229,"éĢĶ":5230,"æĢª":5231,"éľĢè¦ģçļĦ":5232,"ĠHe":5233,"ç»ĦæĪĲ":5234,"åĲĦç§į":5235,"è´§å¸ģåŁºéĩĳç»Ħç»ĩ":5236,"Ġproducts":5237,"ĠAfghanistan":5238,"app":5239,"use":5240,"ici":5241,"åħ±äº§":5242,"æī§æĶ¿":5243,"ane":5244,"Ġdeli":5245,"ody":5246,"Ġabove":5247,"ension":5248,"åľŁåľ°":5249,"Ġcurrently":5250,"Ġfollowing":5251,"èī¾æ»ĭçĹħ":5252,"aid":5253,"Ġhous":5254,"ached":5255,"Ġsevere":5256,"Ġprep":5257,"æĥ³è±¡":5258,"æıĲä¾ĽäºĨ":5259,"Ġconfidence":5260,"æ¸ħæ¥ļ":5261,"Ġnegotiations":5262,"å³°ä¼ļ":5263,"Ġexpansion":5264,"ä¸§":5265,"Ġintrodu":5266,"è°ģ":5267,"Ġgeneration":5268,"Ġpresidential":5269,"Ġperformance":5270,"ters":5271,"çļĦéĩįè¦ģ":5272,"ature":5273,"Ġtool":5274,"æ°§":5275,"ä¹Łæ²¡æľī":5276,"åĽŀæĬ¥":5277,"åįķä¸Ģ":5278,"Ġpositive":5279,"Ġmovement":5280,"ĠInternet":5281,"Ġhouseholds":5282,"Ġdisease":5283,"Ġunlikely":5284,"ones":5285,"ç§ĺ":5286,"æĸ¹åĲĳ":5287,"osing":5288,"æĬķåħ¥":5289,"Ġsurplus":5290,"ĠPalestin":5291,"çļĦé«ĺ":5292,"Ġsectors":5293,"åĪĨè£Ĥ":5294,"Ġworldwide":5295,"oviet":5296,"Ġoffer":5297,"Ġknown":5298,"Ġsett":5299,"éĺ¶çº§":5300,"Sim":5301,"rary":5302,"Ġmist":5303,"åĽ½æľī":5304,"åĴĮç¤¾ä¼ļ":5305,"ä¿¡çĶ¨":5306,"éģĵè·¯":5307,"è£ķ":5308,"åĨĽéĺŁ":5309,"Ġcontinues":5310,"How":5311,"ä¸ªåĽ½å®¶":5312,"åľ°äº§":5313,"éĹ®é¢ĺä¸Ĭ":5314,"æķĻè®Ń":5315,"è´Łæĭħ":5316,"Ġfunding":5317,"ä¸¥éĩįçļĦ":5318,"èĭıèģĶ":5319,"eanwhile":5320,"making":5321,"Ġce":5322,"Ġmind":5323,"äºĨè§£":5324,"è¡Ģ":5325,"å¼Ĺ":5326,"åī©":5327,"ustr":5328,"ĠRo":5329,"è§Ħå®ļ":5330,"è§Ĵåº¦":5331,"Ġlaun":5332,"é½Ĳ":5333,"sp":5334,"Ġahead":5335,"åį¢":5336,"éĹŃ":5337,"Ġresults":5338,"æ³¢åĬ¨":5339,"ç¿»":5340,"éĺ¶æ®µ":5341,"ç³Łç³ķ":5342,"Ġbehavior":5343,"Meanwhile":5344,"Ġmillions":5345,"æĺŁ":5346,"ili":5347,"èĢĹ":5348,"å¤§éĻĨ":5349,"Ġconv":5350,"é¢ĨåľŁ":5351,"Ġmechanism":5352,"Ġart":5353,"æ½®":5354,"Ġcritical":5355,"Ġindustries":5356,"Ġcertainly":5357,"çļĦç»ĵæŀľ":5358,"ä¸įå¹¸":5359,"iment":5360,"å¤§éĢī":5361,"å¯¹æŃ¤":5362,"Ġvision":5363,"ressive":5364,"æĳ©":5365,"åģľæ»ŀ":5366,"è¡¥è´´":5367,"Se":5368,"ya":5369,"ator":5370,"æķĮ":5371,"Ġask":5372,"Ġreserves":5373,"Ġglobalization":5374,"Ġrepl":5375,"Ġadditional":5376,"ç¦ıåĪ©":5377,"Ġopposition":5378,"èªī":5379,"Ġbelow":5380,"èĢĮéĿŀ":5381,"Ġunivers":5382,"éĽĩ":5383,"Ġlegis":5384,"ĠSecurity":5385,"Ġmatter":5386,"Ġbeginning":5387,"ĠArgent":5388,"CD":5389,"Ġdiv":5390,"Ġline":5391,"urance":5392,"ä¸»å¯¼":5393,"åı¯ä»¥åľ¨":5394,"Ġfair":5395,"Ġcrises":5396,"Ġtechnological":5397,"Ġbecoming":5398,"å¢¨è¥¿":5399,"crib":5400,"Ġir":5401,"lex":5402,"ular":5403,"æ²ī":5404,"ç«ĭæ³ķ":5405,"è´Łè´£":5406,"Ġobvious":5407,"å²ģ":5408,"å²Ĺ":5409,"Ġresponsibility":5410,"Ġexisting":5411,"Ġprosperity":5412,"Ġalternative":5413,"Ġframework":5414,"å¢¨è¥¿åĵ¥":5415,"kn":5416,"Ġsent":5417,"Ġsource":5418,"éĩįç»Ħ":5419,"apse":5420,"unction":5421,"æ¶¦":5422,"Ġoverall":5423,"Ġinstitutional":5424,"æ£Ģ":5425,"Ġorganizations":5426,"Ġcreating":5427,"IN":5428,"ero":5429,"omin":5430,"uth":5431,"ä¸ºæŃ¢":5432,"çºµ":5433,"Ġuns":5434,"åĨ³äºİ":5435,"åıĸåĨ³äºİ":5436,"èī°":5437,"éĩįè¦ģçļĦæĺ¯":5438,"Ġ8":5439,"Ġsix":5440,"Ġstop":5441,"åŃ£":5442,"æĽ´å¥½":5443,"å¾Ĺå¤ļ":5444,"äº§ä¸ļ":5445,"ĠLatin":5446,"è½¬åĲĳ":5447,"æĺ¾èĳĹ":5448,"å±ĤéĿ¢":5449,"ĠFederal":5450,"æ°¸è¿ľ":5451,"Ġavailable":5452,"æ±½è½¦":5453,"aul":5454,"è¿Ł":5455,"oph":5456,"ordin":5457,"åĩłåįģå¹´":5458,"æİ¨è¿Ľ":5459,"exic":5460,"åģľæŃ¢":5461,"é£Łåĵģ":5462,"ĠSpain":5463,"Ġsovereign":5464,"ault":5465,"pro":5466,"Ġside":5467,"æľ«":5468,"Ġmort":5469,"è¿Ļç±»":5470,"Ġspread":5471,"åĳ¨æľŁ":5472,"éĢĤåºĶ":5473,"Ġcaused":5474,"Ġtrou":5475,"hest":5476,"åħ«":5477,"æī°":5478,"å¸Ŀ":5479,"ä½Ĩå¦Ĥæŀľ":5480,"äºīè®º":5481,"Ġ2012":5482,"ology":5483,"iquid":5484,"part":5485,"Ġcover":5486,"æīİ":5487,"æĬ¼":5488,"å¾Īå¿«":5489,"Ġscale":5490,"åįıè°ĥ":5491,"çĽ¸å½ĵäºİ":5492,"åįİçĽĽ":5493,"Ġrecognize":5494,"æĽ¿ä»£":5495,"usterity":5496,"åįİçĽĽé¡¿":5497,"aud":5498,"ries":5499,"Ġrough":5500,"Ġtyp":5501,"Ġdram":5502,"äººå£«":5503,"è¯į":5504,"urs":5505,"æĬĺ":5506,"ancer":5507,"Ġoutput":5508,"è¿Ļæł·åģļ":5509,"Ġtransition":5510,"Ġreasons":5511,"phas":5512,"lin":5513,"Ġtend":5514,"hem":5515,"erb":5516,"ĠSc":5517,"è®¡ç®Ĺ":5518,"åĽ½éĻħç¤¾ä¼ļ":5519,"Ġraise":5520,"åĲ¦åĪĻ":5521,"Ġfactors":5522,"èĪ¬":5523,"Although":5524,"Ġdynam":5525,"ees":5526,"ots":5527,"æ¯į":5528,"Ġleave":5529,"Ġ18":5530,"è·Ł":5531,"Ġcommod":5532,"Ġboom":5533,"Ġloans":5534,"Ġgains":5535,"æĶ»åĩ»":5536,"hel":5537,"Ġminister":5538,"Ġhost":5539,"èµĽ":5540,"åĪ©æ¶¦":5541,"ĠPe":5542,"è¿ĺè¦ģ":5543,"ogra":5544,"Ġcontinued":5545,"®é£Ł":5546,"çļĦæĮĳæĪĺ":5547,"Ġcand":5548,"Ġfig":5549,"Ġthing":5550,"æľĢé«ĺ":5551,"éľĩ":5552,"éļĲ":5553,"åħĭéĩĮ":5554,"Ġconsumer":5555,"èĦ±æ¬§":5556,"æĻºèĥ½":5557,"å¿½è§Ĩ":5558,"éī":5559,"inally":5560,"åħĳ":5561,"acro":5562,"ç½ļ":5563,"ä»İæľª":5564,"ä½İäºİ":5565,"åĪĻæĺ¯":5566,"Ġdistrib":5567,"è¿ĩç¨ĭä¸Ń":5568,"Ġdoubt":5569,"è´¦æĪ·":5570,"éī´":5571,"çļĦæľºä¼ļ":5572,"è¿·":5573,"omes":5574,"åĲģ":5575,"è§¦":5576,"èĢĮè¿Ļ":5577,"Ġlet":5578,"Ġcontract":5579,"ç§įæĹı":5580,"æķĪåºĶ":5581,"ç§ĳæĬĢ":5582,"Ġclearly":5583,"æ°ĳç²¹ä¸»ä¹ī":5584,"of":5585,"off":5586,"ä¸įå¾Ĺ":5587,"ç¬¦åĲĪ":5588,"care":5589,"ech":5590,"Ġmere":5591,"å¯¹åħ¶":5592,"ä¹Łå°±æĺ¯":5593,"åıĳå¸ĥ":5594,"une":5595,"Ġaccording":5596,"çĹĽ":5597,"Ġhelped":5598,"èĤ¡å¸Ĥ":5599,"èŃ¦åĳĬ":5600,"çļĦçľŁ":5601,"æ¹¾":5602,"å²Ĺä½į":5603,"æīĢéĿ¢ä¸´":5604,"åĪĨä¹ĭä¸Ģ":5605,"ressed":5606,"ç¬Ķ":5607,"acter":5608,"Ġcreation":5609,"çħ¤":5610,"èĴĻ":5611,"Ġgradu":5612,"Ġadvantage":5613,"äºĴèģĶç½ĳ":5614,"å¾ª":5615,"æĭĸ":5616,"çİ°æľī":5617,"æĽ´å¤§":5618,"Ġoutcome":5619,"2016":5620,"è§ģçļĦ":5621,"åĪ¶éĢłä¸ļ":5622,"åĳ¼åĲģ":5623,"Ġincentives":5624,"Ġfederal":5625,"Ġmess":5626,"Ġsumm":5627,"æľ¬åĽ½":5628,"ancing":5629,"æħİ":5630,"å¤±ä¸ļçİĩ":5631,"Ġmanagement":5632,"inancial":5633,"æĢĴ":5634,"ä¹Łåı¯ä»¥":5635,"åĩºçļĦ":5636,"éĩįçĤ¹":5637,"æĦıè¯Ĩ":5638,"Ġjour":5639,"2011":5640,"ç¬¬ä¸Ģ":5641,"æ®ĭ":5642,"Ġsurv":5643,"Ġcollapse":5644,"æ°§åĮĸ":5645,"Most":5646,"fortunately":5647,"iated":5648,"Ġcame":5649,"ilities":5650,"æĬĳ":5651,"ä¸ŃåĽ½åĴĮ":5652,"Ġimposs":5653,"çļĦç´":5654,"ä¿¡ä»»":5655,"åĽ¢ç»ĵ":5656,"Ġinev":5657,"çľŁæŃ£çļĦ":5658,"Ġanswer":5659,"åı¥":5660,"çĶ·":5661,"aper":5662,"Ġequity":5663,"åħħæ»¡":5664,"é¾Ħ":5665,"ograph":5666,"Ġcal":5667,"ĠGreat":5668,"å½ĵåľ°":5669,"ä¿¡å¿ĥ":5670,"Ġrob":5671,"ä¾ĿéĿł":5672,"Ġafford":5673,"lier":5674,"Ġmodels":5675,"Ġrapidly":5676,"æ¬¢è¿İ":5677,"right":5678,"çīĪ":5679,"éķĩ":5680,"ustain":5681,"å°±èĥ½":5682,"æĪĳä»¬å¿ħé¡»":5683,"Ġemphas":5684,"Ġstronger":5685,"æľīæķĪçļĦ":5686,"æĪ¿åľ°äº§":5687,"Ġstimulus":5688,"èĹı":5689,"Ġcandid":5690,"åı¬":5691,"Ġdet":5692,"æ³°":5693,"Ġimper":5694,"Ġoutside":5695,"æĶ¾ç¼ĵ":5696,"æİ¥è¿ĳ":5697,"åĢĻéĢī":5698,"ĠState":5699,"ä¿ĦåĽ½":5700,"Ġnegative":5701,"éº»":5702,"å¤©çĦ¶æ°Ķ":5703,"æĿ¥æºĲ":5704,"å¥ĸ":5705,"els":5706,"çľĭæĿ¥":5707,"æĥħåĨµä¸ĭ":5708,"Ġbasic":5709,"Ġsanctions":5710,"unt":5711,"Ġworth":5712,"åľ¨æ¬§æ´²":5713,"åºŀ":5714,"Ġforward":5715,"æįķ":5716,"èįī":5717,"Ġcenter":5718,"çĻ»":5719,"Ġeveryone":5720,"Ġcompetit":5721,"ç±»ä¼¼çļĦ":5722,"Ġsavings":5723,"Since":5724,"action":5725,"aries":5726,"åľ¨æľªæĿ¥":5727,"åĩĢ":5728,"éĺµ":5729,"éĵ¾":5730,"çłĶ":5731,"æ¶ĪéĻ¤":5732,"Ġquality":5733,"æĸĹäºī":5734,"Ġflows":5735,"æ¦Ĥå¿µ":5736,"ann":5737,"ä¹Ŀ":5738,"èĢĮä¸į":5739,"ĠSw":5740,"ĠSoviet":5741,"æıı":5742,"ĠFor":5743,"Ġcompany":5744,"åŃ¦çĶŁ":5745,"èĩ´åĬĽ":5746,"é¦Ļ":5747,"ĠJapanese":5748,"Ġfacing":5749,"Ġspecial":5750,"Ġcuts":5751,"ohn":5752,"ĠMonetary":5753,"equ":5754,"Ġste":5755,"å¤ļæł·":5756,"å¤ļå°ĳ":5757,"èģļ":5758,"åıĺéĿ©":5759,"åĽ½éĻħè´§å¸ģåŁºéĩĳç»Ħç»ĩ":5760,"Ġ2011":5761,"Ġprotest":5762,"èĢĥèĻĳåĪ°":5763,"åıĮæĸ¹":5764,"æĳĨèĦ±":5765,"21":5766,"af":5767,"do":5768,"ä¸ģ":5769,"Ġliquid":5770,"ä¸ºä½ķ":5771,"æİī":5772,"emic":5773,"åĮĸçŁ³":5774,"Ġinternal":5775,"ĠCommun":5776,"Ġallowed":5777,"Ġeffectively":5778,"Ġbuilding":5779,"ĠReserve":5780,"Ġenterpris":5781,"å½»åºķ":5782,"ä¸įå¹¸çļĦæĺ¯":5783,"gence":5784,"lig":5785,"Ã©":5786,"iter":5787,"Ġrepe":5788,"osp":5789,"Ġtrust":5790,"Ġsoft":5791,"lling":5792,"ä¾Ľç»Ļ":5793,"Ġ2016":5794,"è¾¹å¢ĥ":5795,"Ġpoints":5796,"Ġchoice":5797,"Ġage":5798,"Ġbub":5799,"Ġharm":5800,"Ġsuc":5801,"ortion":5802,"éĺ³":5803,"ĠMexic":5804,"é«ĺè¾¾":5805,"åıĺæļĸ":5806,"æīĢæľīè¿ĻäºĽ":5807,"åĭĥ":5808,"Ġelimin":5809,"èĤ¡ç¥¨":5810,"Ġfocused":5811,"account":5812,"Ġimpossible":5813,"èĩ´åĬĽäºİ":5814,"ilt":5815,"ä¸įç¡®å®ļ":5816,"Ġforced":5817,"åİĤ":5818,"æľºåĻ¨":5819,"æĮĩæłĩ":5820,"Ġwarming":5821,"Ġcommunities":5822,"Ġtreatment":5823,"Ġ40":5824,"Ġausterity":5825,"Ġdivid":5826,"è¯·":5827,"æµª":5828,"çºł":5829,"Ġimplic":5830,"çļĦç¡":5831,"Ġconsumers":5832,"Ġknowledge":5833,"éĢıæĺİ":5834,"Ġwon":5835,"Ġmacro":5836,"Ġdeg":5837,"ä¹ĭä¸Ń":5838,"Ġeconomics":5839,"æļĹ":5840,"çł´äº§":5841,"åĮĹçº¦":5842,"éŁ³":5843,"Ġaffect":5844,"Ġstudy":5845,"cle":5846,"nces":5847,"ware":5848,"erc":5849,"Ġwat":5850,"Ġmid":5851,"enty":5852,"Ġconn":5853,"èĢĮæĺĵ":5854,"èĭĹ":5855,"ossil":5856,"äºĮåįģ":5857,"éĻ¤éĿŀ":5858,"è¿«ä½¿":5859,"Ġroughly":5860,"Ġsucceed":5861,"æ¾":5862,"ä¸Ĭæ¶¨":5863,"éĥ½åľ¨":5864,"ä¸ĸçķĮéĵ¶è¡Į":5865,"å°Ķåħ°":5866,"Ġ1980":5867,"Ġassoc":5868,"Ġbasis":5869,"Ġpersonal":5870,"èĥľåĪ©":5871,"Ġrequired":5872,"Ġskills":5873,"æĹ¨åľ¨":5874,"Ġwrit":5875,"Ġmen":5876,"Ġreached":5877,"çļĦç©":5878,"åĿĽ":5879,"æŀĦå»º":5880,"ients":5881,"iety":5882,"åĨľæ°ĳ":5883,"åŃ©åŃĲ":5884,"éŃ":5885,"æľīçĿĢ":5886,"iff":5887,"è¢«è¿«":5888,"æł¸æŃ¦åĻ¨":5889,"é¦ĸçĽ¸":5890,"çĬ¶æĢģ":5891,"Ġsaving":5892,"Ġsuggests":5893,"å«":5894,"çļĦåıĳå±ķ":5895,"ç¾İåĽ½åľ¨":5896,"Ġshared":5897,"æı¡":5898,"æĢ»æĺ¯":5899,"Ġroad":5900,"åĥļ":5901,"Ġservice":5902,"Ġindependence":5903,"è´µ":5904,"ä»¥ä¸Ĭ":5905,"çĽŁåıĭ":5906,"Ġtransform":5907,"Ġassess":5908,"æĴĴ":5909,"ç«ŀäºīåĬĽ":5910,"ä¼°è®¡":5911,"æĸ°åħ´å¸Ĥåľº":5912,"Ġdamage":5913,"Ġreferend":5914,"Ġhousing":5915,"ä¸ĢæĹ¦":5916,"celer":5917,"ä½Ĩåį´":5918,"æĢ§åĴĮ":5919,"Ġchance":5920,"çĦ¦":5921,"æľªèĥ½":5922,"ç²¾ç¥ŀ":5923,"Ġactivities":5924,"14":5925,"è¸":5926,"çļĦä¸ŃåĽ½":5927,"encies":5928,"æľīéĻĲ":5929,"æīŃ":5930,"ott":5931,"å¯¹æīĭ":5932,"èĩªæĪĳ":5933,"é¡¶":5934,"æļĤ":5935,"å²¸":5936,"Ġinstead":5937,"Ġborders":5938,"Ġdangerous":5939,"çĨŁ":5940,"ĠBarack":5941,"éĨ":5942,"Ġreject":5943,"èµ«":5944,"Ġarea":5945,"used":5946,"ĠBe":5947,"Ġthereby":5948,"éĩĩçĶ¨":5949,"è®¸å¤ļäºº":5950,"ä¸ĢçĽ´åľ¨":5951,"Ġregulatory":5952,"åĮĸçŁ³çĩĥæĸĻ":5953,"economic":5954,"çļĦåŁºç¡Ģ":5955,"Ġgap":5956,"æ²³":5957,"Ġcommer":5958,"Ġextra":5959,"Ġproposed":5960,"å·®è·Ŀ":5961,"Ġparliament":5962,"å°¤åħ¶æĺ¯":5963,"ä¼¤å®³":5964,"Ġ9":5965,"ites":5966,"Ġmot":5967,"æİ¢":5968,"ĠMar":5969,"Ġcontain":5970,"ä¸ĸçķĮä¸Ĭ":5971,"2007":5972,"çľŁå®ŀ":5973,"ç»ĵæŀĦæĢ§":5974,"Ġpursue":5975,"work":5976,"Ġï¼ħ":5977,"Ġbrought":5978,"è¿Ļé¡¹":5979,"rain":5980,"ĠEconomic":5981,"Ġexec":5982,"èĢħåĴĮ":5983,"è°·":5984,"éĢļè´§":5985,"ensions":5986,"Ġregulation":5987,"Ġquestions":5988,"Ġideas":5989,"èĩªèº«çļĦ":5990,"Ġdollars":5991,"retary":5992,"ç²¾èĭ±":5993,"Ġsocieties":5994,"Ġfast":5995,"æĽ´å¥½çļĦ":5996,"Ġvital":5997,"Ġexplo":5998,"çº¦æĿŁ":5999,"ä¸¾è¡Į":6000,"ä¸įåĲĮçļĦ":6001,"Ġexperien":6002,"Ġeventually":6003,"çĪ±å°Ķåħ°":6004,"draw":6005,"pr":6006,"Ġ0":6007,"Ġcross":6008,"Ġfix":6009,"ä¸Ģä»£":6010,"ç«ł":6011,"çľģ":6012,"Ġintervention":6013,"èĲ§":6014,"ought":6015,"å±ĢåĬ¿":6016,"åĩºçİ°äºĨ":6017,"abilities":6018,"Ġlosses":6019,"bu":6020,"rist":6021,"Ġdeter":6022,"ĠII":6023,"ustom":6024,"åŃ¦ä¹ł":6025,"ĠDep":6026,"é£ŀ":6027,"æł¼åħ°":6028,"ishing":6029,"å¯Įè£ķ":6030,"Ġbelie":6031,"Ġengage":6032,"æŃ£ç¡®çļĦ":6033,"iciency":6034,"Is":6035,"rust":6036,"Ġä»¥åıĬ":6037,"itud":6038,"ç»¿":6039,"Ġclaims":6040,"Ġvirt":6041,"mb":6042,"oks":6043,"Ġcancer":6044,"Ġsources":6045,"åºŁ":6046,"åľ°ç¼ĺ":6047,"å¹¶åľ¨":6048,"è°ĭ":6049,"åĢºæĿĥ":6050,"Ġcorre":6051,"Ġcritic":6052,"Ġdays":6053,"Ġattacks":6054,"Ġnormal":6055,"èĲ§æĿ¡":6056,"nal":6057,"ĠåĮħæĭ¬":6058,"Ġflo":6059,"Ġfossil":6060,"éĢĬ":6061,"åĩºæĿ¥":6062,"å¤ļè¾¹":6063,"ä¸ŃåĽ½åľ¨":6064,"ptember":6065,"ĠNA":6066,"è®©æĪĳä»¬":6067,"Ġpoore":6068,"ä¸īä¸ª":6069,"éĢĢæ¬§":6070,"åĮĹäº¬":6071,"ä¸įä»ħä»ħ":6072,"Ġbi":6073,"è¦ģä¹Ī":6074,"ĠGeor":6075,"hens":6076,"æľĢè¿ĳçļĦ":6077,"Ġfully":6078,"å¯»æī¾":6079,"Unfortunately":6080,"Ġdeliver":6081,"war":6082,"åľ¨ä¸ŃåĽ½":6083,"çĶ³":6084,"è¯Ĭ":6085,"Ġemp":6086,"197":6087,"è¨Ģè®º":6088,"Ġseek":6089,"lands":6090,"Ġsimple":6091,"European":6092,"åı³ç¿¼":6093,"æľīåĪ©äºİ":6094,"No":6095,"Ġsym":6096,"Ġmoral":6097,"ashing":6098,"olid":6099,"åıĳè¡¨":6100,"éģµ":6101,"èĭ¥":6102,"éĤ£å°±æĺ¯":6103,"éĩıçļĦ":6104,"åħĭå°Ķ":6105,"Ġoffice":6106,"500":6107,"Ġtas":6108,"Ġcore":6109,"arity":6110,"æľīä¸Ģ":6111,"æĽ²":6112,"æ³ķéĻ¢":6113,"æĻ®éĢļ":6114,"Ġmatters":6115,"Ġevents":6116,"Ġfamily":6117,"ĠArgentina":6118,"çļĦæĬķèµĦ":6119,"å®¾":6120,"Ġlink":6121,"hers":6122,"æĭľ":6123,"æ¬§æ´²äºº":6124,"å»ī":6125,"Ġefficient":6126,"ä»·åĢ¼è§Ĥ":6127,"ustainable":6128,"ried":6129,"espite":6130,"çĶ¸":6131,"å½ĵéĢī":6132,"è¯¥åľ°åĮº":6133,"ĠDonald":6134,"Ġcommitted":6135,"Ġincreases":6136,"Ġreduced":6137,"ĠSeptember":6138,"Ġargue":6139,"Ġlimit":6140,"åıĮè¾¹":6141,"Simil":6142,"co":6143,"ħçĶ¸":6144,"Ġminist":6145,"æī®":6146,"å¤§å¤§":6147,"éĿĴ":6148,"ĠAs":6149,"ands":6150,"æŃ£å¸¸":6151,"åĨħçļĦ":6152,"çĽ´åĪ°":6153,"éĽĨä½ĵ":6154,"çĽĳçĿ£":6155,"Ġelectric":6156,"17":6157,"Cons":6158,"my":6159,"łæĿ":6160,"Ġpain":6161,"Ġfrag":6162,"éĩİ":6163,"vert":6164,"éĢĨ":6165,"åį±æľºçļĦ":6166,"èĻļ":6167,"èº«ä»½":6168,"åģĩè®¾":6169,"çŃ¾ç½²":6170,"America":6171,"Finally":6172,"ij":6173,"ats":6174,"åĴĮç¾İåĽ½":6175,"å°Ĩåħ¶":6176,"åī¯":6177,"ibly":6178,"äºĭä¼ļ":6179,"å¸¦æĿ¥äºĨ":6180,"æ¢¦":6181,"ĠParis":6182,"Second":6183,"rehens":6184,"eneral":6185,"Ġmark":6186,"çº¢":6187,"umb":6188,"fficient":6189,"æıĲæĮ¯":6190,"åŁºåĽł":6191,"å¼ĢæĶ¯":6192,"è§ĦåĪĴ":6193,"order":6194,"åĬ¿åĬĽ":6195,"Ġ2009":6196,"Ġimmigration":6197,"Ġindependent":6198,"Ġwidely":6199,"èĶ":6200,"å¯¹ä¸ŃåĽ½":6201,"Ġagreed":6202,"éĤ£éĩĮ":6203,"auc":6204,"æĺ¾èĢĮæĺĵ":6205,"Ġ2007":6206,"å¢ŀåĬłäºĨ":6207,"Ġautom":6208,"ellig":6209,"Ġclean":6210,"AR":6211,"Be":6212,"Ġsound":6213,"Ġthinking":6214,"Ġhop":6215,"äººåĴĮ":6216,"hern":6217,"æĪĳçļĦ":6218,"æıŃ":6219,"Ġyield":6220,"åīįæīĢ":6221,"Ġcompared":6222,"åıĹçĽĬ":6223,"ä¿¡è´·":6224,"Ġconsensus":6225,"198":6226,"ç¼ºå°ĳ":6227,"è´¨çĸĳ":6228,"Ġtargets":6229,"Ġvictory":6230,"mp":6231,"åįĸ":6232,"çļĦçĬ":6233,"duct":6234,"åı¯ä»¥éĢļè¿ĩ":6235,"Ġregions":6236,"angu":6237,"Ġperson":6238,"Ġaccounts":6239,"Ġprecise":6240,"Other":6241,"bol":6242,"oot":6243,"eng":6244,"å¯¹è¯Ŀ":6245,"çŃĳ":6246,"è¶£":6247,"ä¿Ŀéļľ":6248,"æ¬§çĽŁå§Ķåĳĺä¼ļ":6249,"augh":6250,"Ġquant":6251,"Ġtrading":6252,"åıĳè¾¾ç»ıæµİä½ĵ":6253,"Ġengine":6254,"æµģåĬ¨æĢ§":6255,"Ġencourage":6256,"è®¢":6257,"åĨĴ":6258,"å¢ŀå¼º":6259,"æĪĳä»¬éľĢè¦ģ":6260,"Ġplac":6261,"lled":6262,"ĠKen":6263,"Ġscen":6264,"æĮĩè´£":6265,"ä¸¥æł¼":6266,"å¡ĳ":6267,"Ġgoals":6268,"æī¹åĩĨ":6269,"Ġsignificantly":6270,"åıĸå¾ĹäºĨ":6271,"Ġindividuals":6272,"çļĦç¡®":6273,"val":6274,"ä½Ľ":6275,"Ġsuper":6276,"Ġwithdraw":6277,"å®ļä¹ī":6278,"çļĦçĭ":6279,"å¤ĸæ±ĩ":6280,"ender":6281,"åıĸä»£":6282,"ç¨ĭåºı":6283,"Ġ197":6284,"å½±åĵįåĬĽ":6285,"ç§°ä¸º":6286,"èĥĮæĻ¯":6287,"çļĦåıį":6288,"Ġlist":6289,"å¹´åĲİ":6290,"çĶŁåŃĺ":6291,"çļĦç½":6292,"Ġallies":6293,"åŃ¦æł¡":6294,"éģŃåĪ°":6295,"Ġconstruction":6296,"ĠIslamic":6297,"Ġcrucial":6298,"Ġreferendum":6299,"rest":6300,"erate":6301,"Ġred":6302,"ĠBo":6303,"Ġtrig":6304,"åı¸æ³ķ":6305,"åħ·å¤ĩ":6306,"Ġsurve":6307,"ç«ŀéĢī":6308,"Ġbiggest":6309,"Ġcomplete":6310,"Ġinitiative":6311,"æī®æ¼Ķ":6312,"aff":6313,"light":6314,"Ġ60":6315,"çļĦåĲĮæĹ¶":6316,"2000":6317,"Ġenh":6318,"çĽ¸äºĴ":6319,"éĩıåĮĸ":6320,"Ġ198":6321,"Ġprovided":6322,"Ġdescrib":6323,"éĺ»ç¢į":6324,"Ġmembership":6325,"éģŃåıĹ":6326,"Ġshows":6327,"Ġsufficient":6328,"ä¸Ńå¤®éĵ¶è¡Į":6329,"Ġaimed":6330,"Ġprimary":6331,"åľ°ç¼ĺæĶ¿æ²»":6332,"CC":6333,"uct":6334,"é¸":6335,"çļĦéĩĳèŀį":6336,"Ġpus":6337,"Ġmigration":6338,"Ġdraw":6339,"æĺ¯ä¸Ģ":6340,"å¾Ĵ":6341,"ä¸ŃåĽ½æĶ¿åºľ":6342,"ä¸ŃåĽ½é¢Ĩå¯¼äºº":6343,"åĲİèĢħ":6344,"è¯´æ³ķ":6345,"ç¼ħçĶ¸":6346,"Ġparts":6347,"ĠLib":6348,"Ġactions":6349,"Ġproviding":6350,"äºĮæ°§åĮĸ":6351,"æŃ¦è£ħ":6352,"æ½ľåĬĽ":6353,"Ġminim":6354,"ventional":6355,"Ġmeaning":6356,"ç¦ģæŃ¢":6357,"Ġproperty":6358,"Ġvulnerable":6359,"Ġlegitim":6360,"par":6361,"Ġbilateral":6362,"Ġmut":6363,"çĽĺ":6364,"pping":6365,"éķ¿çļĦ":6366,"Ġvacc":6367,"antic":6368,"ĠGo":6369,"äºīè®®":6370,"Ġexpectations":6371,"Ġdirection":6372,"Ġthought":6373,"éĤ»åĽ½":6374,"æ··ä¹±":6375,"é¦Ļæ¸¯":6376,"DS":6377,"Ġnor":6378,"åŃ¤":6379,"åħ¨éĥ¨":6380,"Ġvast":6381,"å¹³åı°":6382,"Ġconserv":6383,"å·®å¼Ĥ":6384,"å¤ĸäº¤æĶ¿çŃĸ":6385,"Ġfalling":6386,"çĽĪä½Ļ":6387,"èĽ":6388,"Ġtight":6389,"atically":6390,"åľ¨åħ¶":6391,"Ġstable":6392,"ä¸ŃåĽ½ç»ıæµİ":6393,"Ġtrying":6394,"åħĭæŀĹ":6395,"çļĦä¸Ģéĥ¨åĪĨ":6396,"çĸĳéĹ®":6397,"æĢĿç»´":6398,"airs":6399,"åłª":6400,"é©±åĬ¨":6401,"house":6402,"rus":6403,"çļĦè´¢æĶ¿":6404,"ony":6405,"Ġfri":6406,"Ġfield":6407,"å¾ĹåĪ°äºĨ":6408,"éĥ½ä¸į":6409,"rowth":6410,"é«ĺäºİ":6411,"åĲĮæł·çļĦ":6412,"èĩ³åħ³éĩįè¦ģ":6413,"Ch":6414,"çŀ":6415,"Ġsal":6416,"ita":6417,"æĺ¯å¯¹":6418,"ĠCol":6419,"å¦¥":6420,"è¿ĩäºİ":6421,"Ġheart":6422,"æ¯Ķè¾ĥ":6423,"å¼ºå¤§":6424,"æ¨¡åŀĭ":6425,"æĮĩæķ°":6426,"å¯¼èĩ´äºĨ":6427,"Ġacceler":6428,"æĬ¥éģĵ":6429,"Ġdirectly":6430,"Ġcultural":6431,"Ġneighbors":6432,"book":6433,"Ġcommodity":6434,"äºĮæ°§åĮĸç¢³":6435,"BE":6436,"Ġname":6437,"sector":6438,"è¡Ĺ":6439,"atever":6440,"cont":6441,"Ġinclus":6442,"çļĦçģ":6443,"Ġadap":6444,"Ġ2000":6445,"åıĳçĶŁäºĨ":6446,"Ġthroughout":6447,"aterial":6448,"Ġphys":6449,"Ġsteps":6450,"Ġpromote":6451,"Ġlatest":6452,"åĢĻéĢīäºº":6453,"ĠçļĦ":6454,"ä¼Ł":6455,"éĽħ":6456,"å¸ĥé²ģ":6457,"ä¸ľçĽŁ":6458,"Ġimportance":6459,"çľŁçļĦ":6460,"è¡¡éĩı":6461,"Ġdifference":6462,"Ġfaces":6463,"Ġappear":6464,"æ°ĳæĹıä¸»ä¹ī":6465,"Ġembra":6466,"Ġborder":6467,"Ġultimately":6468,"Ġfarmers":6469,"From":6470,"car":6471,"cast":6472,"Ġfront":6473,"æĺ¯ä¸į":6474,"urm":6475,"èĩªåĬ¨":6476,"æĦ¤":6477,"åħ¬æĬķ":6478,"fully":6479,"äºĮæĪĺ":6480,"æģĲæĢĸä¸»ä¹ī":6481,"è·¨åĽ½":6482,"ä¸Ģä½ĵåĮĸ":6483,"éī´äºİ":6484,"Ġmal":6485,"èĢĲ":6486,"elt":6487,"çĽ¸åĲĮ":6488,"ä¸ĸçķĮçļĦ":6489,"è¿ĻäºĽåĽ½å®¶":6490,"åĨħå®¹":6491,"å®ĺåĥļ":6492,"Ġ25":6493,"Ġpurp":6494,"Ġseeking":6495,"Ġfacilit":6496,"æĻºåĪ©":6497,"Ġconstra":6498,"Ġsecure":6499,"Ġburden":6500,"Ġcommercial":6501,"ĠNATO":6502,"Despite":6503,"oy":6504,"Ġgame":6505,"åº§":6506,"å¤§åĽ½":6507,"Ġorig":6508,"ĠMed":6509,"åħ³ç¨İ":6510,"Ġcontrary":6511,"Ġwhole":6512,"Ġsupposed":6513,"æ¿Ģè¿Ľ":6514,"Ġseemed":6515,"èĮ¨":6516,"Ġopin":6517,"è®°å½ķ":6518,"Ġera":6519,"Ġmultilateral":6520,"Ġminor":6521,"çŃĶæ¡Ī":6522,"çļĦç´§":6523,"ä¸İåħ¶":6524,"Ġtherefore":6525,"undred":6526,"éļıåĲİ":6527,"ĠIndian":6528,"ç©ºéĹ´":6529,"åı¯æĮģç»Ńåıĳå±ķ":6530,"Ġcharacter":6531,"AI":6532,"US":6533,"men":6534,"ç¯":6535,"ulated":6536,"æĬ±":6537,"é¢ĳ":6538,"åı¯éĿł":6539,"Ġenable":6540,"åĬłéĢŁ":6541,"Ġunf":6542,"çĲĨå¿µ":6543,"Ġdispl":6544,"Ġpartly":6545,"æ¸¡":6546,"é©¬æĸ¯":6547,"åĨįçĶŁ":6548,"Ġsave":6549,"Ġfollowed":6550,"Ġpattern":6551,"ç¤¾åĮº":6552,"éĢļè´§èĨ¨èĥĢ":6553,"45":6554,"Ġstory":6555,"ĠCons":6556,"å¹´éĹ´":6557,"æ²¿":6558,"reaty":6559,"åĲ¯åĬ¨":6560,"æĵįçºµ":6561,"çĸ«èĭĹ":6562,"Ġgeop":6563,"Ġradical":6564,"Ġuncertainty":6565,"policy":6566,"ä¸įåºĶè¯¥":6567,"åħ¶æ¬¡":6568,"å®ŀéªĮ":6569,"andon":6570,"å¾Ĺä»¥":6571,"Ġimbal":6572,"æĺİçĻ½":6573,"åıĸæ¶Ī":6574,"éĽĦ":6575,"Ġconsist":6576,"éĢłæĪĲäºĨ":6577,"Ġargued":6578,"Ġculture":6579,"ĠEng":6580,"æĢİæł·":6581,"èĸª":6582,"Ġscenar":6583,"eria":6584,"Ġcustom":6585,"Ġthous":6586,"Ġnation":6587,"uting":6588,"è¯»":6589,"å¾Īåı¯èĥ½":6590,"Ġdefault":6591,"Ġcompetitive":6592,"æ²Ļçī¹":6593,"Ġmargin":6594,"è®¿éĹ®":6595,"łæĿĨ":6596,"ox":6597,"Ġbro":6598,"oman":6599,"ays":6600,"ĠSen":6601,"å°±å¿ħé¡»":6602,"æĮģæľī":6603,"å°Ķå¤ļ":6604,"Ġtruth":6605,"èĩ³äºİ":6606,"ç§ĳåŃ¦å®¶":6607,"æ³¢åħ°":6608,"Ġstrategies":6609,"ique":6610,"yl":6611,"ä¸°":6612,"aled":6613,"Ġrecon":6614,"Ġsup":6615,"æĽ´é«ĺ":6616,"ĠPol":6617,"è®®éĻ¢":6618,"ä¸¤å¤§":6619,"èĪŀ":6620,"ä¼¦æ¯Ķäºļ":6621,"ĠSec":6622,"åĵ¥ä¼¦æ¯Ķäºļ":6623,"Ġresponsible":6624,"Ġbecomes":6625,"Ġreligious":6626,"Likewise":6627,"Ġ\"":6628,"çļĦè§ĤçĤ¹":6629,"Ġpush":6630,"Ġmand":6631,"Ġreve":6632,"sec":6633,"ç¾İæ´²":6634,"Ġleaving":6635,"æľĢä¸º":6636,"ä¹ĭä¸ĭ":6637,"åĪĨæŃ§":6638,"éľį":6639,"Ġabroad":6640,"Ġsubject":6641,"æĢĿèĢĥ":6642,"èµĦäº§è´ŁåĢº":6643,"Ġlaws":6644,"ç±»ä¼¼åľ°":6645,"Ġnature":6646,"ORK":6647,"ING":6648,"Ġsummit":6649,"åīįæīĢæľª":6650,"nam":6651,"ober":6652,"æ¤":6653,"Ġwind":6654,"Ġfaster":6655,"Ġmaterial":6656,"æĿłæĿĨ":6657,"ocks":6658,"ä¸ĭåİ»":6659,"Ġabandon":6660,"Ġplat":6661,"å¼ºçĥĪ":6662,"rene":6663,"Ġdrive":6664,"Ġunderstanding":6665,"Ġzero":6666,"35":6667,"çļ®":6668,"Ġcity":6669,"æīĢéľĢ":6670,"é¡º":6671,"izes":6672,"ç»Łè®¡":6673,"å±ķå¼Ģ":6674,"ondon":6675,"ganization":6676,"æĳĩ":6677,"æµĭè¯ķ":6678,"ĠYORK":6679,"èµ°åĲĳ":6680,"Ġterrorism":6681,"Ġannounced":6682,"ç»¿èī²":6683,"èµĦäº§è´ŁåĢºè¡¨":6684,"gency":6685,"requ":6686,"Ġtheory":6687,"Ġoption":6688,"è¦ģæĥ³":6689,"æĥ©":6690,"å¾Īå°ĳ":6691,"Ġapparent":6692,"Ġproduced":6693,"Ġimports":6694,"è¶³ä»¥":6695,"èµĦæľ¬ä¸»ä¹ī":6696,"Ġextent":6697,"éŁ¦":6698,"Ġturned":6699,"Ġlimits":6700,"Ġprofession":6701,"Ġstudents":6702,"Ġargument":6703,"going":6704,"Tr":6705,"ä¸ĥ":6706,"çļĦéķ¿æľŁ":6707,"Ġsens":6708,"å®Ŀ":6709,"åľ¨æŃ¤":6710,"å®ŀä½ĵ":6711,"æĹ¶åĪ»":6712,"çĦ¶åĲİ":6713,"ä¸ĸçķĮç»ıæµİ":6714,"ĠTreaty":6715,"Ġplans":6716,"Ġpolitically":6717,"Ġcapita":6718,"èİ·å¾ĹäºĨ":6719,"åĳĬè¯ī":6720,"Ġconclud":6721,"ĠRepublican":6722,"ç»ıåİĨäºĨ":6723,"Ġvolat":6724,"Ġtools":6725,"Ġjournal":6726,"ĠMexico":6727,"16":6728,"Ġwages":6729,"outher":6730,"åĬ²":6731,"æĹħ":6732,"å¾¡":6733,"èĥ½åĲ¦":6734,"Though":6735,"åĩłä¸ª":6736,"ä¼łæŁĵ":6737,"Ġbuy":6738,"åĨľæĿĳ":6739,"Ġserve":6740,"Ġtalks":6741,"å±ŀäºİ":6742,"Ġbarri":6743,"vestment":6744,"Ġmortg":6745,"ä¸įå¾Ĺä¸į":6746,"Ġliquidity":6747,"MB":6748,"gn":6749,"ls":6750,"çļĦå·¥ä½ľ":6751,"Ġwants":6752,"nder":6753,"èµĭ":6754,"illing":6755,"æīĢéľĢè¦ģçļĦ":6756,"åĬłä¸Ĭ":6757,"ĠPl":6758,"åħĭæľį":6759,"ubl":6760,"éĺ¿å°Ķ":6761,"Ġbook":6762,"Ġauthority":6763,"ä»Ĭå¤©çļĦ":6764,"è¡¨çİ°åĩº":6765,"ä¹Ĳè§Ĥ":6766,"é¾Ļ":6767,"Ġpollution":6768,"reprene":6769,"Ġweek":6770,"anu":6771,"å®«":6772,"Ġhour":6773,"æĪª":6774,"ignt":6775,"ety":6776,"Ġhere":6777,"éĥ½æľī":6778,"ç®¡åĪ¶":6779,"éĢļç¼©":6780,"ĠUniversity":6781,"inton":6782,"é©¬åħĭ":6783,"æ»ĳ":6784,"Ġconfront":6785,"ç»´äºļ":6786,"å¤ªéĺ³":6787,"Ġinsurance":6788,"çĭ¬è£ģ":6789,"Ġreflects":6790,"Ġimmediate":6791,"Ġcircum":6792,"IV":6793,"LON":6794,"çļĦåı¯èĥ½æĢ§":6795,"racies":6796,"ether":6797,"å¯¹ç¾İåĽ½":6798,"Ġrural":6799,"ä¹ĭè·¯":6800,"è¾ŀ":6801,"åīįçļĦ":6802,"Ġcontext":6803,"å¾·éĩĮ":6804,"è®ºåĿĽ":6805,"Ġefficiency":6806,"ĠHouse":6807,"Ġbankers":6808,"ç²®é£Ł":6809,"Ġgoing":6810,"Ġbroader":6811,"Ġsubstantial":6812,"Ġenterprises":6813,"éĨĴ":6814,"rehensive":6815,"back":6816,"çļĦåīį":6817,"Ġsize":6818,"Ġsides":6819,"ä»¿":6820,"åľ¨åħ¨çĲĥ":6821,"asion":6822,"illed":6823,"å½¼":6824,"Ġcoup":6825,"åįĩçº§":6826,"åĥµ":6827,"éĢĢä¼ĳ":6828,"Ġurgent":6829,"Ġadopt":6830,"æ¯«æĹłçĸĳéĹ®":6831,"ignty":6832,"13":6833,"DON":6834,"orial":6835,"edly":6836,"é¢ĩ":6837,"Ġexceed":6838,"å±Ĭ":6839,"Ġ12":6840,"æĦıè¯ĨåĪ°":6841,"ĠJohn":6842,"ä»įåľ¨":6843,"åĽ°å¢ĥ":6844,"èĪª":6845,"ĠSea":6846,"Ġpayments":6847,"Ġcurrencies":6848,"Ġadopted":6849,"Ġprospects":6850,"LONDON":6851,"Con":6852,"Ġçī¹åĪ«æĺ¯":6853,"onents":6854,"Ġpan":6855,"Ġport":6856,"Ġflex":6857,"arc":6858,"æľīæĹ¶":6859,"ulate":6860,"Ġexc":6861,"third":6862,"æĥ§":6863,"åĿ¡":6864,"è¯´æĺİ":6865,"èĭ±åĽ½çļĦ":6866,"åĮħå®¹":6867,"actions":6868,"Ġactivity":6869,"æīįæĺ¯":6870,"holders":6871,"Ġstandard":6872,"Ġsafe":6873,"Ġborrowing":6874,"Ġexcessive":6875,"åĢ¾åĲĳ":6876,"ĠOrganization":6877,"Ġplatform":6878,"Ġtakes":6879,"Ġhundred":6880,"Ġlose":6881,"Ġlending":6882,"ĠCan":6883,"ĠEuro":6884,"ĠAt":6885,"å¿į":6886,"Ġimag":6887,"oses":6888,"Ġcomprom":6889,"çĤ¸":6890,"æĹ¥ç¨ĭ":6891,"çĸ²":6892,"å®īæİĴ":6893,"ĠLondon":6894,"äº§çĶŁçļĦ":6895,"Ġinitiatives":6896,"related":6897,"Similarly":6898,"outhern":6899,"Not":6900,"Ġtell":6901,"çļĦä½ľçĶ¨":6902,"erke":6903,"Ġcash":6904,"icro":6905,"è¯±":6906,"Ġrange":6907,"orthern":6908,"æīĢå¸¦æĿ¥çļĦ":6909,"ç»ĵè®º":6910,"Ġtransformation":6911,"ä¸¾æİª":6912,"Ġreduction":6913,"æĴĳ":6914,"å®£ç§°":6915,"Ġhappen":6916,"Ġagriculture":6917,"åŁ¹è®Ń":6918,"åĩ¯æģ©":6919,"ĠSecretary":6920,"âĤ":6921,"æŃĮ":6922,"åı¯åĨįçĶŁ":6923,"æĪĲæŀľ":6924,"amb":6925,"ĠIt":6926,"Ġintellig":6927,"çĲĨæĥ³":6928,"çļĦç¼":6929,"è¯´æľį":6930,"Ġdeflation":6931,"ä¼łæĴŃ":6932,"Only":6933,"æ¸ħæ´":6934,"Ġcalls":6935,"porary":6936,"Ġspecific":6937,"Ġhistorical":6938,"è¯¸å¤ļ":6939,"Over":6940,"Per":6941,"Re":6942,"lif":6943,"Ã¡":6944,"Ġdict":6945,"åĴĮéĩĳèŀį":6946,"å®ŀè¡Į":6947,"çīĮ":6948,"Ġfinal":6949,"è®¤è¯Ĩ":6950,"Ġadvoc":6951,"Ġelected":6952,"å°Ĭéĩį":6953,"fect":6954,"enth":6955,"Ġlot":6956,"è¿Ļæ¬¡":6957,"èµ¶":6958,"ching":6959,"å¯¹æĬĹ":6960,"æĪĲå°±":6961,"usion":6962,"æķ´ä½ĵ":6963,"ovember":6964,"ittee":6965,"åįĹéĿŀ":6966,"Ġcarry":6967,"æ¸©åĴĮ":6968,"Ġcauses":6969,"Ġearlier":6970,"century":6971,"Ġdiplomatic":6972,"levant":6973,"SEAN":6974,"Ġcompetitiveness":6975,"Ġprecisely":6976,"Ġhy":6977,"å¹ķ":6978,"Ġlog":6979,"åħ¨æ°ĳ":6980,"Ġworry":6981,"èĢħä»¬":6982,"æĦıæĦ¿":6983,"Ġcompar":6984,"æįį":6985,"åĩłå¹´":6986,"2017":6987,"Its":6988,"å½¢åĬ¿":6989,"Ġassistance":6990,"Ġbuilt":6991,"Ġregulations":6992,"Ġeasing":6993,"Ġchanged":6994,"è¶³å¤ŁçļĦ":6995,"è¿Ŀçº¦":6996,"âĤ¬":6997,"AS":6998,"Ġpubl":6999,"orb":7000,"çĽ¾":7001,"æľīäºĨ":7002,"Ġstagn":7003,"ains":7004,"Ġshown":7005,"åĿĹ":7006,"åĽłä¸ºå®ĥ":7007,"åĲĦåľ°":7008,"å°½ç®¡å¦ĤæŃ¤":7009,"åĽ¢ä½ĵ":7010,"Ġimproving":7011,"Ġrevenues":7012,"æĬĳåĪ¶":7013,"mar":7014,"Ġty":7015,"isc":7016,"ilies":7017,"äººå·¥":7018,"æĬĽ":7019,"look":7020,"çī²":7021,"æĽ´ä¸į":7022,"ocial":7023,"ĠPh":7024,"èį·":7025,"æĭħä»»":7026,"Ġdepos":7027,"Ġpopulist":7028,"Ġdemands":7029,"Ġpromise":7030,"Ġagreements":7031,"Ġmeasure":7032,"ä¿ĥä½¿":7033,"Ġaddressing":7034,"Ġeasily":7035,"ecause":7036,"æĸ°åħ´ç»ıæµİä½ĵ":7037,"æ¯«ä¸į":7038,"Ġscientific":7039,"Ġsubsidies":7040,"uine":7041,"çļĦæľªæĿ¥":7042,"åı¶":7043,"Ġmigrants":7044,"lements":7045,"state":7046,"åħ¨åĽ½":7047,"çĶŁæĢģ":7048,"äº§åĩº":7049,"è¿ĺæ²¡æľī":7050,"ĠNovember":7051,"ĠKe":7052,"é¢Ħéĺ²":7053,"stitute":7054,"è¿Ļä¸ªéĹ®é¢ĺ":7055,"GDPå¢ŀéķ¿":7056,"Ġsolid":7057,"ä¸ĵä¸ļ":7058,"è¿Ļæĺ¯ä¸Ģä¸ª":7059,"åĢŁè´·":7060,"åıĺå¾ĹæĽ´åĬł":7061,"å·¦ç¿¼":7062,"Ġblock":7063,"Ġsovereignty":7064,"æĮīçħ§":7065,"åĨ·æĪĺ":7066,"know":7067,"Ġlegitimacy":7068,"æ¤į":7069,"æįįåį«":7070,"De":7071,"çļĦæĶ¹éĿ©":7072,"åħµ":7073,"å°Ŀ":7074,"åħ¶å®ĥ":7075,"Ġneither":7076,"ä¸»å¼ł":7077,"anda":7078,"åĬ¨åĬĽ":7079,"Ġenorm":7080,"ureauc":7081,"æĶ¿åºľåĴĮ":7082,"Ġ11":7083,"Ġfinally":7084,"çĶ±æŃ¤":7085,"ä½İçļĦ":7086,"Ġ2017":7087,"Ġcontribute":7088,"Ġachieved":7089,"CE":7090,"reced":7091,"æĿ°":7092,"åıĳçĶµ":7093,"umm":7094,"è¾ĳ":7095,"äº§éĺ¶çº§":7096,"è¿ĺä¼ļ":7097,"åıĳçĶŁçļĦ":7098,"cale":7099,"æ·±åĪ»":7100,"è´«ç©·":7101,"çĶŁæ´»åľ¨":7102,"ä¸įåı¯éģ¿åħį":7103,"Ġdriven":7104,"Ġfuels":7105,"Ġpractices":7106,"åĪļåĪļ":7107,"æ£®æŀĹ":7108,"reciation":7109,"Ġagricultural":7110,"åĸľæ¬¢":7111,"éĩıåĮĸå®½æĿ¾":7112,"å¦¥åįı":7113,"IP":7114,"æĪı":7115,"apital":7116,"çī¹å¾ģ":7117,"å¤±è¡¡":7118,"Ġspent":7119,"å¼ķåħ¥":7120,"Ġimproved":7121,"Ġallowing":7122,"Ġhappened":7123,"Ġappears":7124,"Ġsafety":7125,"recedented":7126,"Ġlangu":7127,"äºĨè¿Ļä¸Ģ":7128,"ethe":7129,"Ġstructure":7130,"iring":7131,"ä½Ĩå®ĥ":7132,"ĠAb":7133,"acific":7134,"aches":7135,"ĠTrade":7136,"Ġtry":7137,"ç»ĻäºĪ":7138,"itting":7139,"Ġslowdown":7140,"ĠRepublicans":7141,"Ġdiseases":7142,"åľ¨è¿Ļæĸ¹éĿ¢":7143,"bank":7144,"vail":7145,"Ġpaid":7146,"è¿ģ":7147,"ä¸įä¹ħ":7148,"çİĭ":7149,"Ġconduct":7150,"è¡Įéķ¿":7151,"ä¹ĭå¤Ħ":7152,"Ġyour":7153,"Ġpolice":7154,"Ġmeant":7155,"å»ºçŃĳ":7156,"Ġanything":7157,"Ġprovides":7158,"Ġfactor":7159,"ference":7160,"éģŃéģĩ":7161,"Ġunprecedented":7162,"Ġestimated":7163,"æ¾³":7164,"åħĭæŀĹé¡¿":7165,"erkel":7166,"lantic":7167,"yan":7168,"Ġstabil":7169,"ĠEx":7170,"çİ°éĩĳ":7171,"èµ·åĪ°":7172,"ĠJune":7173,"Ġspend":7174,"Ġproduc":7175,"çļĦäººåı£":7176,"ructuring":7177,"åįĩåĢ¼":7178,"ä¸ĩäºº":7179,"Ġentreprene":7180,"æĦŁè§ī":7181,"Ġplanet":7182,"Ġfamilies":7183,"çļĦçł´":7184,"Ġdeaths":7185,"Ġmerely":7186,"æııè¿°":7187,"Consider":7188,"Int":7189,"iable":7190,"scale":7191,"upp":7192,"Ġinform":7193,"åıĽ":7194,"iles":7195,"åľ¨è¿Ļä¸ª":7196,"cember":7197,"ull":7198,"ĠAss":7199,"åīĤ":7200,"çİ°çĬ¶":7201,"Ġsepar":7202,"å¥ĳ":7203,"åı¯èĥ½æĺ¯":7204,"æĺİæĻº":7205,"çĭĤ":7206,"Ġoblig":7207,"Ġconcent":7208,"åı¦å¤ĸ":7209,"ĠClinton":7210,"Ġelectricity":7211,"reland":7212,"Ġwage":7213,"Ġhit":7214,"è¿Ļä¹Ī":7215,"Ġonline":7216,"èµĦæł¼":7217,"è¢«è§Ĩä¸º":7218,"èĦļ":7219,"Ġacqu":7220,"é»Ħ":7221,"å·¨é¢Ŀ":7222,"éĩĩåıĸè¡ĮåĬ¨":7223,"æľįåĬ¡ä¸ļ":7224,"Ġregulators":7225,"Ġconsiderable":7226,"Ġspeech":7227,"Ġgeopolitical":7228,"åĩ¯æģ©æĸ¯":7229,"ded":7230,"lar":7231,"ych":7232,"itig":7233,"Ġbureauc":7234,"Ġhur":7235,"idency":7236,"ä¼ļåľ¨":7237,"å¯¹å¾ħ":7238,"åıĳåĬ¨":7239,"æľĢéĩįè¦ģçļĦ":7240,"ops":7241,"ĠMa":7242,"æĪĳä»¬åı¯ä»¥":7243,"æĦıè§ģ":7244,"æŀĦæĪĲ":7245,"æ°Ķä½ĵ":7246,"Ġraising":7247,"èĩªçĶ±è´¸æĺĵ":7248,"æľªæĿ¥çļĦ":7249,"åĮ»çĶŁ":7250,"åįłæį®":7251,"ç¼ĵæħ¢":7252,"ynes":7253,"å¹¸è¿Ĳ":7254,"Ġreceived":7255,"Ġexperts":7256,"å¸ĥé²ģå¡ŀå°Ķ":7257,"rich":7258,"Ġwent":7259,"see":7260,"æĬĵ":7261,"å°±åı¯ä»¥":7262,"åºĶçĶ¨":7263,"é«ĺåº¦":7264,"Ġprime":7265,"Ġadvance":7266,"ĠDecember":7267,"Ġpresent":7268,"comes":7269,"coming":7270,"é»ĺåħĭå°Ķ":7271,"Ġperman":7272,"rative":7273,"Ġæ¯Ķå¦Ĥ":7274,"ä»ĭ":7275,"éĻĦ":7276,"ĠSing":7277,"Ġwel":7278,"çļĦçĸ":7279,"éĥ¨éĺŁ":7280,"Ġ100":7281,"æĶ¯æĴĳ":7282,"å¼ºåĬ²":7283,"è¥¿æ´ĭ":7284,"2005":7285,"Ġ2001":7286,"çĶµè§Ĩ":7287,"ĠEastern":7288,"æĹ©å·²":7289,"éĶĻè¯¯çļĦ":7290,"Ġsometimes":7291,"Ġscientists":7292,"Ġoptim":7293,"Ġtemper":7294,"Ġrevenue":7295,"Ġnarrow":7296,"ĠPalestinian":7297,"åı¥è¯Ŀ":7298,"Ġmacroeconomic":7299,"mark":7300,"pay":7301,"ugh":7302,"çļĦå¸Ĥåľº":7303,"çļĦæł¸å¿ĥ":7304,"itative":7305,"ä»°":7306,"Ġpun":7307,"orks":7308,"è¿Ļå°Ĩ":7309,"æĭ¯":7310,"istics":7311,"ifying":7312,"ç«Ń":7313,"éĹ®é¢ĺæĺ¯":7314,"ĠWe":7315,"è®®åĳĺ":7316,"Ġquarter":7317,"Ġremark":7318,"æµ·å¤ĸ":7319,"standing":7320,"Ġrunning":7321,"Ġopinion":7322,"å°Ŀè¯ķ":7323,"Last":7324,"Ġmach":7325,"å¤ı":7326,"å°Ħ":7327,"ä¸Ńäº§éĺ¶çº§":7328,"ote":7329,"æĿ¥çľĭ":7330,"çĶ¨æĿ¥":7331,"ä¸İç¾İåĽ½":7332,"ĠMac":7333,"éļĶ":7334,"risis":7335,"è¡¨è¾¾":7336,"æ¡ĳ":7337,"Ġspur":7338,"owned":7339,"ä¼Ĺå¤ļ":7340,"Ġpossibility":7341,"ĠYork":7342,"Ġconflicts":7343,"ĠClimate":7344,"Ġprinciple":7345,"Ġdesigned":7346,"å®ıè§Ĥç»ıæµİ":7347,"çĻĮçĹĩ":7348,"Ġassociated":7349,"pread":7350,"©åĽº":7351,"Ġè¿Ļä¸Ģ":7352,"åĽ½éĺ²":7353,"Ġdead":7354,"å·©åĽº":7355,"çļĦç²":7356,"Ġtraining":7357,"acebook":7358,"Ġacknow":7359,"çĥ¦":7360,"Ġresulting":7361,"Ġequal":7362,"æĬµåĪ¶":7363,"idespread":7364,"ä¼Ļä¼´åħ³ç³»":7365,"å¾ªçİ¯":7366,"Ġconnect":7367,"å¤ªéĺ³èĥ½":7368,"æĭ¯æķĳ":7369,"bles":7370,"Ġåį³":7371,"ĠâĤ¬":7372,"Ġfell":7373,"ä¹Ķ":7374,"Ġexception":7375,"æľĢæĸ°":7376,"ustral":7377,"Ġworst":7378,"åĿĲ":7379,"Ġconfere":7380,"æģĲæĥ§":7381,"å®£ä¼ł":7382,"æıĲåĩºäºĨ":7383,"èģĮä¸ļ":7384,"hetor":7385,"çļĦçĬ¶":7386,"Sh":7387,"Ġpack":7388,"Ġbail":7389,"Ġbatt":7390,"åĽ½å¤ĸ":7391,"ellect":7392,"éĿŀæ³ķ":7393,"Ġmanip":7394,"uck":7395,"åŃĺæ¬¾":7396,"åĽŀå½Ĵ":7397,"Ġcommunic":7398,"Ġstarted":7399,"Ġchanging":7400,"å¥ĩæĢª":7401,"Ġoperations":7402,"çĬ¯ç½ª":7403,"Ġprinciples":7404,"è¦ĨçĽĸ":7405,"è¾©è®º":7406,"å¸ĿåĽ½":7407,"Ġbarriers":7408,"Tw":7409,"TON":7410,"govern":7411,"ira":7412,"çļĦè¡Įä¸º":7413,"åħĦ":7414,"Ġrele":7415,"å¤§åŀĭ":7416,"ĠCo":7417,"æ´ŀ":7418,"Ġrhetor":7419,"æĽ´æľī":7420,"ä¹ĭæīĢä»¥":7421,"Ġincomes":7422,"Ġunable":7423,"æķ°çĻ¾ä¸ĩ":7424,"è·µ":7425,"å¼ºåĪ¶":7426,"Ġhelping":7427,"è¾¹ç¼ĺ":7428,"Ġsustained":7429,"Ġreturns":7430,"çłĶåıĳ":7431,"Ġcircumst":7432,"Both":7433,"hib":7434,"ä¸Ŀ":7435,"äººåĿĩ":7436,"æī¬":7437,"ĠSaud":7438,"ames":7439,"åħ¨çĲĥåıĺæļĸ":7440,"Ġconsolid":7441,"Ġcapt":7442,"aves":7443,"æī¿åıĹ":7444,"ç»´æĬ¤":7445,"æ®Ĭ":7446,"Ġdeploy":7447,"Ġgreatest":7448,"ç´§å¼ł":7449,"äºĴçĽ¸":7450,"æįŁå®³":7451,"çķĻåľ¨":7452,"Ġstrength":7453,"Ġdepends":7454,"Ġoccup":7455,"Ġdestro":7456,"Ġcloser":7457,"Ġtask":7458,"æĥ©ç½ļ":7459,"æ¾³å¤§":7460,"CS":7461,"EN":7462,"PP":7463,"fall":7464,"ĽçĽ¾":7465,"Ġwidespread":7466,"icip":7467,"åĬ£":7468,"æĺ¯ä¸Ģç§į":7469,"ä¸įåıĹ":7470,"æĿ¿":7471,"å¤§è¥¿æ´ĭ":7472,"Ġstake":7473,"ä¹ŁæĹłæ³ķ":7474,"æ³ķåºŃ":7475,"Thus":7476,"ĠWh":7477,"Ġdism":7478,"å·²ç»ıåľ¨":7479,"å¼ºç¡¬":7480,"éĩĳèŀįæľºæŀĦ":7481,"Ġprevail":7482,"ĠHam":7483,"Ġrare":7484,"2001":7485,"è¿Ľè¡ĮäºĨ":7486,"Ġdebts":7487,"åĽŀåĪ°":7488,"Ġremained":7489,"çĽ®åīįçļĦ":7490,"Ġhighest":7491,"æıĲåĩºçļĦ":7492,"Ġmeth":7493,"çĺ":7494,"inary":7495,"Ġbound":7496,"Ġec":7497,"ä¼Ĳ":7498,"åį·":7499,"ç»ıèĲ¥":7500,"Ġprove":7501,"ĠEconom":7502,"åŃŁ":7503,"åıĳè¡Į":7504,"Ġenj":7505,"å®ļçļĦ":7506,"ç»ĵåĲĪ":7507,"2006":7508,"1990":7509,"Ġaddition":7510,"çĽ®åīįä¸ºæŃ¢":7511,"Ġinsist":7512,"åį±éĻ©çļĦ":7513,"Ġdouble":7514,"Ġamounts":7515,"Perhaps":7516,"æ¾³å¤§åĪ©äºļ":7517,"pri":7518,"sc":7519,"inet":7520,"ä¸ĢèĪ¬":7521,"ables":7522,"æĢ§åĪ«":7523,"iagn":7524,"Ġcomprehensive":7525,"Ġmanaged":7526,"è´§å¸ģèģĶçĽŁ":7527,"Ġforecast":7528,"nother":7529,"Ġmedical":7530,"æĬµæĬ¼":7531,"Ġtreaty":7532,"ĠParliament":7533,"Ġtransport":7534,"Ġratio":7535,"Ġmessage":7536,"Ġthousands":7537,"Because":7538,"lied":7539,"Ġå¹¶":7540,"Ġban":7541,"å®ľ":7542,"ä¸Ģèµ·":7543,"raction":7544,"ä»¥åīį":7545,"Their":7546,"ä½ĨæĪĳä»¬":7547,"å¥ĭ":7548,"éĩįå»º":7549,"ĠMerkel":7550,"åıĹå®³":7551,"ä»»æľŁ":7552,"åĲĦèĩª":7553,"Ġsupported":7554,"æĪĲåĬŁçļĦ":7555,"ĠChile":7556,"Ġinstru":7557,"æ¸©å®¤":7558,"Ġentirely":7559,"Ġvictim":7560,"ĠDemocrats":7561,"Ġpartnership":7562,"Ġcollective":7563,"Ġlaunched":7564,"rimin":7565,"Ġtro":7566,"Ġder":7567,"Ġeight":7568,"Ġlies":7569,"Ġgiving":7570,"éĢģ":7571,"æĽ´é«ĺçļĦ":7572,"Ġeconomist":7573,"æĦĪ":7574,"éĥ½å°Ĩ":7575,"Ġoutcomes":7576,"lows":7577,"ä¼ģä¸ļçļĦ":7578,"å½¢æĢģ":7579,"ç©¶ç«Ł":7580,"çĪ¶":7581,"Ġdemocracies":7582,"Ġrestrict":7583,"Ġpromises":7584,"åİŁåĽłæĺ¯":7585,"Ġinstability":7586,"Ġgenerate":7587,"è¯Ńè¨Ģ":7588,"åıįæĺłäºĨ":7589,"è¯ļçĦ¶":7590,"æķħäºĭ":7591,"ashington":7592,"ijing":7593,"Ġadapt":7594,"etheless":7595,"Ġcircumstances":7596,"His":7597,"çļĦæķ°æį®":7598,"ä¸ŃæīĢ":7599,"ä¸ºåŁºç¡Ģ":7600,"ĠAd":7601,"Ġsum":7602,"æľ¬åľ°":7603,"æĥł":7604,"åĬłåĿ¡":7605,"endit":7606,"Ġdisrupt":7607,"å¿ĥçĲĨ":7608,"æ»¥":7609,"åĲĮæĹ¶ä¹Ł":7610,"ç¨³å®ļçļĦ":7611,"Ġesc":7612,"Ġcontrols":7613,"Ġfighting":7614,"Ġschools":7615,"æİĮæı¡":7616,"äººå·¥æĻºèĥ½":7617,"EL":7618,"ares":7619,"rid":7620,"wan":7621,"enn":7622,"ä»ĩ":7623,"Ġpace":7624,"Ġfunction":7625,"ä¸įæĦ¿":7626,"åĬłæĭī":7627,"ä½ĵçİ°":7628,"Ġagencies":7629,"anks":7630,"è¾¾åĪ°äºĨ":7631,"èĲİ":7632,"åħļæ´¾":7633,"Ġteam":7634,"Ġcapitalism":7635,"Ġinsp":7636,"Ġthreats":7637,"Ġviewed":7638,"Ġchoose":7639,"Ġimplemented":7640,"Ġfundament":7641,"å¾Īå¤§ç¨ĭåº¦ä¸Ĭ":7642,"éķĩåİĭ":7643,"Ġplaces":7644,"Ad":7645,"Another":7646,"DR":7647,"æľīä¸Ģä¸ª":7648,"ĠMal":7649,"èĥ¡":7650,"åĮħåĲ«":7651,"æŀģå¤§":7652,"æĮĩå¯¼":7653,"çļĦç»ıæµİå¢ŀéķ¿":7654,"Ġended":7655,"çº³å¾·":7656,"Ġrestructuring":7657,"äº¿ç¾İåħĥçļĦ":7658,"è¯Ħè®º":7659,"çī¹åĪ«æĺ¯åľ¨":7660,"æģ°æģ°":7661,"Ġstrengthening":7662,"Ġcrimin":7663,"Ġstruggle":7664,"ĠGeorge":7665,"å»īä»·":7666,"æĦ¤æĢĴ":7667,"åı¯åĨįçĶŁèĥ½æºĲ":7668,"atures":7669,"åľ¨ä¸Ģä¸ª":7670,"æĸ¥":7671,"ray":7672,"ä»¥åĲİ":7673,"ĠSch":7674,"çº¯":7675,"çº¸":7676,"Ġwelf":7677,"uman":7678,"Ġintellect":7679,"ĠFinancial":7680,"æķ°åįģ":7681,"idered":7682,"Ġspir":7683,"æµ·æ´ĭ":7684,"Ġappropri":7685,"Ġproductive":7686,"Ġbelief":7687,"åĲĦåĽ½æĶ¿åºľ":7688,"æĹ©æľŁ":7689,"ç§ģäººéĥ¨éĹ¨":7690,"Ġreceive":7691,"è´Ŀå°Ķ":7692,"Ġuniversal":7693,"Ġexecut":7694,"Or":7695,"fuel":7696,"Ġvers":7697,"Ġfrequ":7698,"Ġmer":7699,"å°ģ":7700,"æĺ¯ç¾İåĽ½":7701,"åĴĮä¸ŃåĽ½":7702,"ĠIreland":7703,"Ġunless":7704,"è¿Ļä¸ĢçĽ®æłĩ":7705,"Ġexpendit":7706,"ĠDav":7707,"Ġconsidered":7708,"ĠHar":7709,"åĩĨç¡®":7710,"ietnam":7711,"åİĨåı²ä¸Ĭ":7712,"ä»ĺåĩº":7713,"åĢŁæ¬¾":7714,"American":7715,"Ġlearn":7716,"Ġestimates":7717,"Ġscenario":7718,"Ġhar":7719,"ä¸įåĪ©":7720,"ä¸įå¤Ł":7721,"ä¸įå¤ª":7722,"los":7723,"å°Ĩç»§ç»Ń":7724,"kept":7725,"ĠBRI":7726,"æĸ¯çī¹":7727,"è°¨":7728,"è¢«è®¤ä¸º":7729,"Ġspace":7730,"Ġ1970":7731,"æŀģä¸º":7732,"ä¸ľäºļ":7733,"åħ¬åı¸çļĦ":7734,"ç»Ŀå¯¹":7735,"èĦ±ç¦»":7736,"Ġeasier":7737,"ĠIsraeli":7738,"èĳĹåĲį":7739,"å±ħæ°ĳ":7740,"çĳŀæĭī":7741,"Ġmoving":7742,"Ġtrends":7743,"Ġintelligence":7744,"èį·åħ°":7745,"Ġenormous":7746,"Ġwelfare":7747,"Af":7748,"nic":7749,"run":7750,"çļĦæī¿è¯º":7751,"Ġmention":7752,"æĺ¥":7753,"urb":7754,"å¼Ł":7755,"ĠASEAN":7756,"ĠAustral":7757,"çŃ¹":7758,"æĸ°åĬłåĿ¡":7759,"æ¯Ķçİĩ":7760,"è½¨":7761,"å°Ķå¾·":7762,"åĨħçĳŀæĭī":7763,"ogue":7764,"è®©äºº":7765,"åįıåĬ©":7766,"æĿ¡æ¬¾":7767,"Ġanyone":7768,"Ġwars":7769,"è¾¹çķĮ":7770,"æħĮ":7771,"æ¼«":7772,"å§ĶåĨħçĳŀæĭī":7773,"Ġviews":7774,"å½ĵåīįçļĦ":7775,"ysis":7776,"Ġrefugee":7777,"Ġlegislation":7778,"ĠPeople":7779,"Ġexperienced":7780,"Ġrhetoric":7781,"gen":7782,"son":7783,"Ġ80":7784,"Ġtack":7785,"Ġlight":7786,"åĴĮæĬķèµĦ":7787,"ä»¥æŃ¤":7788,"ä½Ĩä»ĸä»¬":7789,"æīĢåľ¨":7790,"Ġsell":7791,"æĥĳ":7792,"åĬłæĭ¿":7793,"ĠGeneral":7794,"åĨ³å¿ĥ":7795,"çī¹æ®Ĭ":7796,"æ¸´":7797,"reasury":7798,"ĠJu":7799,"Ġpercent":7800,"çľĭèµ·æĿ¥":7801,"Ġ2005":7802,"çĶµåĬĽ":7803,"Ġeverywhere":7804,"Ġpresidency":7805,"which":7806,"Ġvisit":7807,"Ġdrugs":7808,"ios":7809,"yle":7810,"ºçī²":7811,"Ġsouthern":7812,"Ġwa":7813,"ä¸ŃæľŁ":7814,"Ġstem":7815,"è¦ģæ¯Ķ":7816,"å¿ĺ":7817,"çīºçī²":7818,"è¿ĩåī©":7819,"ĠGu":7820,"Ġunw":7821,"ipher":7822,"å®īåĢį":7823,"aching":7824,"Ġraised":7825,"Ġdefe":7826,"è¶ħçº§":7827,"ç»ĿéĿŀ":7828,"Ġsuffer":7829,"å®¢æĪ·":7830,"Ġabsence":7831,"åľ¨ä¸Ģèµ·":7832,"Just":7833,"whel":7834,"çļĦåľ°åĮº":7835,"è¿Ļå°±æĺ¯":7836,"ĠCold":7837,"æ´¥":7838,"æŀª":7839,"Ġseven":7840,"äº§éĩı":7841,"è¿ĺéľĢè¦ģ":7842,"æ¸ł":7843,"è¶ĬåįĹ":7844,"åĩıéĢŁ":7845,"æĶ¹éĿ©çļĦ":7846,"ĠChrist":7847,"ç¿°":7848,"Ġweakness":7849,"ĠRevolution":7850,"ĠGreek":7851,"å·¥ä¸ļåĮĸ":7852,"Ġundermine":7853,"å°ļæľª":7854,"ĠCommunist":7855,"Ġorigin":7856,"æ¸©å®¤æ°Ķä½ĵ":7857,"oz":7858,"çļĦå¯¹":7859,"aria":7860,"æĺ¯å¦ĤæŃ¤":7861,"è®¯":7862,"äººæķ°":7863,"ä¸ŃéĹ´":7864,"æķı":7865,"2020":7866,"ä½Ĩè¿ĻäºĽ":7867,"åĩºäºİ":7868,"æ³ķæ¡Ī":7869,"Ġord":7870,"çĤŃ":7871,"æµģåħ¥":7872,"adequ":7873,"Ġ2006":7874,"Ġgenuine":7875,"èĳ¡":7876,"Ġcoalition":7877,"åĲĪæ³ķæĢ§":7878,"Ġterritorial":7879,"çĬ¹å¤ª":7880,"çĹĽèĭ¦":7881,"æ¸łéģĵ":7882,"23":7883,"view":7884,"reet":7885,"aling":7886,"Ġdrop":7887,"è¿Ļä¸¤":7888,"Ġconcept":7889,"çļĦçĹ":7890,"åħ¥ä¾µ":7891,"Ġ($":7892,"Ġotherwise":7893,"ä½İæĶ¶åħ¥":7894,"ç»ĦåĲĪ":7895,"Ġquite":7896,"æľĪä»½":7897,"Ġjustice":7898,"iction":7899,"ronic":7900,"åĶĲ":7901,"Ġperspect":7902,"è®°èĢħ":7903,"èį¯çī©":7904,"Ġsmaller":7905,"Ġobjectives":7906,"Ġdynamic":7907,"Ġinevitable":7908,"Ġrobust":7909,"Ġrepeated":7910,"flation":7911,"çļĦéĵ¶è¡Į":7912,"çļĦè®¡åĪĴ":7913,"ï¼į":7914,"Ġpen":7915,"èĢ¶":7916,"ĠCal":7917,"ç¾İåĽ½ç»ıæµİ":7918,"ode":7919,"Ġintens":7920,"Ġresist":7921,"ĠWashington":7922,"ç»ĵæł¸":7923,"èĲĦ":7924,"æķ´åĲĪ":7925,"åıĤåĬł":7926,"ä¹Łæĺ¯å¦ĤæŃ¤":7927,"äºĶå¹´":7928,"éĩĬæĶ¾":7929,"Ġcombined":7930,"Ġinvolved":7931,"Ġadjustment":7932,"anuary":7933,"èĳ¡èĲĦ":7934,"Ġrevers":7935,"ä¸Ģå¹´":7936,"Ġgl":7937,"Ġwhom":7938,"åħ¬çº¦":7939,"Ġadequ":7940,"æ¶Į":7941,"è®®ç¨ĭ":7942,"å·²ç»ıå¼Ģå§ĭ":7943,"æĭīä¸ģ":7944,"çº¦ç¿°":7945,"Ġworked":7946,"Ġoffers":7947,"æĳ§":7948,"Ġprofits":7949,"Ġdeeply":7950,"åł¡":7951,"ĠDemocratic":7952,"Ġhundreds":7953,"æ¸ħæ´ģ":7954,".)":7955,"hic":7956,"Ġä»İ":7957,"Ġisol":7958,"æĿĲ":7959,"Ġalloc":7960,"Ġenforce":7961,"åıĺæĪĲ":7962,"ä¹īåĬ¡":7963,"Ġoverwhel":7964,"æĬķèµĦäºİ":7965,"è¿ĳæľŁ":7966,"ĠKong":7967,"Ġprem":7968,"æ°ĳä¸»åĽ½å®¶":7969,"éĩĩåıĸäºĨ":7970,"æī©æķ£":7971,"Ġsolar":7972,"Ġdeclared":7973,"Ġmedium":7974,"ĠVietnam":7975,"Ġensuring":7976,"å¥¹ä»¬":7977,"Ġdriving":7978,"aiwan":7979,"åĬ³åĬ¨åĬĽå¸Ĥåľº":7980,"Ġhimself":7981,"æ¶īåıĬ":7982,"Ġasked":7983,"è¯ĬæĸŃ":7984,"å°Ķå¤ļå®ī":7985,"Pro":7986,"ÄŁ":7987,"Ġtensions":7988,"çļĦæĬĢæľ¯":7989,"çļĦæĹ¶éĹ´":7990,"çļĦæĪĺçķ¥":7991,"Ġsen":7992,"Ġsqu":7993,"itter":7994,"Ġwast":7995,"åħ¼":7996,"åľ¨ç»ıæµİ":7997,"ä¸ĢçĤ¹":7998,"è¯¾":7999,"ĠCO":8000,"ä»ĸåľ¨":8001,"ä¹ŁåºĶè¯¥":8002,"Ġcomput":8003,"Ġcomplic":8004,"Ġdisaster":8005,"rison":8006,"ĠJanuary":8007,"Ġmostly":8008,"Ġaccomp":8009,"ä½įäºİ":8010,"æ¶Īå¤±":8011,"æ¡¥":8012,"Ġremov":8013,"æīĢæľīäºº":8014,"Ġtransfer":8015,"é¦ĸæ¬¡":8016,"Ġgoes":8017,"ç¼ºéĻ·":8018,"Ġeverything":8019,"åŁĥå°Ķå¤ļå®ī":8020,"Ġplayed":8021,"Ġgetting":8022,"åįļæĭī":8023,"ĠBeijing":8024,"çļĦçĭ¬":8025,"Ġ70":8026,"Ġaware":8027,"çļĦåĶ¯ä¸Ģ":8028,"Ġbott":8029,"level":8030,"Ġlines":8031,"éĢ»":8032,"å¹´åº¦":8033,"è¦ģç´ł":8034,"ores":8035,"ä¸ļåĬ¡":8036,"ĠBro":8037,"æĸ¯ç§ĳ":8038,"äº§èĥ½":8039,"åĪĨä¹ĭ":8040,"éľ¸":8041,"Ġimplies":8042,"Ġresource":8043,"Those":8044,"Ġdecided":8045,"ĠHIV":8046,"åĩłä¸ªæľĪ":8047,"Ġowners":8048,"Why":8049,"Ġcredibility":8050,"Ġdifferences":8051,"åŁĥåįļæĭī":8052,"Ġcreditors":8053,"Ġhands":8054,"RIDG":8055,"çĳŀåħ¸":8056,"Ġpriority":8057,"CAMB":8058,"åı¬å¼Ģ":8059,"Ġbubble":8060,"itude":8061,"Ġcorrect":8062,"ä¸įä»ħä»ħæĺ¯":8063,"Ġimbalances":8064,"RIDGE":8065,"CAMBRIDGE":8066,"Ex":8067,"Rus":8068,"more":8069,"Ġå¦Ĥ":8070,"çļĦçİ¯å¢ĥ":8071,"çļĦåľ°æĸ¹":8072,"itation":8073,"Ġinadequ":8074,"ä¸Ģç³»åĪĹ":8075,"Ġongoing":8076,"uses":8077,"æŃ¤åīį":8078,"Ġresil":8079,"å¿ħçĦ¶":8080,"åĳĺå·¥":8081,"æłĩå¿Ĺ":8082,"çłĸ":8083,"Ġperipher":8084,"Ġarms":8085,"åĤ¬":8086,"åĲįä¹ī":8087,"äººä»¬å¯¹":8088,"Ġaffairs":8089,"çŁŃç¼º":8090,"èĤ¯å°¼äºļ":8091,"æį¢åı¥è¯Ŀ":8092,"ä¿®æŃ£":8093,"Ġpromoting":8094,"Trump":8095,"ĠSaudi":8096,"Govern":8097,"dden":8098,"uk":8099,"inent":8100,"çļĦæİªæĸ½":8101,"çļĦéľĢæ±Ĥ":8102,"ä¸įè¦ģ":8103,"Ġforms":8104,"Ġstage":8105,"ada":8106,"æłĳ":8107,"æµ®":8108,"ĠCour":8109,"åĢ¡":8110,"Ġsex":8111,"çĶŁç´ł":8112,"ä½ľåĩº":8113,"Ġcompl":8114,"Ġcompens":8115,"è§£æĶ¾":8116,"èĥŀ":8117,"è®©ä»ĸä»¬":8118,"å®ŀçİ°äºĨ":8119,"å£ģ":8120,"Ġlesson":8121,"Ġlessons":8122,"enez":8123,"Ġincludes":8124,"çº³åħ¥":8125,"æ²¹ä»·":8126,"Ġhardly":8127,"Ġcollabor":8128,"åĲ¸å¼ķåĬĽ":8129,"Ġvarious":8130,"Ġsharply":8131,"æĦıè¯Ĩå½¢æĢģ":8132,"Ġpoorest":8133,"ç£":8134,"çļĦåĬªåĬĽ":8135,"æĺ¯ä¸ª":8136,"èĥ½åľ¨":8137,"ä¿Ĺ":8138,"antly":8139,"é«ĺçº§":8140,"æĹłçĸĳ":8141,"æĻļ":8142,"ä»»åĳ½":8143,"Ġdiss":8144,"æŁı":8145,"Ġdevelopments":8146,"Ġprefer":8147,"ints":8148,"æĦ¿æĻ¯":8149,"ç¦»å¼Ģ":8150,"äº§çĶŁäºĨ":8151,"Ġpersist":8152,"ä¸įç¡®å®ļæĢ§":8153,"æļĤæĹ¶":8154,"åĬłæĭ¿å¤§":8155,"300":8156,"BO":8157,"Whe":8158,"pin":8159,"çļĦåĢºåĬ¡":8160,"Ġfallen":8161,"Ġdue":8162,"ä½Ĩè¿Ļä¸Ģ":8163,"ods":8164,"ä¸ĭæĿ¥":8165,"æĶ¿æ²»å®¶":8166,"Ġproved":8167,"Ġpopulations":8168,"ç´§å¯Ĩ":8169,"Ġfaced":8170,"Ġgenerally":8171,"Ġcolle":8172,"Ġterrorist":8173,"å¿½çķ¥":8174,"åı¦ä¸Ģæĸ¹éĿ¢":8175,"Ġarrange":8176,"Ġdistribution":8177,"Ġministers":8178,"Ġintellectual":8179,"enezuel":8180,"çļĦé¢Ĩå¯¼":8181,"Ġbeg":8182,"raft":8183,"æ³ķæ²»":8184,"ĠBl":8185,"åħ¬æŃ£":8186,"ĠTaiwan":8187,"aren":8188,"ĠHong":8189,"Ġperce":8190,"æĶ¾åľ¨":8191,"åı°æ¹¾":8192,"æĬĹè®®":8193,"ä½ıæĪ¿":8194,"Ġfears":8195,"è¿Ŀåıį":8196,"Ġexpanding":8197,"Ġdiplomacy":8198,"æ³¨æĦıåĬĽ":8199,"Ġimplications":8200,"carbon":8201,"Germ":8202,"itz":8203,"Ġbase":8204,"Ġey":8205,"æĭĽ":8206,"å®ŀè·µ":8207,"Ġleverage":8208,"å°±åľ¨":8209,"astro":8210,"Ġresistance":8211,"Ġjoint":8212,"Ġtrial":8213,"Ġovercome":8214,"è¶ħè¶Ĭ":8215,"Ġobst":8216,"æ¼ı":8217,"è¯ķéªĮ":8218,"çī¹æľĹæĻ®çļĦ":8219,"Ġtariff":8220,"Ġpotentially":8221,"Ġmultip":8222,"ç©·äºº":8223,"åĵªäºĽ":8224,"æĵįä½ľ":8225,"Ġoptions":8226,"è¿¹è±¡":8227,"Ġgreenhouse":8228,"å©ļ":8229,"ĠHealth":8230,"åĽ½æľīä¼ģä¸ļ":8231,"Ġtypically":8232,"aught":8233,"åħĦå¼Ł":8234,"ev":8235,"fers":8236,"rdo":8237,"Ġround":8238,"çļĦå¨ģèĥģ":8239,"enh":8240,"Ġmount":8241,"å°ĸ":8242,"ĠPort":8243,"ĠMarch":8244,"Ġtried":8245,"ĠDC":8246,"Ġroot":8247,"Ġfirm":8248,"è®¸å¤ļåĽ½å®¶":8249,"åŀĴ":8250,"éļıä¹ĭ":8251,"ieth":8252,"åħ´è¶£":8253,"Ġmainly":8254,"é¥±":8255,"ĠKeynes":8256,"ÄŁan":8257,"rdoÄŁan":8258,"gain":8259,"long":8260,"çļĦèµĦéĩĳ":8261,"ery":8262,"Ġsought":8263,"åĽŃ":8264,"Ġhor":8265,"Ġreb":8266,"ctober":8267,"Ġstay":8268,"ä»¥å¾Ģ":8269,"Ġsudden":8270,"ç»ıæµİåıĳå±ķ":8271,"æ¯Ľ":8272,"ĠBut":8273,"æĥ¨":8274,"éĥ½æ²¡æľī":8275,"ffect":8276,"æĹłäºº":8277,"åĲĪç»Ħç»ĩ":8278,"åŃ¦éĻ¢":8279,"Ġexpensive":8280,"æĭīç¾İ":8281,"åĽŀçŃĶ":8282,"éĻĲäºİ":8283,"éħ·":8284,"Ġcutting":8285,"ĠPartners":8286,"Ġpatients":8287,"Ġspeak":8288,"Ġblame":8289,"Ġpractice":8290,"Ġproposal":8291,"Ġmechanisms":8292,"éĺµèĲ¥":8293,"Es":8294,"eenth":8295,"inks":8296,"çļĦåıĺåĮĸ":8297,"åı«":8298,"ä¸Ģå¼Ģå§ĭ":8299,"ä¸ĢåįĬ":8300,"Ġsusp":8301,"è¿ĩæ¸¡":8302,"åĬ¨çī©":8303,"éĩĳçłĸ":8304,"çĽ¸ä¼¼":8305,"å¯¼åĲĳ":8306,"å¯¼å¼¹":8307,"å¦ĤæŀľæĪĳä»¬":8308,"Ġaccum":8309,"æľĪçļĦ":8310,"ç»ĻäºĨ":8311,"Ġusually":8312,"Ġactors":8313,"Ġforest":8314,"è¨Ģä¹ĭ":8315,"åĽŀåºĶ":8316,"Ġemerged":8317,"Ġstands":8318,"Ġformal":8319,"Ġinnovative":8320,"Ġorganization":8321,"Ġcommitments":8322,"Ġtalk":8323,"Ġestablishment":8324,"Ġguarantee":8325,"Ġheavily":8326,"åħ±äº§åħļ":8327,"åŃ£åº¦":8328,"æīŃæĽ²":8329,"Ġhours":8330,"èĳ¡èĲĦçīĻ":8331,"ĠCourt":8332,"ECD":8333,"Rather":8334,"fense":8335,"ns":8336,"alle":8337,"Ġtold":8338,"Ġdro":8339,"Ġdimin":8340,"Ġep":8341,"ç»ĥ":8342,"asing":8343,"Ġgone":8344,"åĨ°":8345,"Ġstead":8346,"Ġexact":8347,"æ¯Ķéĩį":8348,"Ġroom":8349,"ĠOctober":8350,"åĲ¦è®¤":8351,"sels":8352,"Ġassert":8353,"æģĲæħĮ":8354,"ä¼ĺåħĪ":8355,"èıĮ":8356,"åħ±åĴĮåĽ½":8357,"å¼Ģåıĳéĵ¶è¡Į":8358,"Ġresolve":8359,"Ġreinfor":8360,"éº»çĥ¦":8361,"Ġhopes":8362,"Ġentrepreneurs":8363,"æĭīä¸ģç¾İæ´²":8364,"aut":8365,"Ġut":8366,"çļĦè¡ĮåĬ¨":8367,"çļĦåħ¬åħ±":8368,"Ġrely":8369,"åľ¨è¿Ļä¸Ģ":8370,"æĢ¨":8371,"ä¸ªä½ĵ":8372,"åĮĸä¸º":8373,"å½ĵä¸Ń":8374,"ĠMan":8375,"rud":8376,"æĿĥçļĦ":8377,"Ġregimes":8378,"Ġbankrupt":8379,"äº¤éĢļ":8380,"æİ¨è¡Į":8381,"Ġdefend":8382,"Ġtechnical":8383,"Ġprofound":8384,"æĬµæ¶Ī":8385,"Ġdevast":8386,"Ġobjective":8387,"Ġparticipation":8388,"Ġjoin":8389,"build":8390,"åŃ¤ç«ĭ":8391,"Ġvolatility":8392,"Ġlanguage":8393,"Ġconference":8394,"24":8395,"During":8396,"ping":8397,"pet":8398,"çļĦçĶŁæ´»":8399,"çļĦæĸ¹æ³ķ":8400,"itious":8401,"Ġdiagn":8402,"ä¸Ģä¸ĭ":8403,"åĲĥ":8404,"iders":8405,"Then":8406,"å¦Ļ":8407,"amer":8408,"æĥ¯":8409,"éĥ½è¦ģ":8410,"çĲĨäºĭä¼ļ":8411,"çĽ®çļĦæĺ¯":8412,"Ġpartner":8413,"ague":8414,"çŁĽçĽ¾":8415,"è·ĥ":8416,"Ġconfron":8417,"Ġoffered":8418,"åŃĺåľ¨çļĦ":8419,"ä¸įåı¯æĮģç»Ń":8420,"åĵĪé©¬æĸ¯":8421,"Ġauthoritarian":8422,"å£°ç§°":8423,"åŁºç¡Ģè®¾æĸ½æĬķèµĦ":8424,"éĻ·åħ¥äºĨ":8425,"Ġobser":8426,"Ġvehic":8427,"çļĦç©º":8428,"Ġpercentage":8429,"Ġties":8430,"heast":8431,"Ġsil":8432,"å¹»":8433,"è®½":8434,"Ġgender":8435,"å·§":8436,"æ´ª":8437,"æķ¢":8438,"åĩºåĶ®":8439,"Ġunique":8440,"æ¬§çĽŁæĪĲåĳĺåĽ½":8441,"èĩ³ä»Ĭ":8442,"æĥ³æ³ķ":8443,"é©¬éĩĮ":8444,"å°¼æĹ¥":8445,"Ġ2004":8446,"åĭĩ":8447,"åŁºéĩĳä¼ļ":8448,"åį³ä½¿æĺ¯":8449,"å³»":8450,"åģ¿è¿ĺ":8451,"Ġaggreg":8452,"çģµæ´»":8453,"Ġvirtually":8454,"åŃŁåĬłæĭī":8455,"è°¨æħİ":8456,"çļĦåĪ©çĽĬ":8457,"ç»¼":8458,"åĴĮæľįåĬ¡":8459,"æ¬²":8460,"ĠAnd":8461,"ift":8462,"Ġvo":8463,"Ġchann":8464,"çļĦçĪ":8465,"Ġ2020":8466,"åŁºåľ°":8467,"Ġrecomm":8468,"Ġupon":8469,"2004":8470,"Ġcoordin":8471,"çī©ä»·":8472,"Ġcredible":8473,"Ġmedic":8474,"Ġimmigrants":8475,"Ġcheap":8476,"Ġcycle":8477,"Ġheavy":8478,"çħ¤çĤŃ":8479,"Ġmotiv":8480,"arency":8481,"nings":8482,"Ġsold":8483,"Ġmor":8484,"ä¸ĢæĿ¡":8485,"æĪĪ":8486,"åºĩ":8487,"å¤§ä¼ļ":8488,"åı¯ä¿¡":8489,"ä¸Ĭåİ»":8490,"ä¹ĭä¸º":8491,"apore":8492,"éģ¥":8493,"åı¯èĥ½å¯¼èĩ´":8494,"Ġwhereas":8495,"ager":8496,"Ġpled":8497,"è®¤çľŁ":8498,"èº«ä¸Ĭ":8499,"èİ·çĽĬ":8500,"è´¹çĶ¨":8501,"æ°ĳä¸»çļĦ":8502,"äº¿æ¬§åħĥ":8503,"Ġacad":8504,"æĶ¶åħ¥çļĦ":8505,"æīĵçł´":8506,"Ġuseful":8507,"é¢Ŀå¤ĸ":8508,"ä»įçĦ¶æĺ¯":8509,"åıįå¯¹æ´¾":8510,"å¯ĨéĽĨ":8511,"Ġinvolve":8512,"Ġpurpose":8513,"æį¢åı¥è¯Ŀè¯´":8514,"sych":8515,"Ġspect":8516,"Ġbul":8517,"æľĭ":8518,"let":8519,"Ġrelevant":8520,"eth":8521,"ç»ıåĲĪç»Ħç»ĩ":8522,"åħ¶åľ¨":8523,"ialogue":8524,"åĪ°çĽ®åīįä¸ºæŃ¢":8525,"Ġworks":8526,"Ġappoint":8527,"æĮĩæİ§":8528,"ç¬¬ä¸Ģä¸ª":8529,"è±ª":8530,"ç»Īäºİ":8531,"çº³ç¨İ":8532,"Ġstarters":8533,"åľ°æĸ¹æĶ¿åºľ":8534,"èŃ¦å¯Ł":8535,"Ġsuffering":8536,"æĢİä¹Ī":8537,"Ġethnic":8538,"Ġmistake":8539,"éĢĨè½¬":8540,"æ¸´æľĽ":8541,"éĢ»è¾ĳ":8542,"ĠPartnership":8543,"dr":8544,"wing":8545,"ani":8546,"Ġmitig":8547,"leb":8548,"Ġones":8549,"ä¹Łä¸įä¼ļ":8550,"æİ©":8551,"åİī":8552,"åī¥":8553,"é¡µ":8554,"agers":8555,"Ġtravel":8556,"å®īçĲĨ":8557,"æ¶ĪçģŃ":8558,"Ġtransactions":8559,"åįĩé«ĺ":8560,"åĽ°æī°":8561,"Ġconclus":8562,"æļ´éľ²":8563,"å±Ĥæ¬¡":8564,"ç©ºæ°Ķ":8565,"Ġunsustainable":8566,"å¤ĸæ±ĩåĤ¨å¤ĩ":8567,"æĬĵä½ı":8568,"Ġpermanent":8569,"æĳ§æ¯ģ":8570,"Under":8571,"fort":8572,"oil":8573,"uations":8574,"Ġä»ĸ":8575,"Ġ90":8576,"çļĦäºĭå®ŀ":8577,"atis":8578,"entieth":8579,"illeg":8580,"åľ¨çº¿":8581,"åĲ¹":8582,"ä¸ºæŃ¤":8583,"Ġwhatever":8584,"2030":8585,"Ġexcl":8586,"äºİæĺ¯":8587,"Ġshock":8588,"Ġshape":8589,"åĮĸåĴĮ":8590,"çļĦç¦":8591,"Ġ2030":8592,"æľŁæľĽ":8593,"åĨħæĪĺ":8594,"å·´æĭīåħĭ":8595,"å¸¸è§Ħ":8596,"åģļå¥½":8597,"è¯ģåĪ¸":8598,"Ġprocesses":8599,"é¢ĨåŁŁçļĦ":8600,"çļĦæľĢä½³":8601,"Ġnumbers":8602,"ĠKorean":8603,"Ġpursuing":8604,"Ġgrew":8605,"Ġlearning":8606,"Ġterritory":8607,"Ġrenewable":8608,"Ġreplace":8609,"Ġfigure":8610,"Ġdegree":8611,"æŁıæŀĹ":8612,"atisf":8613,"28":8614,"Nor":8615,"iot":8616,"uous":8617,"ä¸ĳ":8618,"åħ¹":8619,"ä½©":8620,"æĪ´":8621,"ä¸įå¦Ĥ":8622,"äººéģĵ":8623,"uries":8624,"ĠAll":8625,"è¿ĩæĿ¥":8626,"è¥¿äºļ":8627,"æĶ¾æĿ¾":8628,"æİ¨ç¿»":8629,"ä¸ľæ¬§":8630,"ä¼ģä¸ļå®¶":8631,"ç¨İçİĩ":8632,"ä¸¥å³»":8633,"ç¬¬ä¸Ģæ¬¡":8634,"Ġdesper":8635,"éĿŀæ´²åĽ½å®¶":8636,"æĦŁæŁĵ":8637,"çªģçĦ¶":8638,"ä¸ĢçĽ´æĺ¯":8639,"æ®µæĹ¶éĹ´":8640,"ĠVenezuel":8641,"Ġturning":8642,"Ġplanning":8643,"Ġcausing":8644,"Ġdeval":8645,"éĽĨä¸Ńåľ¨":8646,"ographic":8647,"Ġdescribed":8648,"åīįæīĢæľªæľīçļĦ":8649,"Fortunately":8650,"Japan":8651,"iately":8652,"la":8653,"herent":8654,"çļĦåį±éĻ©":8655,"Ġstra":8656,"æĮ¤":8657,"æīĢéĢłæĪĲçļĦ":8658,"åĬ¨ä½ľ":8659,"ç¨Ģ":8660,"éĥ¨ç½²":8661,"Ġ17":8662,"æįĲ":8663,"åħ¨çĲĥéĩĳèŀįåį±æľº":8664,"ĠTreasury":8665,"å·²ç»ıæĪĲä¸º":8666,"Ġinvesting":8667,"è´¢åĬ¡":8668,"æ³¨äºİ":8669,"æ¿ĢçĥĪ":8670,"çĶµåŃĲ":8671,"èĤ¡ä¸ľ":8672,"æĬĹçĶŁç´ł":8673,"å£°æĺİ":8674,"å¿ħè¦ģçļĦ":8675,"Ġexplan":8676,"Ġcounterpart":8677,"Ġweeks":8678,"Ġprepared":8679,"Ġdramatically":8680,"å«©":8681,"Ġtype":8682,"Ġproducers":8683,"Ġaggregate":8684,"Cl":8685,"Here":8686,"power":8687,"time":8688,"é±":8689,"reen":8690,"çļĦèĩªçĶ±":8691,"orpor":8692,"Ġgir":8693,"å¸ķ":8694,"ä»¥ä¾¿":8695,"å¯¹æ¬§æ´²":8696,"æ³½":8697,"åĪ©æ¯Ķäºļ":8698,"å¤ĸåĽ´":8699,"æĹłåĬĽ":8700,"æ²¡èĥ½":8701,"ĠNig":8702,"ä»¥åıĬåħ¶ä»ĸ":8703,"ĠOECD":8704,"luding":8705,"çĹħæ¯Ĵ":8706,"ç»Ŀå¤§å¤ļæķ°":8707,"Ġpositions":8708,"Ġdeclining":8709,"ĠCommittee":8710,"Ġgenerations":8711,"Ġcombination":8712,"ä¸įç®¡æĺ¯":8713,"çļĦçľŁæŃ£":8714,"Ġdivided":8715,"æµªè´¹":8716,"Fr":8717,"NA":8718,"iences":8719,"lad":8720,"åĺ":8721,"çļĦåĨ³å®ļ":8722,"çļĦæĪĲæľ¬":8723,"aly":8724,"stream":8725,"Ġli":8726,"æĹĹ":8727,"Ġexac":8728,"ĠSil":8729,"çīĽ":8730,"ä¹ĭä¸Ĭ":8731,"ancy":8732,"æģ¨":8733,"èĤ¥":8734,"è®¤å®ļ":8735,"èįĴ":8736,"Ġapplic":8737,"æĶ¯æĮģèĢħ":8738,"Ġschem":8739,"æµģåĲĳ":8740,"å°ıæĹ¶":8741,"æīĭä¸Ń":8742,"Ġremaining":8743,"åĬŁèĥ½":8744,"Ġfailing":8745,"ĠInstitute":8746,"Ġintegrated":8747,"Ġchoices":8748,"å®ĹåķĨåĵģ":8749,"ä¼Ĭæĸ¯åħ°æķĻ":8750,"ä»ħä»ħæĺ¯":8751,"çº·çº·":8752,"Ġdiscussion":8753,"Ġmobil":8754,"æĤ£èĢħ":8755,"Ġintroduced":8756,"ĠSwed":8757,"Ġfriends":8758,"ç¯ĩ":8759,"æĽ´ä¸įçĶ¨":8760,"Ġdestroy":8761,"Ġappropriate":8762,"ĠJuly":8763,"ĠPortug":8764,"Ġexacerb":8765,"bled":8766,"iant":8767,"çļĩ":8768,"çļĦéĢīæĭ©":8769,"çļĦéĢŁåº¦":8770,"Ġwond":8771,"Ġdri":8772,"ç»ķ":8773,"Ġhon":8774,"å¼¥":8775,"chang":8776,"add":8777,"abled":8778,"ä¹Łå¿ħé¡»":8779,"åıĳèµ·":8780,"èµĦåĬ©":8781,"ä¸»æµģ":8782,"åĬłä»¥":8783,"æĮģä¹ħ":8784,"æĥħæĬ¥":8785,"åĲĦæĸ¹":8786,"Ġinfect":8787,"Ġarmy":8788,"ä»įæľī":8789,"æ®ĸ":8790,"æľºæŀĦçļĦ":8791,"Ġsigns":8792,"æİĴéĻ¤":8793,"Ġcourt":8794,"Ġelites":8795,"å¾ĭå®¾":8796,"Ġknows":8797,"å¯ĨåĪĩ":8798,"Ġmovements":8799,"ç§¯ç´¯":8800,"Ġfulf":8801,"Ġhappens":8802,"åĽºå®ļ":8803,"èı²å¾ĭå®¾":8804,"Ġdetermine":8805,"èĥĮæĻ¯ä¸ĭ":8806,"å¹¸è¿ĲçļĦæĺ¯":8807,"Ġtroops":8808,"27":8809,"count":8810,"first":8811,"oes":8812,"ties":8813,"Ġè¿ĻäºĽ":8814,"ĦæĸŃ":8815,"çļĦåİĨåı²":8816,"çļĦä¸ľè¥¿":8817,"Ġwis":8818,"Ġbody":8819,"ä¸įæ»¡":8820,"æĿľ":8821,"ç»ıè¿ĩ":8822,"ĠAct":8823,"ä¹Łèĥ½":8824,"ĠBer":8825,"Ġyouth":8826,"ä»ĸä»¬åľ¨":8827,"éĢīé¡¹":8828,"èĥĨ":8829,"å·´å«©":8830,"ĠKh":8831,"ĠJew":8832,"Ġremind":8833,"Ġundert":8834,"æł¹æºĲ":8835,"äº¿äºº":8836,"åŀĦæĸŃ":8837,"è¿Ĳä½ľ":8838,"å®Įç¾İ":8839,"curities":8840,"åıĳçĶŁåľ¨":8841,"Ġboard":8842,"Ġhumans":8843,"Ġpersu":8844,"Ġruling":8845,"Ġdeeper":8846,"Ġholding":8847,"Ġrecognized":8848,"éĢĲæŃ¥":8849,"Ġtemporary":8850,"Ġimmediately":8851,"éģµå®Ī":8852,"çĸ²è½¯":8853,"Ġbattle":8854,"PA":8855,"SA":8856,"Ġilleg":8857,"Ġfost":8858,"Ġmur":8859,"ä¸įè®º":8860,"Ġconventional":8861,"å¯¹å¤ĸ":8862,"è¿ĺèĥ½":8863,"åıªä¼ļ":8864,"äºīåıĸ":8865,"å¥½æ¶Īæģ¯":8866,"Ġaccord":8867,"Ġcontinuing":8868,"äººä»¬çļĦ":8869,"æ¯ıä¸ª":8870,"æ·±è¿ľ":8871,"ç´§è¿«":8872,"èĳ£":8873,"Without":8874,"Ġaddressed":8875,"ĠArabia":8876,"é»İå·´å«©":8877,"Ġdestruction":8878,"ivalent":8879,"Ġdelay":8880,"ä¸§å¤±":8881,"æĽ´ä¸įçĶ¨è¯´":8882,"çļĦåĨĽäºĭ":8883,"Ġdream":8884,"Ġlend":8885,"Ġbear":8886,"è¿Ļä¸¤ä¸ª":8887,"Ġsto":8888,"Ġconver":8889,"éĿĻ":8890,"ç¾İåĽ½æĶ¿åºľ":8891,"ä¹ĭæĹ¶":8892,"iberal":8893,"éĹ®è´£":8894,"æ¯Ķæĸ¹":8895,"ä¿ĿçķĻ":8896,"Ġgrown":8897,"Ġfaith":8898,"ç½Ĺé©¬":8899,"stitution":8900,"è®¡åĪĴçļĦ":8901,"ructive":8902,"Ġequally":8903,"Ġannually":8904,"Ġelectoral":8905,"Ġstarting":8906,"ä¹Łè®¸æĺ¯":8907,"ney":8908,"Ġlearned":8909,"æĽ´å¥½åľ°":8910,"Ġcalc":8911,"ĠColomb":8912,"Ġinadequate":8913,"é±¼":8914,"è¹":8915,"Ġå¹¶ä¸Ķ":8916,"çļĦæ°ĳä¸»":8917,"Ġparent":8918,"Ġpension":8919,"Ġbre":8920,"Ġfoot":8921,"äººçī©":8922,"rage":8923,"èµĮ":8924,"ĠCent":8925,"ä¹Łåı¯èĥ½":8926,"å°ĨæĪĲä¸º":8927,"æĽ´å¿«":8928,"è¾±":8929,"è¾Ľ":8930,"anted":8931,"ibilities":8932,"éĥ½èĥ½":8933,"ffic":8934,"Ġplants":8935,"debt":8936,"åįĹäºļ":8937,"ç¤ºå¨ģ":8938,"Ġpromised":8939,"åĲ¸æĶ¶":8940,"å¤±åİ»äºĨ":8941,"DGs":8942,"Ġtransparency":8943,"Ġambitious":8944,"ilipp":8945,"Beyond":8946,"æľĭåıĭ":8947,"Global":8948,"´è´£":8949,"ä¸Ģå®¶":8950,"ä¸Ģéĥ¨åĪĨ":8951,"Ġstress":8952,"Ġexerc":8953,"ĠMe":8954,"è°´è´£":8955,"è¿Ļä¸ĢéĹ®é¢ĺ":8956,"åıĹåĪ°äºĨ":8957,"èĭ±æł¼åħ°":8958,"Ġ196":8959,"Ġtwentieth":8960,"oking":8961,"åĳ½è¿Ĳ":8962,"çļĦä¸ĢäºĽ":8963,"éª¤":8964,"Ġissued":8965,"èĲ¥åħ»":8966,"Ġsustainability":8967,"è¶ħè¿ĩäºĨ":8968,"é¥¥":8969,"Ġreflected":8970,"ikes":8971,"Ġbringing":8972,"Ġcorporations":8973,"Ġcandidates":8974,"è°·æŃĮ":8975,"åĢºæĿĥäºº":8976,"å¥ĳçº¦":8977,"Ġsummer":8978,"Our":8979,"Ġaris":8980,"çļĦèĥ½æºĲ":8981,"çļĦä»·æł¼":8982,"çļĦä¿¡æģ¯":8983,"Ġbold":8984,"Ġfeed":8985,"aration":8986,"iled":8987,"ä¸Ģä»½":8988,"Ġlosing":8989,"Ġanim":8990,"resp":8991,"Ġsea":8992,"Ġimped":8993,"å¤±æľĽ":8994,"éĩĳèŀįä½ĵç³»":8995,"idents":8996,"å½±åĵįåĪ°":8997,"Ġunderlying":8998,"èİ·åıĸ":8999,"ç§ĳç´¢":9000,"å¡«":9001,"æ¯ıå¤©":9002,"å»ºç«ĭä¸Ģä¸ª":9003,"ä»½é¢Ŀ":9004,"Ġtowards":9005,"Ġencouraging":9006,"Ġanalysis":9007,"éľĩæĥĬ":9008,"Ġquantitative":9009,"ĠPoland":9010,"Ġpublished":9011,"ĠPhilipp":9012,"Ġperspective":9013,"å°¼æĹ¥åĪ©äºļ":9014,"ç§ĳç´¢æ²ĥ":9015,"Ġï¼Ľ":9016,"çļĦåİĭåĬĽ":9017,"çļĦä¾ĭåŃĲ":9018,"Ġcell":9019,"Ġbillions":9020,"Ġreact":9021,"å¤§å®ĹåķĨåĵģ":9022,"conn":9023,"cons":9024,"å¥ī":9025,"ĠBang":9026,"éĺ´":9027,"è¿ĻäºĽéĹ®é¢ĺ":9028,"llor":9029,"èīº":9030,"Ġ1930":9031,"å°¼æĸ¯":9032,"Ġsolve":9033,"ç§°ä¹ĭä¸º":9034,"æ½ĺ":9035,"Ġputting":9036,"è¶ĬæĿ¥è¶Ĭå¤ļ":9037,"Ġrequirements":9038,"Ġstudies":9039,"acco":9040,"Ġgrand":9041,"ä¸»æĿĥåĢºåĬ¡":9042,"aza":9043,"Ġbloc":9044,"Ġpriorities":9045,"Ġoccurred":9046,"Ġpurchases":9047,"Ġtrouble":9048,"bola":9049,"Ġordinary":9050,"ĠBrother":9051,"å£ģåŀĴ":9052,"å®īçĲĨä¼ļ":9053,"CO":9054,"Non":9055,"Ġpsych":9056,"Ġevol":9057,"Ġnations":9058,"åľ¨èĭ±åĽ½":9059,"æľīå¤ļ":9060,"ĠCar":9061,"å¹´é¾Ħ":9062,"iforn":9063,"çĶ¨æĪ·":9064,"ĠMc":9065,"æ¬§æ´²åĽ½å®¶":9066,"åıĺä¸º":9067,"licit":9068,"èĤĨ":9069,"Ġtrack":9070,"ä½İåĪ©çİĩ":9071,"åĽłä¸ºä»ĸä»¬":9072,"Ġunderpin":9073,"åĩıè½»":9074,"å¼ķå¯¼":9075,"èİ·èĥľ":9076,"ä¾ĭå¤ĸ":9077,"Ġdesire":9078,"Ġlooks":9079,"ç´§æĢ¥":9080,"Ġtradition":9081,"Ġplaying":9082,"Ġcritics":9083,"Ġphil":9084,"Ġrepresents":9085,"ĠSyrian":9086,"Ġaggressive":9087,"Ġlegisl":9088,"ĠDepression":9089,"éĿĴå¹´":9090,"Ġbegun":9091,"è®½åĪº":9092,"GO":9093,"gu":9094,"çļĦæīĢæľī":9095,"çļĦåĲİæŀľ":9096,"çļĦä»»åĬ¡":9097,"iti":9098,"Ġfert":9099,"Ġnomin":9100,"æĺ¯æľī":9101,"asc":9102,"ested":9103,"è¡ĮæĶ¿":9104,"å®ŀè´¨":9105,"æŃ¤æ¬¡":9106,"osov":9107,"çļĦç¥":9108,"Ġ13":9109,"ogle":9110,"Ġpreced":9111,"åĬ©éķ¿":9112,"è®¾å¤ĩ":9113,"axim":9114,"åįĹéĥ¨":9115,"æ·±åħ¥":9116,"æĪĲåĬŁåľ°":9117,"Ġdiscipl":9118,"åį¡æ¢ħ":9119,"çļĦæľĢæĸ°":9120,"Still":9121,"èī°éļ¾":9122,"Ġtrigger":9123,"BER":9124,"ĠSingapore":9125,"ĠAustralia":9126,"ameron":9127,"æ¯Ķæĸ¹è¯´":9128,"Rec":9129,"iers":9130,"lines":9131,"with":9132,"Ġæĺ¯":9133,"ĠæĪĳä»¬":9134,"Ġä»ĸä»¬":9135,"çļĦåħ³ç³»":9136,"åĴĮå®īåħ¨":9137,"è¿Ļä¹Łæĺ¯":9138,"äºĨå¯¹":9139,"è¡·":9140,"ä»¥ä¸ĭ":9141,"ula":9142,"æĽ´åħ·":9143,"åĬ¨æľº":9144,"Ġimpose":9145,"rowing":9146,"Ġtrip":9147,"ä¿¡åı·":9148,"Ġreluct":9149,"åĩıç¨İ":9150,"196":9151,"Ġmonit":9152,"åįłé¢Ĩ":9153,"çĽĳç®¡èĢħ":9154,"éĺ»æĮ":9155,"Ġgained":9156,"æĢ¥éľĢ":9157,"Ġseriously":9158,"Ġcontributed":9159,"æ°¸ä¹ħ":9160,"Ġassume":9161,"ç»ıå¸¸é¡¹çĽ®":9162,"ustrial":9163,"Ġbelieved":9164,"Ġexactly":9165,"Ġobservers":9166,"New":9167,"Pacific":9168,"gas":9169,"ires":9170,"ken":9171,"ze":9172,"çļĦè´§å¸ģ":9173,"ana":9174,"Ġpaper":9175,"orient":9176,"Ġgave":9177,"è¿Ļå°±":9178,"ä¸Ńåħ±":9179,"å¿Ĩ":9180,"ĠSocial":9181,"ĠGovern":9182,"æĢ»é¢Ŀ":9183,"å¼ıçļĦ":9184,"Ġperfect":9185,"æİ¥è§¦":9186,"1980":9187,"çĭ±":9188,"å²©":9189,"æķĻèĤ²åĴĮ":9190,"åĪĽéĢłäºĨ":9191,"Ġspecies":9192,"ä¼ļè®®ä¸Ĭ":9193,"class":9194,"æ¯Ĵåĵģ":9195,"èī¯å¥½çļĦ":9196,"Ġready":9197,"çĥŁèįī":9198,"Afric":9199,"é¥±åıĹ":9200,"CT":9201,"æĨ":9202,"Ġä¹Ł":9203,"åľ¨åĽ½éĻħ":9204,"ä¸ĢåĽ½":9205,"ĠErdoÄŁan":9206,"ä½Ĩå®ĥä»¬":9207,"Ġalthough":9208,"åİĮ":9209,"å¢Ļ":9210,"Ġeconomically":9211,"åĪ¶çº¦":9212,"unn":9213,"Ġ16":9214,"å¢ŀéķ¿åĴĮ":9215,"è§£ä½ĵ":9216,"èĩ´åĳ½":9217,"åıĳå±ķä¸Ń":9218,"Ġrelated":9219,"æĶ¯æĮģçļĦ":9220,"Ġtwenty":9221,"æĭħä¿Ŀ":9222,"Ġadded":9223,"Ġoffset":9224,"Ġhealthy":9225,"æŀĹæĸ¯":9226,"å¤ªå¹³":9227,"æ·±åº¦":9228,"èĬ¬":9229,"lihood":9230,"çİ°ä»£åĮĸ":9231,"roduct":9232,"Ġsurprise":9233,"Ġdetail":9234,"æĺ¾èĢĮæĺĵè§ģ":9235,"Ġconservative":9236,"Ġinclusive":9237,"ylum":9238,"çļĦç²¾":9239,"ĠHamas":9240,"Ġenjoy":9241,"åıĹå®³èĢħ":9242,"åĶĲçº³å¾·":9243,"Ab":9244,"DA":9245,"çļĦåħ±åĲĮ":9246,"æľ¨":9247,"Ġmix":9248,"åĽ½åĬ¡":9249,"iling":9250,"æľīèĥ½åĬĽ":9251,"å¤§èĲ§æĿ¡":9252,"æ²¦":9253,"Ġric":9254,"Ġrational":9255,"åĳĪ":9256,"åīĳ":9257,"ä¸ŃåĽ½äºº":9258,"å±ĭ":9259,"ĠBal":9260,"éĥ½å¿ħé¡»":9261,"ĠFin":9262,"èĤī":9263,"ç«ĭåĪ»":9264,"ä½İä¼°":9265,"é©¾":9266,"Ġunderst":9267,"æīĢæľīçļĦ":9268,"Ġreports":9269,"å°ıç»Ħ":9270,"Ġmodest":9271,"éķ¿æľŁä»¥æĿ¥":9272,"éħĴ":9273,"Ġproportion":9274,"åį³ä½¿åľ¨":9275,"çļĦæľĢå¤§":9276,"å¾Īå¤ļäºº":9277,"æģĲæĢĸåĪĨåŃĲ":9278,"Ġliberalization":9279,"åĲĪçĲĨçļĦ":9280,"ĠProt":9281,"Ġkilled":9282,"åħ±äº§ä¸»ä¹ī":9283,"Ġcontracts":9284,"ĠEngland":9285,"èµĭäºĪ":9286,"çļĦç¼º":9287,"çļĦçł´åĿı":9288,"Comp":9289,"fin":9290,"works":9291,"icious":9292,"ari":9293,"æĺ¯ä¸ºäºĨ":9294,"ä¸ĢåĲį":9295,"ä¸įäºĨ":9296,"ä¸įèī¯":9297,"ä¸Ńæľī":9298,"igor":9299,"æĬ«":9300,"åı¯æĢķ":9301,"ä½Ĩåħ¶":9302,"åĪ°æĿ¥":9303,"å°±è¿ŀ":9304,"åĬłå¤§":9305,"æĦıæĸĻ":9306,"æĺİå¹´":9307,"ç©¿":9308,"æ´»åĬĽ":9309,"æµģè¡Į":9310,"Ġconfir":9311,"Ġemergence":9312,"Ġrestore":9313,"éĺ²å¾¡":9314,"Ġequivalent":9315,"èµĦäº§ä»·æł¼":9316,"äººåı£çļĦ":9317,"ĠInvestment":9318,"Ġflaw":9319,"èĮĥåĽ´åĨħ":9320,"Ġachieving":9321,"ĠRoad":9322,"Ġprotests":9323,"Ġvictims":9324,"ih":9325,"Ġfire":9326,"Ġtough":9327,"ĠâĢ¦":9328,"åľ¨æĶ¿æ²»":9329,"å¹´åºķ":9330,"åĪ°åºķ":9331,"Ġimposed":9332,"é«ĺéĢŁ":9333,"å°ĶçļĦ":9334,"æĢ»åĢ¼":9335,"Ġpeak":9336,"Ġleads":9337,"æĥħå½¢":9338,"irect":9339,"2003":9340,"ĠIndones":9341,"Ġemerge":9342,"æ°´å¹³çļĦ":9343,"éĥ¨éĹ¨çļĦ":9344,"Ġpossibly":9345,"arsh":9346,"Ġaccountability":9347,"Ġexperiment":9348,"ç¼ĵè§£":9349,"Ġprofit":9350,"å¹ħåº¦":9351,"Ġtruly":9352,"ugust":9353,"Ġreaching":9354,"Ġidentity":9355,"ĠLeban":9356,"Ġsubstantially":9357,"Ġfixed":9358,"Ġcriticism":9359,"Ġmutual":9360,"èĢĲèį¯":9361,"ĠPlan":9362,"ifornia":9363,"400":9364,"Am":9365,"En":9366,"çļĦçĲĨçĶ±":9367,"onom":9368,"ç»©":9369,"ä¹ĥ":9370,"imir":9371,"adow":9372,"oreign":9373,"å±¥":9374,"ibiot":9375,"ä¸ĭæ»ĳ":9376,"rown":9377,"éĹ®é¢ĺåľ¨äºİ":9378,"Ġcompris":9379,"æĹ¥æ¸Ĳ":9380,"éĽ¨":9381,"ĠKosov":9382,"Ġquo":9383,"æİ¥çĿĢ":9384,"è£Ķ":9385,"Ġactive":9386,"éĿŀæ´²çļĦ":9387,"exchange":9388,"ä¸ĭéĻįåĪ°":9389,"ä¸ĵæ³¨äºİ":9390,"éĻįä½İäºĨ":9391,"Ġprotecting":9392,"çļĦçľĭ":9393,"éĶĢåĶ®":9394,"ĠAIDS":9395,"éĢĶå¾Ħ":9396,"Ġdramatic":9397,"åħĳçİ°":9398,"è¸ª":9399,"russels":9400,"Ġphysical":9401,"ç»ĵæł¸çĹħ":9402,"Ġbottom":9403,"ladimir":9404,"å¤ªå¹³æ´ĭ":9405,"ground":9406,"pric":9407,"Ġè¯¥":9408,"äº¦":9409,"anied":9410,"Ġwid":9411,"Ġmaxim":9412,"åľ¨åĨħçļĦ":9413,"æľĢä½İ":9414,"Ġenact":9415,"osis":9416,"ibet":9417,"åĮºåĪ«":9418,"ä½¿åħ¶":9419,"Ġdecide":9420,"å¾Īæľīåı¯èĥ½":9421,"çĤ¹æĺ¯":9422,"æĬķèµĦåĴĮ":9423,"Ġinvestig":9424,"åĵįåºĶ":9425,"èĭ±åĽ½éĢĢæ¬§":9426,"åģļçļĦ":9427,"Ġarrest":9428,"Ġtransfers":9429,"çļĦäººä»¬":9430,"è¿Ľè¡ĮçļĦ":9431,"å½¢è±¡":9432,"ç§»åĬ¨":9433,"è´ŁéĿ¢":9434,"Ġsigned":9435,"Ġaffected":9436,"Ġfewer":9437,"æĪ¿ä»·":9438,"Ġdisputes":9439,"Ġearth":9440,"Ġestablishing":9441,"æĤ²åī§":9442,"Ġfigures":9443,"Ġcandidate":9444,"pril":9445,"çļĦçĬ¶åĨµ":9446,"Ġobstac":9447,"åºĩæĬ¤":9448,"22":9449,"75":9450,"Can":9451,"eb":9452,"ipe":9453,"Ġä¸ŃåĽ½":9454,"Ġtact":9455,"çļĦåģļæ³ķ":9456,"itably":9457,"Ġbomb":9458,"arth":9459,"imb":9460,"ntil":9461,"éĻĪ":9462,"ĠSerb":9463,"Ġcompe":9464,"çķª":9465,"è¿ĺåľ¨":9466,"è¿ĺå¿ħé¡»":9467,"ç³Ĭ":9468,"æĶ¹è¿Ľ":9469,"reement":9470,"Ġdecis":9471,"è¿ĳåĩł":9472,"Ġaccur":9473,"æŁĲä¸ª":9474,"Ġapproaches":9475,"èĢĥéªĮ":9476,"ç§ģèĲ¥":9477,"Ġelite":9478,"Ġconcerned":9479,"éĺ¶å±Ĥ":9480,"Ġsuffered":9481,"Ġviolent":9482,"æ¦ľ":9483,"Ġpractical":9484,"Ġcyber":9485,"Ġconstitutional":9486,"çļĦéĩįè¦ģæĢ§":9487,"ĠPalestinians":9488,"ospital":9489,"æķıæĦŁ":9490,"oly":9491,"èļ":9492,"çļĦåıįåºĶ":9493,"anish":9494,"ison":9495,"Ġgot":9496,"olar":9497,"ä¸įå°ĳ":9498,"mented":9499,"Ġasylum":9500,"estern":9501,"Ġexit":9502,"å±ł":9503,"å¹¶å°Ĩ":9504,"äº§æĿĥ":9505,"çļĦçĥ":9506,"Ġ14":9507,"ä¸ĸçķĮåĲĦåľ°":9508,"æĻ°":9509,"æĬķæľº":9510,"é¢Ĩå¯¼çļĦ":9511,"Ġarmed":9512,"æĺ¾å¾Ĺ":9513,"è¿Ļæł·ä¸Ģä¸ª":9514,"ä¸īåĪĨä¹ĭä¸Ģ":9515,"Ġ2003":9516,"Ġsupporting":9517,"è¿ĲçĶ¨":9518,"èĩªçĶ±åĮĸ":9519,"aily":9520,"Ġinstitution":9521,"åŁĥå¡ŀ":9522,"éĢīä¸¾ä¸Ń":9523,"çĻ¾åĪĨ":9524,"Ġengaged":9525,"è§īå¾Ĺ":9526,"Ġproposals":9527,"Ġattractive":9528,"appoint":9529,"Ġjournalists":9530,"Ġaccompanied":9531,"country":9532,"29":9533,"border":9534,"gic":9535,"Ġver":9536,"çļĦæĿĥåĪ©":9537,"rog":9538,"ä¸Ģè·¯":9539,"Ġliter":9540,"åĴĮæ¬§æ´²":9541,"åĴĮåĽ½éĻħ":9542,"æ¬º":9543,"æ¬ł":9544,"çİĽ":9545,"ĠEbola":9546,"ĠSumm":9547,"åĩºçĶŁ":9548,"éĩįå¡ĳ":9549,"æľ¬è´¨":9550,"aping":9551,"æŃ£ä¹ī":9552,"çĲĨæĢ§":9553,"æ±ī":9554,"ä»İäºĭ":9555,"Ġaging":9556,"Ġcontent":9557,"éĤ£ç§į":9558,"æ²¡äºº":9559,"ĠTibet":9560,"åħ±äº«":9561,"çŁ¿":9562,"ĠJin":9563,"Ġusers":9564,"ç¬¬åĽĽ":9565,"Ġcostly":9566,"ç»ĵæŀľæĺ¯":9567,"è¯ºè´Ŀå°Ķ":9568,"æŃ»åĪĳ":9569,"Ġpaying":9570,"Ġaccounting":9571,"è¡¥åģ¿":9572,"çĮĽ":9573,"Ġrecognition":9574,"èī¯å¥½":9575,"Ġfueled":9576,"Ġsecular":9577,"åı¤å·´":9578,"ä¸įè¶³ä»¥":9579,"Ġidentify":9580,"èĶĵ":9581,"ä¸°å¯Į":9582,"å½¼æŃ¤":9583,"åŁĥå¡ŀä¿Ħ":9584,"ES":9585,"comm":9586,"crisis":9587,"lades":9588,"rating":9589,"çļĦåħ¬åı¸":9590,"Ġeast":9591,"åĴĮæĹ¥æľ¬":9592,"ä¸įå®ī":9593,"åĮĪ":9594,"èĥ½åĬĽçļĦ":9595,"é¢ł":9596,"ĠAugust":9597,"ifth":9598,"ĠBrussels":9599,"è¿ĺå°Ĩ":9600,"éĤ£ä¸ª":9601,"è¯´æĺ¯":9602,"éĢīç¥¨":9603,"ĠWall":9604,"åģļåĪ°":9605,"æĻ®åıĬ":9606,"overed":9607,"è´Łè´£ä»»":9608,"Ġnationalism":9609,"åĮ»åŃ¦":9610,"ä¼¦çĲĨ":9611,"Chinese":9612,"reme":9613,"Ġshowed":9614,"Ġresearc":9615,"ç®Ģè¨Ģä¹ĭ":9616,"æĢ¥åī§":9617,"Ġnetworks":9618,"åħ»èĢģ":9619,"Ġincentive":9620,"è·Ŀç¦»":9621,"Ġceleb":9622,"Ġsuperv":9623,"Ġmortgage":9624,"Ġsenior":9625,"ç»¼åĲĪ":9626,"ĠPortugal":9627,"åŁĥå¡ŀä¿Ħæ¯Ķäºļ":9628,"IA":9629,"WAS":9630,"iop":9631,"mon":9632,"çļĦæ¬§çĽŁ":9633,"çļĦèµĦæľ¬":9634,"Ġwake":9635,"ional":9636,"Ġdialogue":9637,"Ġevolution":9638,"Ġrevol":9639,"åĴĮçİ¯å¢ĥ":9640,"éĢĴ":9641,"ä¼ļå¯¼èĩ´":9642,"ulf":9643,"ĠApril":9644,"åħ¶ä¸ŃçļĦ":9645,"å¤ļåħĥ":9646,"åĬ¨åĳĺ":9647,"å®ļä»·":9648,"ĠPaul":9649,"äºĭä¸ļ":9650,"é«ĺæķĪ":9651,"åĿİ":9652,"åıįèĢĮ":9653,"å¼ºåĬ¿":9654,"rence":9655,"ä¸»ä¹īåĴĮ":9656,"ä¸¤ä½į":9657,"Ġcenters":9658,"çī©ç§į":9659,"Ġhighlight":9660,"Ġwanted":9661,"Ġimplementation":9662,"Ġstructures":9663,"æ¸¸æĪı":9664,"æĭ¿åĩº":9665,"Ġopposite":9666,"Ġhistoric":9667,"æĲº":9668,"Ġmobile":9669,"Ġgradually":9670,"çºłæŃ£":9671,"mbly":9672,"INGTON":9673,"Ġplatforms":9674,"Ġwelcome":9675,"Ġremarkable":9676,"Ġgirls":9677,"ĠJinping":9678,"èĶĵå»¶":9679,"ladesh":9680,"Ġ.":9681,"Ġå¦Ĥæŀľ":9682,"Łçĸ¾":9683,"çļĦæ³ķå¾ĭ":9684,"era":9685,"angh":9686,"Ġfem":9687,"Ġnone":9688,"è¯ŀ":9689,"rap":9690,"æ²Ł":9691,"æĮª":9692,"ained":9693,"åİļ":9694,"ocu":9695,"artment":9696,"éĺ±":9697,"åħ³éĹŃ":9698,"æĪĺæĸĹ":9699,"Ġalliance":9700,"ä¿Ŀåģ¥":9701,"åıįè¿ĩæĿ¥":9702,"èŀįåħ¥":9703,"è§ĦèĮĥ":9704,"ordination":9705,"éĩįè¦ģæĢ§":9706,"èĻĲ":9707,"å¤įåħ´":9708,"ä¸¾è¡ĮçļĦ":9709,"Ġdefined":9710,"æĬĢæľ¯çļĦ":9711,"æĸĩç«ł":9712,"éªĹ":9713,"éħ¬":9714,"ĠTrans":9715,"Ġsetting":9716,"éĻ·éĺ±":9717,"Ġantibiot":9718,"Ġpressures":9719,"èĲ¨å¾·":9720,"Ġreported":9721,"Ġboosting":9722,"ĠTurk":9723,"Ġborrowers":9724,"Ġdetermined":9725,"Ġobserv":9726,"Ġsurprising":9727,"Ġsurvey":9728,"Ġcriminal":9729,"ĠIndonesia":9730,"ĠKosovo":9731,"BR":9732,"HINGTON":9733,"Pe":9734,"sk":9735,"Ġtempt":9736,"Ġfal":9737,"ica":9738,"Ġthr":9739,"åºĨ":9740,"è´¯":9741,"etic":9742,"ä»¥å¤ĸ":9743,"ading":9744,"æĮ½":9745,"Ġnotably":9746,"Ġsearch":9747,"Ġshr":9748,"duc":9749,"igned":9750,"æĿĥå¨ģ":9751,"rency":9752,"ä¸¤èĢħ":9753,"Ġsupplies":9754,"åºĶè¯¥æĺ¯":9755,"ç¤¾ä¼ļçļĦ":9756,"2002":9757,"åĪ¤æĸŃ":9758,"Ġequality":9759,"èĪ¹":9760,"Ġbrut":9761,"è¿«åĪĩ":9762,"èĲ½åĲİ":9763,"igrant":9764,"é¡¾éĹ®":9765,"Ġpreviously":9766,"æĺĤè´µ":9767,"Ġeliminate":9768,"èĽĭ":9769,"Russia":9770,"national":9771,"Ġiron":9772,"çļĦç§»æ°ĳ":9773,"å®°":9774,"è¿ĻéĩĮ":9775,"åĩŃ":9776,"idel":9777,"ĠEth":9778,"ĠAbe":9779,"orted":9780,"åıĳæĺİ":9781,"ife":9782,"éķĳ":9783,"æľĢä½³":9784,"Ġintended":9785,"å¾Īå®¹æĺĵ":9786,"æĸ½åĬł":9787,"éģĵçĲĨ":9788,"è®¾ç«ĭ":9789,"è§Ĥå¿µ":9790,"æīĢæľīäººéĥ½":9791,"æ·¡":9792,"ä¸¥åİī":9793,"obel":9794,"ä¸´æĹ¶":9795,"Ġbenefic":9796,"åħħè¶³":9797,"ĠVladimir":9798,"çīĻåĪ©":9799,"èĲ½å®ŀ":9800,"Ġpreventing":9801,"Ġmaintaining":9802,"ç»Ĩèĥŀ":9803,"ä¿Ŀå®Īåħļ":9804,"åĥµå±Ģ":9805,"Ġcompromise":9806,"Two":9807,"åĮĪçīĻåĪ©":9808,"anghai":9809,"Until":9810,"pass":9811,"Ġphen":9812,"ingu":9813,"åĴĮæĶ¿åºľ":9814,"éĿ¡":9815,"åĩºèµĦ":9816,"åĩºçİ°åľ¨":9817,"å¤ļå¹´":9818,"åħ¨åĬĽ":9819,"çī¢":9820,"çīµ":9821,"Ġshocks":9822,"æľĢåĪĿ":9823,"éĩįè§Ĩ":9824,"æľ¬äºº":9825,"ĠBern":9826,"åĬłæ²Ļ":9827,"arters":9828,"åĪĨåĪ«":9829,"åĲĪåĲĮ":9830,"Ġexposed":9831,"Ġexplicit":9832,"Ġmanaging":9833,"æ²¡æľīäºº":9834,"éĵ¶è¡Įå®¶":9835,"åħ¶ä»ĸäºº":9836,"Ġinde":9837,"ä¸¤ç§į":9838,"åĲĦä¸ª":9839,"Ġarch":9840,"çľĭä¸Ĭåİ»":9841,"æ³¨åħ¥":9842,"æĸĩæĺİ":9843,"Ġcreates":9844,"çªģçł´":9845,"ĠChance":9846,"ç§ģæľī":9847,"cker":9848,"æľīæķĪåľ°":9849,"éĢĤçĶ¨äºİ":9850,"Ġoperate":9851,"Ġnetwork":9852,"Ġaccepted":9853,"Ġclosely":9854,"Ġexpanded":9855,"å¡ŀå°Ķç»´äºļ":9856,"Ġengagement":9857,"Ġembrace":9858,"Ġmandate":9859,"æĬĽå¼ĥ":9860,"Governments":9861,"Ġperceived":9862,"æ®ĸæ°ĳ":9863,"ĠPhilippines":9864,"oke":9865,"Ġå°Ĩ":9866,"ĠèĢĮä¸Ķ":9867,"çļĦæĢģåº¦":9868,"æĿİ":9869,"imp":9870,"æĹº":9871,"cean":9872,"Ġfort":9873,"ĠCameron":9874,"ĠAm":9875,"Ġweather":9876,"æ³ķå®ĺ":9877,"å±Ī":9878,"æĽ´å¹¿æ³Ľ":9879,"äºĽæĹ¶åĢĻ":9880,"æĪĳåľ¨":9881,"Ġchamp":9882,"ä¸ĭäºĨ":9883,"æĪĳä»¬åľ¨":9884,"Ġuncon":9885,"ç½ķ":9886,"ä¸ĸçķĮåħ¶ä»ĸ":9887,"Ġmanagers":9888,"æĶ¿çŃĸåĪ¶å®ļ":9889,"ç¤¼":9890,"æ²¡æľīä»Ģä¹Ī":9891,"agement":9892,"ä½ķç§į":9893,"ä¸¤å¹´":9894,"Ġapply":9895,"éĴ¢":9896,"é¦ĸå¸Ń":9897,"å½¢æĪĲäºĨ":9898,"Ġopponents":9899,"åĮ»éĻ¢":9900,"Ġdoesn":9901,"äººæ°ĳéĵ¶è¡Į":9902,"Ġhumanity":9903,"å£°éŁ³":9904,"ç¾¤ä¼Ĺ":9905,"åıĤä¸İèĢħ":9906,"Ġparad":9907,"Ġnegotiate":9908,"ä¿®æĶ¹":9909,"Ġchem":9910,"Ġsurely":9911,"æ¯ģçģŃ":9912,"Ġirre":9913,"ĠKenya":9914,"Ġsales":9915,"contro":9916,"liferation":9917,"æĬ«éľ²":9918,"çĻ¾åĪĨçĤ¹":9919,"Ġresearchers":9920,"DI":9921,"mosp":9922,"uable":9923,"Ġaud":9924,"çļĦå¢ŀåĬł":9925,"çļĦå®īåħ¨":9926,"Ġcra":9927,"Ġcrop":9928,"Ġdow":9929,"æĺ¯çĶ±":9930,"ä¸Ģæĸ¹éĿ¢":9931,"ä¸įéľĢè¦ģ":9932,"æĹ±":9933,"security":9934,"Ġcong":9935,"ä¿±":9936,"Ġchronic":9937,"åĪĨäº«":9938,"æĶ¿åºľåľ¨":9939,"ĠFound":9940,"å¼Ģå±ķ":9941,"Third":9942,"ç¼ĸ":9943,"ä¿¡èªī":9944,"Ġrace":9945,"åĪĽä¸ļ":9946,"Ġreput":9947,"çļĦäººæ°ĳ":9948,"å®Įæķ´":9949,"è´¢æĶ¿æĶ¿çŃĸ":9950,"è´¢æĶ¿éĥ¨éķ¿":9951,"Ġincluded":9952,"ommod":9953,"çº³ç²¹":9954,"Ġthreatened":9955,"Ġanticip":9956,"è¡¥åħħ":9957,"ĠIranian":9958,"èģĮä½į":9959,"æ¼Ķè®²":9960,"å¥¹çļĦ":9961,"Ġpeaceful":9962,"è®²è¯Ŀ":9963,"å»¶éķ¿":9964,"Any":9965,"ä¸įå¹³çŃīæĢ§":9966,"Ġresolution":9967,"çļĦçŁ³":9968,"çļĦçŁŃ":9969,"ĠMuslims":9970,"Ġemployees":9971,"Ġsentiment":9972,"Ġpushing":9973,"ĠCanada":9974,"æ»¥çĶ¨":9975,"ĠBRICS":9976,"Ġperiphery":9977,"ĠBangladesh":9978,"Nonetheless":9979,"WASHINGTON":9980,"che":9981,"free":9982,"rs":9983,"çļĦæĿĥåĬĽ":9984,"atal":9985,"Ġtoler":9986,"å¤¸":9987,"oming":9988,"Ġnine":9989,"Ġnav":9990,"Ġnorthern":9991,"ä¸Ģè½®":9992,"æī£":9993,"urch":9994,"Ġrival":9995,"ä¹Łä¸įæĺ¯":9996,"ç»ıæµİåĴĮ":9997,"Ġweight":9998,"æľĢå¥½çļĦ":9999}